#version: 0.2 - Trained by `huggingface/tokenizers`
e r
e n
i n
c h
m a
i e
a n
Ġ v
e l
d e
a l
a t
g e
o r
i j
Ġ l
o g
Ġ o
Ġ b
e t
ch t
s t
Ġ m
r e
Ġ ma
in g
Ġ a
r a
Ġv an
d er
Ġ c
i s
l a
a r
Ġ de
t e
e en
d i
Ġ p
Ġ ge
Ġ 1
o l
o n
Ġ re
Ġ in
Ġv er
Ġ n
m ma
Ġ h
l i
e k
in k
Ġ t
Ġ w
i t
Ġb e
Ġm et
Ġ d
og ra
ij k
at ie
u s
a ar
Ġl ink
c t
o or
r o
Ġ en
m m
Ġ s
Ġ 2
Ġre cht
Ġ een
Ġ M
is ch
i c
l e
der z
a al
Ġo n
Ġ k
en s
Ġo p
e e
li er
Ġ B
V er
mm ogra
č Ċ
u r
Ġma mma
o m
Ġ e
Ġ G
s s
Ġa an
en d
Ġ z
Ġ g
Ġlink s
Ġh et
i d
f ie
a cht
Ġrecht s
o og
i g
0 1
la g
R A
s lag
v er
Ġge en
i l
isch e
i r
el e
o ek
ch o
s el
Ġa f
a g
i f
o p
al e
a d
RA D
RAD S
I RADS
at er
Ver slag
Ġ P
Ġ u
ing en
Ġ T
i te
ss a
if ic
e er
en t
ific atie
ee f
r an
a m
b aar
mmogra fie
al c
e s
Ġma ssa
alc ificatie
derz oek
Ġ D
eef sel
d s
u m
la ir
el ijk
Ġ H
ma mma
v en
y m
Ġ f
Ġn a
alcificatie s
ct ie
Ġl ater
ol og
o t
Ġ E
ym f
Ġ (
Ġl ymf
I n
o e
C on
ĠB IRADS
c l
ĠG een
er mamma
ij ds
Ġk lier
i derz
iderz ijds
ite it
u n
i cht
Ġ A
cl us
s p
Ġ te
en de
x il
Ġv oor
an d
o ven
ij z
clus ie
2 01
Ġ is
d en
Con clusie
n e
w ijk
Ġm m
Ġb oven
i st
Ġc m
ĠM a
Ġon derzoek
Ġaf wijk
in a
at h
w eefsel
st er
w ijz
d acht
Ġc y
Ġ 3
Ġver g
Ġ S
a di
ran t
ad rant
ol oog
o om
w adrant
r k
R e
Ġ C
Ġ O
ag ina
ĠP agina
R adi
ie t
Ġa xil
Ġ L
ge v
Ġc alcificaties
olog ische
Ġw or
acht end
oog achtend
Ġd ens
k wadrant
Ġo f
st e
d t
Ġklier weefsel
o c
) :
mmogra m
y p
w e
de el
b ie
le ur
Ġbe oor
Ġ K
at us
0 0
k leur
Ġu ur
v e
ic ro
Radi oloog
s e
ch ogra
ĠMa mmografie
Ġm e
Ġm icro
l in
li g
i op
ĠH oogachtend
Ġp un
u lair
al k
o k
or m
rk er
Ġu it
Ġw aar
e c
p el
k en
Ġbeoor deel
Ġb ij
i b
Ġl a
Ġ r
Ġma mmogram
R I
la at
- -
Ġlater aal
Ġaan kleur
i re
Ġwor dt
el l
Ġbe iderzijds
Ġ di
Ġpun ctie
Ġma lig
u l
Ġbeoordeel baar
Ġverg elijk
n am
Ġ W
Ġver dacht
lin ische
es ie
a s
yp ist
ĠE cho
Ġf ib
G een
u id
Ġge bie
Ġ st
) .
i er
Ġme di
ĠT ypist
ij n
i de
c in
an der
g r
Ġlater ale
is ie
u t
el d
Ġlink ermamma
ra ag
o s
Ġboven kwadrant
ar cin
Ġb iop
s ch
Ġrecht ermamma
n iteit
g en
um or
j e
ig ne
Ġe cho
Ġg ro
arcin oom
le in
ek lier
Ġla esie
Ġ 0
en igne
oe d
k lier
k ele
Ġte pel
ĠM RI
Ġon der
Ġt er
Ġmalig niteit
gev ens
Ġn iet
Ġp ath
Ġ N
ell ing
Ġlymf eklier
ra al
Ġvergelijk ing
Ġverdacht e
a b
Ġ j
er d
ĠG e
Ġaan wijz
i ge
Ġ In
v isie
u ur
Ġb enigne
Ġp laat
Ġk lein
e iderzijds
Ġafwijk ing
or ma
E cho
a st
gr ens
di c
Ġaxil la
Ġd oor
Ġ2 01
Ġ 4
Ġ -
us p
ent raal
r og
i en
al p
l and
k alk
Ġgebie d
w ee
Ġbiop t
Ġmamma e
Ġs usp
c alcificaties
B IRADS
Ġen kele
h e
Ġw eefsel
Ġc a
m et
ec te
Ġ x
t er
rog land
Ġfib rogland
Ġ al
ĠK linische
alp ab
e ct
t atus
Ġt umor
z e
Ġa r
dic atie
st elling
Ġt ot
Ġma mmografie
ct uur
raag stelling
Ġma rker
sp re
we z
Ġz icht
Ġ Re
u d
V raagstelling
cht er
M a
c arcinoom
Ġafwijk ingen
Ġaanwijz ingen
Ġ V
Ġfibrogland ulair
ek en
Ġop nam
ad en
e g
Ġ 6
ran i
Ġsusp ecte
cht s
Ġmicro calcificaties
chogra fie
Ġo ver
Ġzicht baar
ra di
l u
Ġ Ver
Ġ 5
S T
O n
on der
Ġlink er
t ologische
v an
ink s
on t
Ġt wee
der s
ch ite
eer d
chite ctuur
ĠO n
alpab ele
ĉ ĉ
Ġon ver
Ġaankleur ing
ĠM ST
Ġrecht er
Ġ radi
el eken
Ġar chitectuur
o st
st or
k ing
es e
v orm
d el
Ġe er
wijz ig
at i
ge wijzig
ĠD e
Ġaxil lair
i ma
f isch
t h
Ġm eer
er atie
Ġlymf klier
Ġpath ologische
a p
Ġc rani
ver stor
Ġplaat se
Ġc entraal
Ġklein e
ol l
op ath
Ġn o
on d
ar m
Ġ Z
Ġarchitectuur verstor
2 00
Â ł
r u
b e
Ġ el
Ġp ro
spre id
Ġ I
opath ie
Ġcy ste
en ing
o di
ander d
Ġbe v
Ġo k
r icht
Ġeer der
u p
ĠGe gevens
et er
Ġp a
a an
gewijzig d
th ese
e m
e p
C R
Ġmedi aal
chogra fisch
Ġh uid
Ġw erd
Ġver richt
Ġst atus
0 2
Ġdens iteit
In dicatie
u w
Ġh ier
Ġp alpabele
a re
Ġ R
o o
Ġe ch
Ġmamma carcinoom
Ġel ders
ge en
al is
d u
Ġcy tologische
ĠD r
ar t
Ġ1 2
Ġo ok
ek ende
ul l
1 2
B eiderzijds
l ijk
c on
S tatus
Ġa sp
Ġg oed
Ġn og
h er
Ġ2 00
ent in
Ġbe eld
Ġarchitectuurverstor ing
entin el
ĠA CR
ap ie
Ġok sel
ie f
v ull
odi um
met ing
her apie
at um
Ġmicro kalk
ol e
olog isch
lu ster
er p
wez en
aden opathie
Ġlymfeklier en
i m
Ġlymf adenopathie
om en
Ġm in
Ġs entinel
u it
Ġc luster
g a
ĠT er
Ġz ijn
di g
Ġin t
Ġ F
Ġf oc
d atum
f orm
Ġt oe
I S
arm e
Ġa chter
Ġbe grens
Ġ1 0
z ien
or s
ul t
i k
Ġasp ect
Ġk alk
i ch
Ġal s
o geen
Ġopnam e
b are
g eleken
Ġg ele
Ġmedi ale
Ġ 9
om p
ol le
Ġs ch
r ole
T er
la v
Ġ 7
o f
Ġs p
orma al
Ġver di
Ġin f
Ġaf grens
lav ic
-- --
i on
Ġ1 4
la ire
he id
Ġver v
Ġ er
E chografie
Ġp ost
Ġonder kwadrant
h al
ater aal
Ġ ster
u is
0 3
x ima
Ġz onder
k e
D e
st en
Ġaf meting
a ct
Ġbev in
L inks
0 4
1 1
ĠB eiderzijds
er end
Ġonver dacht
te ken
Ġj odium
g er
ma rker
uid elijk
O p
et ro
u b
0 5
Ġc or
os it
Re chts
y n
Ġn ie
del ing
Ġc ont
r on
vorm ige
On derzoek
it u
Ġver spreid
Ġe chografisch
Ġz ich
o w
Ġge gevens
Ġlymfklier en
Ġ1 5
o b
r ie
ati ent
ijn lijk
Ma mmografie
Ġ 8
0 9
lavic ulair
Ġt o
ĠO p
og elijk
der e
1 9
ĠA an
o de
0 6
A an
j es
i v
t en
Ġt en
om os
yn these
omos ynthese
Ġ an
er de
Ġma xima
Ġs itu
Ġbegrens de
Ġ J
Ġ +
Ġbiopt en
Ġ1 1
h an
e ot
f t
c re
C IS
b ij
olog ie
0 8
Ġgro ot
Ġcrani aal
mm et
Ġw el
Ġre st
Ġre c
Ġon gewijzigd
s ie
ar ma
y mmet
arma con
of armacon
it teken
e v
O B
0 7
Ġge zien
Ġpa ss
Ġd uidelijk
ot herapie
Ġverv aar
Re visie
Ġaankleur ende
i p
ol g
u g
Ġg en
am eter
Ġca ud
u c
alis atie
Ġl itteken
Ġaxilla ire
Ġge ma
Ġde ze
Ġvervaar dig
1 0
A M
k te
K linische
E T
u we
h uis
Ġs ol
id ief
an g
9 9
Ġs ub
AM M
Ġm ult
Ġvervaardig d
Ġfib ro
Ġwor den
Ġcy sten
Ġbe wezen
ĠB OB
Ġn aar
Ġ ch
op eratie
201 4
f f
Ġw at
I E
ge b
hal ve
Ġge p
Ġr icht
Ġa b
e b
ĠS tatus
ĠM AMM
Ġdi ameter
t ig
t ie
ĠD CIS
Ġn ormaal
Ġafgrens bare
' s
ĠL inks
cre ening
Ġe chografie
Ġc on
Ġv et
Ġop eratie
Ġz eer
Ġgele gen
Ġa s
Ġb ekende
at e
Ġo v
nam e
Ġver kalk
Ġdensiteit en
Ġh er
Ġaan wez
ie ken
et re
di ening
Ġn u
ver anderd
c m
ĠL oo
r ij
C T
ĠRe visie
Ġonver anderd
Ġn e
i a
c e
t re
ĠRe chts
Ġm ogelijk
v oor
Ġo m
sch ijnlijk
s ne
sne de
or ie
a xil
Ġd ors
at eg
ateg orie
eot act
ieken huis
Ġdi t
S N
Ġl i
Ġ2 1
Ġd an
Ġcluster s
ek end
osit ie
am e
s en
eer de
q u
Ġaan vull
Ġaanwez ig
Ġr etro
M w
gev eer
Ġrec idief
n ode
Ġ der
Ġnie uwe
u le
up er
Ġdoor snede
ele id
n ar
ĠZ w
Ġklier en
ra c
li p
Ġopnam en
Ġp er
N a
w as
a x
a ir
Ġge v
Ġsentinel node
Ġb etre
Ġne o
Ġon geveer
Ġgebie den
n el
b er
v ra
ie s
ĠZw art
ge t
ĠVer geleken
or st
ar en
Ġd ie
s Radioloog
Ġab l
if oc
n u
Ma mma
mm er
n a
u laire
he den
icht e
Ġb ijz
Ġbijz onder
di ge
Ġt omosynthese
Ġverg eleken
Ġsol ide
L E
Ġver slag
Ġbijzonder heden
a ire
ĠP ET
aden oom
vra ger
ast as
ek er
Ġpass end
in ter
Ġlaesie s
og en
ĠC T
e x
ster n
nu mmer
ĠP A
Ġg er
aan de
Ġl ok
Ġ1 3
a ctie
Ġcaud aal
ga and
Ġhet er
ol ateraal
Ġbevin dt
olg ens
Ġc olle
ĠW LE
Ġbe h
Ġch em
d ro
Ġma tig
oor te
s datum
oorte datum
ĠM B
Ġ1 6
lip s
Ġpa ra
Ġverg ro
on derzoek
Ġno de
k t
ĠH ier
orma tie
201 6
gen omen
ĠW inter
201 7
Ġradi oloog
orma le
Ġverkalk ingen
Ġgema rk
ma t
an ge
be oor
Ġcolle ga
en te
iet s
Ġ ander
ule erde
G RA
S uper
Ġe v
Ġsch erp
y dro
c a
ĠA f
ĠOn derzoek
k oek
oek koek
operatie ve
Ġ iets
Ġinf ormatie
astas en
Ġdi ff
Ã «
Ġwaar schijnlijk
s k
Ġp l
ar nar
Ġ U
a se
han s
Ġint ra
Ġdors aal
r il
ien te
Ġc omp
ĠW arnar
Ġster eotact
u ze
O GRA
Ġ Verslag
ĠMB q
u lier
uc le
j u
ĠK oekkoek
Ġbetre ft
d v
te x
tre m
Ġver ander
B ij
Ġmeer dere
trem iteit
Ġ2 0
sk un
re g
Ġw e
ter i
ee skun
Ġtoe diening
Ġgemark eerd
a f
Ġz o
Ġe x
Ġ2 5
ex tremiteit
ent r
aren ch
201 8
Ġg el
Ġwaar voor
z a
t je
m il
k king
dv ies
Ġbeeld vorm
ev ens
Ġcor tex
Ġonderzoek en
ju van
ĠD oll
Ġd u
Ġbe ide
Ġ1 7
Ġh ydro
Ġp ositie
Ġverdi cht
ĠIn dicatie
F IE
ĠWarnar sRadioloog
Ġuit was
Ġh yp
axil la
Ġe chter
Ġz w
E R
Ġc arcinoom
an oc
Ġbiop sie
a at
e el
anoc oll
Ġas ymmet
Ġtwee de
Ġv rij
ĠL ange
201 5
Ġpara stern
ran d
c te
Ġ1 8
ĠN a
G oed
Ġ1 9
ĠMAMM OGRA
oll ow
ĠS N
oe de
D G
ij de
in ion
ec ond
Con t
Ġbe sch
Ġop inion
eter ogeen
ect or
ar i
ĠZwart Radioloog
d elijk
Ġp arench
. :
or ijk
rac laviculair
ct iv
ee m
is u
Ġcon form
u st
Ġp atient
ĠE r
ut en
s onderzoek
Ġpath ologisch
im p
b iop
Ġech orijk
Ġs le
Super visie
c omp
Ġop z
b oven
Ġmin uten
ater ale
y tologische
ip ele
Ġver b
la d
Ġheter ogeen
Ġopz ichte
Ġaf ge
ĠW e
Ġc alcificatie
l op
Ġh ist
Ġgro ep
ag n
Ġvoor gaand
eef t
Ġverander ingen
Ġhydro marker
ĠLoo Radioloog
Ġmaxima le
ad juvan
Ġ2 2
h or
201 9
Cont role
Ġricht ingen
Ġo b
Ġ ir
d w
M RI
el s
Ġwaar bij
st ra
geb re
ucle air
d o
Ġvergro te
ĠDoll Radioloog
eeskun dige
Ġchem otherapie
ĠMAMMOGRA FIE
f e
Ġpost operatieve
Ġaanwijz ing
Ġw as
o id
H oogachtend
Ġov ale
b ron
je ctie
ie k
ru in
Ġcrani olateraal
c lips
ge st
n eem
Ġh e
Ġ rand
sch erp
ar ende
Ġma ar
Ġd rie
Ġwel ke
ad je
Ġwaar neem
02 0
ol king
Ġcont role
Ġma st
Ġz ien
Ġwaarneem baar
olking sonderzoek
o cht
Ġzw elling
Ġsub c
ĠC C
Ġ ,
Ġg lad
201 3
Ġa ctiv
ati o
or is
Ġc ategorie
n kele
ut oris
in ig
Ġs nel
Ġgroot ste
den king
L O
hor ax
ogen e
E r
Ġo ud
Ġpro these
ĠO ok
Ġactiv iteit
re ss
Ã« n
m in
g ro
ra ad
. -
lu it
er v
Ġgep laat
c em
Ġradi ofarmacon
at iente
Radi ofarmacon
anocoll oid
la k
be eld
Ġh oog
op name
in ge
t o
L A
le g
d ingen
Ġmaxima al
ĠH et
Ġabl atio
ct erend
Ġsubc ut
Ġ /
Ġt horax
ĠV ER
ruin ing
Ver geleken
Ġn ame
st aande
H eterogeen
Ġge sp
Ġbev olkingsonderzoek
201 2
Ġto ont
er e
S LA
qu e
gr ond
Ġir reg
ic uleerde
SLA G
ster d
adjuvan te
Ġb el
1 5
Ġ Conclusie
ĠVER SLAG
os is
Ġverb and
Ġfoc ale
ij d
xil lair
Ġon scherp
li c
v ol
Ġoperatie clips
du re
ĠN u
c isie
li que
u im
isu alisatie
Ġz eker
e ver
ma mil
Ġhier van
agn ost
Ġt herapie
1 4
Ġm ee
ce dure
al s
Ġachter grond
. .
h oog
ĠMa mma
ĠT evens
Ġmalig ne
Ġob lique
ĠB ruining
Ġv ia
1 3
Ġfoc us
12 5
Ġn et
Ġs creening
p ro
Ġmult ipele
Ġd r
eg m
een s
ma mmografie
Ġr ond
Ġre actie
ven eens
on de
Ġander e
Ġl ijk
Ġr uim
Ġduidelijk e
e di
ij f
Ġwe inig
ress ie
Ġpath ologie
ĠOn gewijzigd
Ġgro ve
n anocolloid
atie f
spre ide
Ġ X
ĠM LO
Ġs up
at en
kleur ing
Ġintra mamma
I I
Ġdu ct
P atient
ĠDe ze
Ġuit gebre
l ders
as ie
id del
ĠOn veranderd
s luit
Ġge h
Ġh eeft
Ġg raad
t al
n en
ol i
Ġb orst
Ġasymmet rie
e ds
on en
Ġ0 9
Ġaanvull ende
Ġver k
Ġgro te
du ctie
Ġp re
Ġder halve
bie d
ĠB e
I O
st and
ĉĉ ĉ
Ġ ----
lop er
s c
Ġk om
el f
un ctie
Aan vull
Ġge d
form ulier
A m
Ġk an
m ber
v eld
lin isch
Ġ2 3
Ġre eds
Ġpro cedure
Ġw ij
ĠZ iekenhuis
ĠB ij
Ġuit loper
201 1
) ,
sterd am
Ġl ever
Ġfibro adenoom
za adje
Ġover een
ĠF DG
Ġd at
i li
Ġj u
Ġradi otherapie
om ie
Ġf am
Ġplaat s
eer t
Ġverdi kte
IO S
ĠD i
Ġmet astasen
ast ase
Ġech og
acht e
w ist
A IOS
D r
Ġn on
o d
Ġs egm
ĠLange Radioloog
Ġon t
Ġbeeldvorm end
On veranderd
Ġgesp iculeerde
ĠVer der
Ġgeplaat st
Ver spreid
Ġd aar
Ġbe g
on den
G eb
st ig
Aan vrager
ĉĉ ĉĉĉ
Ġonder staande
Am sterdam
we et
Ġverricht ten
Ġonderzoek Na
Patient nummer
B SN
ĠGe achte
Onderzoek sdatum
Geb oortedatum
ĠonderzoekNa am
ra ina
Ġb ekend
raina ge
weet al
Ġ3 0
g ing
u atie
Ġparastern aal
st ru
il dw
ildw acht
ra st
he el
ildwacht klier
Ġcy t
Ġretro mamil
Z ie
Ġ2 4
Ġno du
Ġverdicht ingen
Ġver denking
Ġe veneens
or der
u us
Ġv a
Ġgel ob
Ġecho arme
er t
o el
il ie
Ġmee st
Ġt hans
Ġeerder e
Ġno d
ĠMBq Klinische
Ġlijk t
Ġvan uit
ele ide
Ġbevin dingen
B ekende
Ġjodium zaadje
Ġter ug
Ġarchitectuurverstor ingen
ifoc ale
at ig
y st
Ġmamma ca
ma ssa
w and
in e
Ġafgrens baar
ster veld
r el
sch ijf
C H
p oli
Ġg ril
teri or
at ell
atell iet
Ġklier schijf
r at
beoor deling
c ro
Ġan terior
k el
Ġ201 9
T c
Ġ .
oe ve
Ġs ep
Ġlateraal boven
ĠDi cterend
Ġb ron
S ch
: -
Ġdiff us
Ġplaat sen
Ġbel ast
ge bied
iddel s
comp lic
a pel
Ġre sp
y ma
a ud
rat umor
ĠE en
Ġhier in
k om
Ġaan ge
201 0
200 4
Ġwaar van
Ġt wist
Ġ0 8
Ġmarker ing
Ġv ocht
Ġ2 8
Ġparench yma
Ġs atelliet
apel ing
Ġb er
l een
ymmet r
Ġen ige
Ġgen eeskundige
Ġricht ing
ĠG oed
Ġher ken
e de
1 8
ĠS econd
ĠL ee
edi aal
sluit end
Ġbeg eleid
Ġaanvull end
Ġ201 8
agnost iek
ĠBruining Radioloog
a u
Ġcont rast
Ġhe mat
Ġover ige
Ġaf stand
ati Ã«n
ĠWe sterveld
Ġw eg
w el
on s
Ġp ector
Ġger inge
Ġaankleur end
del en
yst ro
Ġ2 7
ar get
o op
aar ne
o lair
Ġk wadrant
utoris erend
Ġstereotact isch
an n
Ġb ol
Ġ2 6
Ġhyp o
Ġver hoog
Sch ildwachtklier
t jes
Ġlok ale
li ge
Ġkom t
ĠR T
re ven
uw en
Ġretromamil lair
c y
Ġlinker axilla
Ġgen omen
ifoc aal
Ġge gro
ce ss
cl u
el on
A dvies
N ucleair
Ġ201 6
Ma mmogram
200 9
alpab el
Ġnie uw
Ġech elon
Ġtumor massa
ens e
Ġbeoor delen
ut atie
oo d
Ġsch ors
Ġbeoordeelbaar heid
Ġcyste uze
Ġz iekenhuis
Ġde els
ge complic
Ġt weetal
g ang
Ġp atiente
Ġw er
I N
wijk ingen
ct omie
a kt
Ġver s
2 020
Ġjodium bron
ĠP ol
m er
Ġc ut
Ġmin der
Ġd ystro
Ġonderzoek Radiofarmacon
Ġl ang
p erv
Ġv in
Ġhemat oom
Ġechorijk e
k er
v al
Ġ201 7
ĠE nkele
Ġwer den
Ġst ru
ic laviculair
Ġmast opathie
Ver der
imp ele
Ġpun ct
Ġg oede
H et
Ġt onen
Ġtoe genomen
Ġpector alis
Ġu p
el den
Ġge clu
Ġmamma poli
perv lak
Ġneo adjuvante
Mamma carcinoom
Ġbegrens d
Ġgegro ep
aal d
D osis
Ġr onde
Ġex cisie
Ġsle cht
Ġ5 0
r i
h oek
B e
Ġ2 9
pervlak k
H er
Ġstereotact ische
Ġn ormale
Ġv eel
ĠV oor
han cem
c cess
hancem ent
Ġ Controle
Ġ0 7
Ġv olle
Con form
v ing
Ġl ate
Ġge heel
Ġaan to
Ġen hancement
ij ne
ma ss
Ġaanto on
beoor deel
ĠC ategorie
o se
Ġk or
in ds
r ik
un cte
ĠLee uwen
Ġver m
ĠS t
ĠGe b
o ud
Ġver spreide
Ġl oc
Ġs impele
Ġnod us
P A
K I
Ġfam ilie
ĠN KI
l ot
ĠAan vrager
ccess ion
Ġl ig
ccession nummer
ĠAf deling
ĠOnderzoek sdatum
ĠGeb oortedatum
ĠLeeuwen hoek
ĠA ccessionnummer
Ġf ijne
ĠB SN
u i
Ġ order
ik linisch
Ġovereen kom
ĠPol iklinisch
Ġweg ens
Ġte gen
l aterale
ur g
Ġj aar
Ġgroep jes
h ier
Ġz ijde
Ġv entraal
ver di
di agnostiek
Ġhoog te
Ġ201 5
Ġber ust
entr um
Ġ0 4
Ġbesch ik
-- -
ĠMAMM A
Ġto en
Ġverhoog de
Ġal leen
Ġgeh ele
Ġp ijn
Ġdens e
n ese
Ġdie p
ĠO K
Ġont st
Ġbesch reven
Ġop pervlakk
Ġsnel diagnostiek
ste ctomie
am nese
ĠD it
an u
p laat
Ġcyt ologie
ĠE chografisch
an e
E chografisch
p re
aar d
Ġev id
Ġa den
f ische
Ġbeh and
ĠVer spreid
Ġherken baar
re ct
ĠU rk
oc aud
Ġu n
osit ief
Ġb l
ie uw
Ġv isualisatie
Ġa d
van g
Ġnodu laire
On gewijzigd
Ġgebied je
Ġd rainage
ĠE lders
Ġmin ima
verdi kking
Ġwaar uit
Ġfoc i
Ġdiff uus
Ġver der
Her beoordeling
we ge
i raal
Ġp alpabel
Z eer
are olair
en g
Ġre delijk
Ġt ijd
sp arende
ow el
e ch
. ,
e i
200 8
oed elijk
o ver
oe g
uncte erd
Ġsusp ect
Ġma stectomie
Ġ0 6
Ġhist ologisch
ĠE Z
Ġged uid
lig g
ĠEZ IS
Ġgril lige
k ken
ĠB ekende
Ġn eg
anu ari
Ġa ug
Ġkor te
Ġcut is
Ġirreg ulaire
Ġbe st
Ġabl atie
Ġma art
stru ctie
u mma
ijk om
Ġin v
Ġafge beeld
ster de
Ġsegm ent
Ġv olgens
Ġm oe
Ġa p
Ġmet astase
Ġok t
Ġrechter axilla
rani aal
Ġ imp
b orst
un i
Ġper iclaviculair
Ġgeclu sterde
! !
ĠA utoriserend
nanocolloid Dosis
p ot
d z
E CT
Ġ0 3
odi umma
Ġme i
odiumma rker
Ġl ood
on e
Ġuitgebre ide
Ġj anuari
Ġg r
Ġov aal
ist ologisch
v olgens
teri aal
ee g
or fe
v ide
Ġ0 5
con structie
er ende
ent ie
elf de
Ġthorax wand
Ġonverdacht e
Ġsp arende
Ġlok alisatie
Ġl icht
ĠJ odium
Ġper i
Ġvolle dig
Ġech ol
Ġgegroep eerde
P ECT
Ġto ch
us sen
Ġgema akt
am en
z oek
r al
uur d
Ġbeh oeve
Ġplaats ing
te ct
di en
g el
Ġm iddels
er en
Ġinf raclaviculair
plaat s
Ġd ag
gecomplic eerde
Ġa m
Ġimp on
Ġmamma sparende
Ġresp ons
Ġ0 2
p ector
Ġom vang
min ste
di kte
1 6
er halve
uc tect
a k
Ġpunct ate
ĠUrk Radioloog
g i
ĠU it
CH O
ma al
operatie f
A xillair
Ġj uni
M atig
Ġl eeg
Ġreactie ve
Ġpass en
ro ken
Ġstru ctuur
uctect asie
ob er
il ijk
na ast
do ving
gest uurd
o mat
ch og
Ġbe s
Ġre visie
Ġ3 1
at ische
eert stra
Ġb ijkom
F ollow
ver dacht
met astasen
klier weefsel
Ġver doving
b re
Ġde pot
t oc
it aire
Ġre ductie
v ens
1 7
Ġal hier
Ġin jectie
Ġp le
toc ol
Ġneg atief
Ġaantoon baar
Ġoksel klier
w al
re gen
Ġp r
Ġma teriaal
Ġre constructie
Ġechol o
Ġsup raclaviculair
ĠA xillair
gewijzig de
Ġs ymmetr
Ġd uctectasie
Ġc ode
Ġsp iraal
Ġokt ober
Ġf eb
ir urg
leg ging
N u
or i
ok sel
ing s
Ġte vens
Ġ200 7
Ġparench ym
ol um
V oor
ĠC ytologische
i ra
Ġ 01
o ut
Ġju li
e d
l an
ra cht
oe diening
sp roken
and ra
ĠAan vull
Ġver zoek
ru ari
ĠS andra
Ġna ast
iv een
g aande
Ġintramamma ire
200 7
Ġla at
Ġev al
biop te
200 6
Ġzeker heid
g it
Ġl ine
Ġverk regen
Ġma mmogra
Ġap ril
il l
p unctie
Ġintramamma ir
ĠP alpabele
ĠHier uit
Ġge biopte
ur en
z elfde
c ytologische
Ġ ---
Ġechog eleide
ratumor aal
Ġs er
Ġdi rect
Ġp atiÃ«n
a ra
ok alisatie
D it
id ing
Ġdi git
Ġ200 9
Ġ200 8
19 6
ont role
ĠL i
f wijkingen
A CR
c u
ĠN ormaal
y s
Ġbeeldvorm ing
ĠIn t
v o
E en
Ġhist ologische
Ġvan af
ĠV iveen
Ġpro tocol
ve mber
Ġv ro
s ent
iet al
Aanvull ende
Ġ1 99
Ġfeb ruari
Ġirreg ulair
r is
Ġma cro
e st
2 0
Ġverdicht ing
Ġdigit aal
Ġf orm
la cht
t umor
alis eerd
Ġgep uncteerd
Ġb lijk
Ġform ulier
Ġeval uatie
ĠZ ie
te mber
Ġlymfeklier tje
Ġj odiummarker
Ġaan v
i om
lacht en
el ing
ĠAf meting
Ġver w
p utatie
Ġte ken
Ġradi o
nel de
Ġin h
ĠD erhalve
Ġsub stra
Ġten minste
Ġhuid verdikking
Ġb re
Ġverm oedelijk
Ġno vember
over en
z en
a ss
Ġt ussen
marker ing
eot ax
aan kleuring
oop s
ut ie
Ġa ctie
ĠD D
Ġzo ver
Ġparastern ale
ra ke
Ġbe elden
Ġvrij wel
Ġsubstra at
Ġ200 6
Ġk un
ĠT eertstra
ĠA l
axil lair
ge ven
Ġvoor gaande
Ġsp rake
Ġme et
l ie
Ġel k
Ġ201 3
Ġsep tember
ech ogene
Ġvergelijk end
k or
Ġeer ste
der om
s halve
Ġvers nelde
Ġdystro fe
Ġ201 0
Ġbol vormige
Ġbegeleid ende
st apeling
eotax ie
Ġkun nen
Ġ201 4
Ġ2 020
Ġ201 2
ĠB ekend
Ġp ijnlijk
Ġbijkom ende
ad uw
E nkele
der d
uis art
te pel
Ġsp ot
cem ber
in jectie
Ġcy clus
Ġaf genomen
ys i
actie ve
Ġple iom
ec i
ert ens
Ġde cember
P ET
Ġcor re
ĠBe eld
ira ds
C A
ligg ende
Ġecholo ze
Ġduct aal
Ġsol itaire
Ġklein ere
Ġspiraal vormige
c es
Ġechog eleid
im one
Ġma ss
Ġverslag legging
a ste
Ġparenchyma fwijkingen
Ġgev onden
Ġevid ente
Ġ200 5
Ġelk aar
ĠS imone
ĠMa ertens
val l
ĠL overen
e cho
Ġv aat
N ormale
Ġbe d
d oor
Ġvan wege
Ġju ist
er eerd
Ġla ag
ĠG en
Ġbehand eling
Ġch irurg
olum e
ug gest
Ġpr ima
O ok
z ijde
R M
S A
Ġfoc aal
ĠB enigne
ĠD aar
ĠT o
ri ctie
get ro
ĠM ogelijk
ĠS PECT
if f
Ġtijd ens
us c
ru k
Ġver deling
Ġgelob uleerde
wal ificatie
te f
Ġteken en
e ge
gev o
tef act
Ġ201 1
lein e
Ġgele ide
P alpabele
Ġk eer
ig en
Ġl ob
Ġsubcut is
ent u
200 5
Ġoppervlakk ig
lie cy
M G
Ġb dz
re ductie
ust us
19 5
Ġbeschik baar
ann ing
Ġmarker s
in s
Ġgroep je
Ġreactie f
Ġmoe ilijk
ĠMa mmogram
entr ale
vol utie
Ġsle chts
Ġuit gevo
Ġuitgebre id
Ġzo u
Ġt arget
ĠC P
Â ·
Ġme de
v is
Ġtwist marker
sc an
Ġz owel
Ġf ollow
eng te
Ġde zelfde
F DG
g ele
k end
er ing
Ġl ow
Ġtot ale
geb racht
ĠLoveren Radioloog
Ġ---- ----
V L
met er
Ġdr ietal
as is
ma n
t ige
gel aten
Ġv ast
lot en
v l
ĠE CHO
kor rel
raag t
id n
uggest ie
Ġl engte
Ġachter gelaten
ĠN ucleair
Ġuitgevo erd
ĠGen eeskundige
ĠS SA
Ġminima le
Ġaug ustus
utoris eerd
a utoriseerd
ĠS creening
w aar
il t
or se
comp ressie
2 5
Ġint ense
Ġdu bie
Ġmult ifocaal
get o
ĠG oede
ĠAan sluitend
Ġbed raagt
ĠM et
ĠG RM
Ġasymmet r
ĠL B
Ġgro ter
Ġaan tal
iv m
C L
Ġblijk t
g elijk
Ġs inds
Ġl ich
el de
Ġdiffus e
Ġvro ege
E lders
Ġmamma reductie
ĠC A
ĠJodium bron
B ekend
Ġo liecy
Ġva cu
pector aal
uisart s
Ġgroot te
a as
uit en
Ġcor rel
Ġin ter
Ġge or
T omosynthese
Ġvin d
Ġpl anning
L ateraal
Ġaf name
Ġa ut
Ġ ivm
getro kken
la esie
it is
Ġverdi kking
gen ereerd
Ġover leg
Ġst atische
c alcificatie
ĠS ter
ĠR E
R CA
Ġachter l
Ġf ase
ĠO ver
Ġaan geto
en en
biop t
pre sent
Ġl on
an amnese
Ġal le
Ġc laviculair
Ġv or
Ġuit ge
ĠMamma carcinoom
Ġm l
Ġopnam es
Ġp ositief
omat isch
Ġge genereerd
Ġaut omatisch
e ctie
n ieuw
Ġwaar in
ocaud aal
Ġrond om
ente el
Ġ200 4
gev oeg
O N
ĠA dvies
Ġbij na
Ġster k
Ġher hal
Ġin volutie
t ende
Ġh uisarts
a der
Re delijk
t a
b el
at idn
am elijk
Ġp ap
Ġb etro
er ste
Ġen kel
Ġst apeling
oc arcinoom
Ġs c
Ġvet weefsel
ĠT c
Ġan al
l okalisatie
c c
ĠT wee
je ct
beoordeel baar
f am
ĠA VL
Ġbeoor deling
U S
mm o
T evens
om ogeen
mer ken
Ġc lips
Ġline aire
N ormaal
Ġpleiom orfe
2 2
W e
n og
Ġvacu um
ĠH istologisch
eer dere
Ġma and
ĠT oediening
nam en
Ġh og
z ie
Ġlymfeklier tjes
Ġz ie
Ġsubcut aan
ge di
wijz ing
Ġint ens
Ġovereenkom end
Ġv ier
ot o
Ġtoe gevoeg
Ġam putatie
Ġgebiopte erd
F O
Ġc T
Ġs uggestie
la ss
Ġaankleur ingen
Ġgeor iente
D C
Ġde el
ve stig
ĠGe autoriseerd
V G
Ġt ra
Ġ at
Ġma mil
Ġbe p
do se
ar d
lavic ulaire
Ġachtergrond aankleuring
Ġser oom
ge gevens
ĠG ro
Ġp alp
r ip
rik plaats
Ġover gang
U it
US IE
Onderzoek s
Ġver dw
k in
Ġge in
ĠP rikplaats
Onderzoeks gegevens
ON CL
ui ver
Ġtoen ame
ONCL USIE
Ġmammogra fisch
Ġovaal vormige
Ġster eotaxie
atie s
ent i
ĠK oops
ee ds
Ġun ifocale
Ġcorrel atie
ĠC ONCLUSIE
Aanvull end
Ġj l
ne cro
Ġen ig
ud ie
ratumor ale
Ġbre ast
Ġgele id
h of
ĠV ia
Ġprima ire
Ġpro min
Ġaden ocarcinoom
ymf eklier
necro se
Ġverw ij
Ġsubcut ane
G e
ĠB es
s n
Ġver sch
Ġin gebracht
c idief
2 3
Ġsymmetr isch
r ing
Ġwas h
de qu
as ief
A f
Ġge w
se ctie
Ġsneldiagnostiek Verslag
Ġgev olg
gev onden
Ġbeoordeel d
i o
2 4
Ġ :
vl oed
Ã ¯
T wee
Ġin getrokken
ie w
ĠAan tal
ĠM atig
m is
Ġgelob de
Ġher kend
T hans
ilt r
Ġzo als
Ġna bij
B es
Ġn aald
Ġmamma tumor
Ġf orse
Ġ og
beoordeel d
Ġachterl aten
tende els
Ġk en
k w
ĠN ormale
Ġbelast ing
Ġf ijn
vorm ing
in ec
inec ontrole
ĠV olume
Ġdepot s
Ġchem o
Ġgr ens
Ġsegm enteel
om ediaal
Ġe igen
on ent
C entraal
be elde
out inecontrole
ĠB irads
Ġl ip
Ġlinker laterale
Ġsatelliet h
a bie
raag ster
Ġver t
ro uw
Ġgel ok
Ġafge beelde
aar den
Ġcomp ressie
Ġlob ulair
Ġtepel hof
Ġl ev
met astase
ch em
Ġop vall
ĠVer volgens
Ġbe vestig
sp un
entu eel
Be eld
Ġdiffus ie
Ġa dvies
2 8
Ġdens er
aar schijnlijk
200 3
Ġgeoriente erde
Ġtoe gedi
in nen
Ġs n
Ġfibrogland ulaire
nar d
Ġheter ogene
Ġr el
e ft
m en
ĠW el
Ġlev el
Ġmaand en
c T
s z
19 7
M ult
Ġs amen
r en
Ġrechter laterale
er inge
spun ten
k lachten
Ġsnel le
Ġp rog
Ġz uiver
Ġre present
am er
dic eerd
Ġ7 5
ĠpatiÃ«n te
ĠK L
k elijk
ĠLB Q
ĠT hans
beoordeelbaar heid
Ġa vide
Ġtoegedi end
d uidelijk
ell en
Ġad j
mis sie
st an
Ġhe den
s creening
ysi ologische
m ede
clusie f
sz ins
ang ing
Ver spreide
Ġmamil la
oc raniaal
ra dic
iop ten
pro these
H ier
Ġrechter borst
eker heid
ĠE chografie
V isualisatie
et e
am ili
Ġc ir
elijk s
ĠOn gecompliceerde
Ġlig t
Ġs econd
Ġnode s
ar ker
Ġinf iltr
2 7
ĠM ann
chog eleid
ik t
Ġcomp onent
Ġw v
ma l
2 6
Ġpl us
Ġge met
ĠT omosynthese
or re
eci fie
uw d
y ste
Ġinv asie
19 4
Ġsup ra
uw elijks
Ġz elf
Ġvet necrose
il us
b le
v iew
Ġpost operatief
Ġcortex dikte
Ġc lass
Ġd un
G ro
kw ab
Ġge deel
C ytologische
m ent
c olle
Ġinv asief
Ġaangeto ond
Ġuit bre
tefact en
eer baar
do ende
u ra
n op
Ġt yp
Ġz al
Ġc entrum
S t
z ont
Ġrest rictie
Ġge a
Ġpun t
Ġcont ral
la st
d ruk
Ġh aard
Ġw eer
ori zont
al l
S creening
Ġop nieuw
Ġlinker borst
Ġwaar genomen
Ġsc an
d ing
L VG
!! !
5 0
Ġverdw enen
oeve el
b en
a vide
Ġw and
ĠMann Radioloog
Ġ200 3
Ġs mal
Ġgro tendeels
ra ak
oo i
Ġlood korrel
gele gen
colle ctie
Ġterug gevonden
Ġverkalk ing
Ġbe sproken
Ġm o
ĠN iet
Ġdors ale
Ġ Conform
Ġh al
Ġk walificatie
2 9
Ġmet ab
2 05
Ġspot compressie
op namen
Ġg raag
ĠF ollow
Ġpl ek
o u
Ġh oeveel
Ġactie ve
Ġh orizont
Ġb ek
ul p
in t
ma mmogram
ĠN og
Ġpap ill
ekerheid shalve
wijk ing
Ġan amnese
chem o
Ġoksel l
Ġge sch
em en
Ġgelok aliseerd
Ġ21 4
er der
IN FO
or f
Ġge z
U V
Ġger ing
Ġst udie
Ġf oto
sp ire
Ġd us
Ġhoeveel heid
s ist
ĠS ch
Ġp ast
k nop
ĠW aarschijnlijk
Ġvor ig
Ġge di
ĠI DC
aar t
Ġbetre ff
Ġon gewijzigde
ĠOn verdacht
ij ft
Ġken merken
Ġloc atie
ocaud ale
Ġz a
j ecte
le cht
S econd
Ġb uiten
Ġgea spire
Ġklein er
xima le
Ġlymf e
Ġvin den
ie l
je cterend
Ġovereenkom stig
iff uus
ĠP unctie
m iddels
Ġw ijz
Ġals mede
Ġzicht bare
Ġleeg ge
7 5
Ġontst aan
ĠRe delijk
ĠAanvull end
Ġgeaspire erd
p ositief
Ġlaat ste
atie ve
ate au
Ġactiviteit s
z eker
Ġvocht collectie
Ġh als
sch aduw
Ġpijnlijk e
ors aal
chog eleide
Ġrest klierweefsel
gi ale
Ġm en
Ġgro et
l ete
a ge
ĠC entraal
olle giale
il li
Ġinf ra
Ġclass ificatie
du c
et te
ĠD u
ĠE n
Ġmult ifocale
Ġar m
G aarne
ul us
Ġecho arm
Ġbeh ulp
3 0
Ġoksell ymfeklier
Ġge eft
Ġherhal en
Ġint ratumoraal
Ġlinker oksel
Ġbl oed
Ġgro ei
Ġvet h
ep t
Ġtot aal
als nog
ĠRe den
Ġst abie
Ġint ratumorale
P ost
Ġcaud ale
Ġv olg
Ġlon g
i um
Ġp la
ĠH eterogeen
Ġoperatie gebied
Ġlich amelijk
Ġradi ologie
Ġgril lig
ĠInt ratumoraal
Ġbegeleid ings
Ġbegeleidings formulier
o ster
Ġh el
Ġaanv raag
ĠG aarne
op au
opau z
vorm ig
ĠP ost
Ġhier uit
ec ro
cy ste
Ġductectasie en
Ġ qu
Ġverv olgens
Ã ·
es p
Ġoliecy sten
Ġwaar na
Ġ ing
Ġpost injectie
h esie
Ġnodu li
ob bel
Ġc entrale
ĠM ult
ĠL ateraal
Ġin gestuurd
Ġpalp atie
w erp
Ġcyt ologisch
est hesie
On verdacht
T arget
Ġdun ne
atidn te
Ġpl ateau
or g
Ġb en
ĠH er
4 5
Ġhorizont aal
Ġsmal le
9 8
Ġm id
Ġ ro
Ġza adje
o ol
la sie
Ġan esthesie
teken ing
or eg
vol u
Ġwijz ig
Ġpunt vormige
ij en
ie ur
Ġpro jecterend
ma x
Ġl os
Ġan at
o eld
Ġma r
Ġpijn klachten
ĠE chter
ĠO l
Ġo ut
e id
enti meter
be v
in dingen
ge zien
de x
Ġlang werp
S ter
Ġaange geven
Ġcrani ocaudale
Ġl ie
b es
y se
m ee
t ra
u ik
ĠBes nard
Ġasp ecifie
Ġgev oeld
Ġverwij derd
ch n
U n
Ġlinker tepel
gr en
an kleuring
t s
Ġgemet en
We derom
Ġhog ere
ĠW it
A l
oreg ion
Ġs lag
Ġlymf eb
th es
Ġin was
ig n
Ġc entimeter
Ġder de
and tekening
Ġrec ente
Ġanat om
Ġw eken
Ġv oel
Ġaanv oel
ĠP re
ĠVer wezen
Ġh ui
ĠH T
rij gen
Ġr ib
3 8
ĠAanvull ende
. "
Ġlitteken weefsel
re cidief
s ma
E erste
Ġp art
Ġm usc
il lair
Ġgesch at
Ġchirurg ische
Ġma tige
: Â·
Ġoppervlakk ige
kel et
Ġasymmetrie en
ili con
on ale
Ġna uwelijks
Super vis
Ġbeschik king
Ġtra ject
Ġminima al
Ġcorre cte
Ġgeh ad
a ag
ber g
Ġparenchyma ankleuring
ĠTo onen
ron de
Ġmen stru
te uze
Ġlymfklier tje
Ġk uren
Ġged aan
Ġmacro calcificaties
ĠF ran
Ġcomp lete
Ġbe spre
2 04
ĠZ eer
3 5
ĠWe ss
stern aal
men opauz
ĠK leine
Ġdubie us
ĠHier van
Ġ i
Ġbes cho
Ġtumor positief
v elijk
tre kking
Ġlie zen
Ġanatom ische
ĠDaar naast
l ateraal
af gaand
k je
il ateraal
ĠB RCA
om ogene
Ġr ing
gi o
Ġs kelet
g end
Ġslag schaduw
Ver volgens
Ġfamilie anamnese
uper visie
2 1
Ġmm ol
knop ing
Ġrepresent atief
ma mmo
ĠSter eotact
Ġmast itis
3 6
Ġh anging
Ġaan knoping
opath isch
Ġenig szins
Ġlok aal
ucle aire
Ġaf w
M ediaal
radi atie
Ġma x
Ġv lak
ander de
Ġlitteken gebied
ĠToonen Radioloog
e us
Ġbeoordeel bare
Ġre missie
sc and
biop ten
? ;
ĠZ ekerheidshalve
Ġo cc
Ġpositie ve
Ġte chn
% .
G oede
Ġgeplaat ste
ic o
Ġimpon eert
Ġm el
aden omen
v ocht
t el
Ġechelon klier
Ġo u
p rik
Ġmicro calcificatie
Ġl ichte
vol doende
Ġrechter oksel
lic aties
Ġpromin ente
Ġver dere
Ġasymmetr isch
ĠM ed
amili air
ĠE R
du ct
Ġr is
mamma ir
ma ker
Ġs ilicon
Ġog ende
ĠD osis
9 7
ĠD ens
ĠO LVG
c el
Ġgein diceerd
ĠTeertstra Radioloog
el aste
Ġcontral aterale
Ġe ss
eeskun de
9 6
D aar
ĠMammografie Status
ut el
Ġsentinelnode s
il aterale
Ġwaar door
radic aal
3 7
ĠB iopten
ĠP atiente
ĠS p
Ġover we
Ġaanknoping spunten
Ġp lu
V ia
in trekking
Ġd en
Ġcon f
ten uatie
Ġev entueel
Ġbes loten
Ġsatelliet laesie
Ġat tenuatie
ge sch
ule erd
Ã¯ n
Ġuit slag
Ġgev isu
met ingen
o ma
Ġfibro se
erv aart
lot ervaart
Ġb asis
Ġd d
Ġkom st
dequ ate
ĠV an
ic entr
Ġsegment ele
ment atie
Ġgele den
Ġdi k
in ima
Ġbespre king
re ep
lu c
Ġtumor gebied
u la
Ġre f
M C
gren z
x cisie
5 5
Ġon duidelijk
Ġge b
ic aal
ag en
h een
pro ken
Ġb innen
8 8
Ġmamma lokalisatie
E L
I V
e del
Ġinfiltr erend
Ġtoegevoeg de
Ġbol ronde
Ġinvasie ve
ĠpatiÃ«n t
di t
ran s
Ġloc oregion
ris c
ĠHier bij
Ġcy st
biop sie
Ġsatellieth aard
le ctie
Ġess entie
Ġuit gang
Ġster vormige
P unctie
9 4
a vo
Ġgev oel
M eerdere
el en
p as
T en
Ġon zeker
cl er
Ġaxilla e
Ġin dicatie
Ġgevolg d
Ġl eeft
Ġgevisu aliseerd
Ġpro jecte
Ġgebied jes
ĠC entrum
Ġleeft ijd
Ġde s
Ġher h
avo ura
le x
val uatie
Ġrechter tepel
Ġvolg t
ĠM R
Ġvergro t
v oo
adi Ã«
adiÃ« ring
ver kalk
Ġh eb
Ġp oster
ie le
ten berg
Ġh orm
Ġdi cht
UV max
Ġpla sma
Ġhier voor
od ense
Ġimpon erende
avoura ble
ie den
Ġocc ult
Ġmede beoordeeld
Ġevid ent
r et
ĠP er
Ġdoor kleuring
lop end
ĠD oor
Ġmusc ulus
p l
Ġfam ili
pas baar
Ġe chogra
Ġv orm
ĠWit tenberg
etre ft
Ġver stor
Ġ '
Ġprojecte ert
Ġin ge
ire ct
o ur
t elijk
luc ose
Ġprog ressie
Ġsle utel
Ġlood markering
an t
ek e
ren gen
Ġbevin den
Ġin dex
Ġou de
Ġst eeds
Ġcomp licaties
Ġuitbre iding
be elden
Ġp T
ĠWess el
gest eld
le iding
Ġm c
ect omie
3 4
ĠBe ide
ĠL O
ĠG raag
Ġmast opathisch
A utoriserend
C P
orre ctie
Ġklier tje
ĠS lotervaart
ieden is
Ġheb ben
Ġ200 2
a c
ĠWessel sRadioloog
Ġgen eeskunde
e in
Ġhet geen
gesch iedenis
Ġaan leiding
ib ro
Ġbel aste
ĠIn dien
Ġinh oud
in aal
Ġla stig
Ġvergelijk baar
Ġdystro fische
b asis
Ġchemotherapie Indicatie
Ġpapill oom
Ġonder liggende
Ġactie f
ot ale
Ġon voldoende
Ġlip oom
Ġbest aat
Ġ3 14
Ġgegevens cT
R etro
v lak
Ġn ecro
ima ge
Ġcrani ale
ct uren
ectie velijk
ymmetr isch
Ġver wezen
Ġex ter
Ġlinker zijde
Ġradio actieve
O ver
9 5
Ġbescho uwd
Ġmedi ocaudaal
volu eerd
ĠM ediaal
Ġuitge sproken
ĠA m
Ġontst ek
Ġrechter zijde
h istologisch
Ġintra duct
Ġopvall ende
D CIS
Ġris ico
Ġvaat kalk
prik t
: .
8 6
Bes proken
g lucose
Ġ-------- ----
Ġge scand
t ima
Ġdi kte
Ġpost radiatie
P er
ĠGe zien
ĠConclusie Visualisatie
geb o
Ma ssa
A C
E N
gecomplic eerd
ĠMed isch
ĠI I
edel basis
Ġm illi
Ġaan sluitend
c ontrole
ĠM arker
Ġc arcin
Ġdi agn
Ġanal yse
Ġgegevens Mammacarcinoom
Ġrel atie
T ypist
K leine
Ġzeker e
adjuvan t
Ġzekerheid shalve
c um
le ek
Ġwijzig ing
Ġge Ã¯n
Ġn emen
Ġom hoog
Ġasymmetr ische
Ġsegment ale
Ġin pasbaar
Ġaange prikt
Ġd elen
verkalk ingen
Ġvet c
ĠHier in
Ġhyp er
ader ing
c is
vol en
be volen
Ġgedeel telijk
r ol
k omen
e y
oor t
Ġc c
at ige
ĠSt ok
echo ische
reg el
De ze
cre en
Ġbetreff en
Ġlymfeb aan
ara sternaal
Ġtoen em
Ġd is
4 6
oc entraal
ĠVer gelijk
it t
Ġs ec
et s
ĠGro ot
ein stra
oe der
Ġresp ectievelijk
ij er
Ġre ster
c orrectie
Ġcontrast opname
ig niteit
ĠBe wezen
s le
Ġre sectie
ĠStok kel
Ġherh aald
Ġper sist
Ġbep al
Ġverv ette
Ġuitloper s
m d
Ġtyp e
d d
ĠS inds
atiÃ«n te
fam ilie
y t
ĠMammografie Klinische
c N
Ġring vormige
Ġ12 5
og el
8 7
Ġal waar
Ġm utatie
Ġon gecompliceerde
io ole
ĠS upervisie
Be wezen
Ġsch aduw
Ġaan bevolen
Ġdubie uze
ster king
Ġnod ulair
Ġin druk
D ens
Ġk linisch
M et
P atiente
8 5
ev indingen
ĠE chogeleid
sc rip
lan ke
Ġk leur
ver geleken
ĠInt ra
ast huis
cum scrip
ĠK r
IN K
mm illair
4 4
Ġvetc entrum
al igniteit
Ġmamma klierweefsel
z iekenhuis
ĠF ioole
ĠH iel
Ġinh omogeen
G eringe
n er
ie uwe
Ġk ey
Ġverk la
d aar
L oo
ĠE erder
ĠS einstra
Ġk ader
Ġactiviteits stapeling
ĠA n
ĠOn gewijzigde
aud aal
ĠT en
L L
Ġstabie l
Ġattenuatie correctie
o ok
Ġster n
ro ep
ligg end
Ġcir cumscrip
Ġafwijkingen Verslag
Ġbetro kken
Ġk lachten
za am
G raag
Ġmamma weefsel
ou den
Ġref lectie
ar c
g l
Ġre gio
Ġb eter
Ġpro thes
ĠSeinstra Radioloog
Ġmilli meter
Daar naast
Ġb leek
oud end
h oven
er entie
pector ale
Ġdiep te
li t
Ġa re
Ġborst weefsel
Ġs ign
Ġvert icaal
Ġ---- -
tig ra
cin tigra
ar ate
Ġverdi kt
Ġva ge
ĠMammografie Onveranderd
id ent
Ġsymmetr ische
ĠOK D
Ġd atum
Ġhier bij
R outinecontrole
Ġin dien
Ġcorre sp
Ġv ol
Ġe p
Ġlangwerp ige
Ġint re
Ġbeiderzijds Verslag
N ucleaire
ĠP atient
Ġhui dige
Ġhist ologie
ion ele
S C
Ġuit w
ĠMa ximale
a ad
Ġmid den
M ede
Ġvoor al
ĠK n
Ġonder sch
Ġo ede
Ġon regel
Ġbehand eld
i aal
Ġvast gesteld
Ġradi ologisch
Ġ3 13
af wijkingen
Ġw eke
Ġvet tige
3 3
o en
Ġmedi ast
ĠG asthuis
Aan sluitend
CH T
B RCA
Vraagstelling SN
s ar
esp iculeerde
Ġexter ne
Ġv al
p er
Ġf ysiologische
Ġklier tjes
O LL
c ellen
um p
2 16
stan tie
Ġs cler
Ġgebiopte erde
ĠM ede
Ġsp eci
ss en
Ġaf metingen
Ġonderzoek Tc
l is
b ris
fe ctie
ĠMammografie M
Ġechogra fische
Ġmult icentr
Ġsep arate
S lecht
gebre ide
Ġk n
Ġsilicon en
Ġontstek ing
Ġh aarden
ev rouw
Ġoksellymfeklier en
Ġber u
Ġdrie maal
Ġvier tal
k s
ori Ã«n
ĠL I
ĠS kin
rac laviculaire
sch ap
2 15
Ġbep er
in fectie
al ist
Ġberu sten
Ġrec ent
mer kt
Ġg aas
il et
ir atie
inima le
Ġom gev
E CHO
ro ei
Ġverk rijgen
al de
Ġpro ces
Ġintre kking
E chogeleide
ol te
Ġr et
Ġcon clusie
C l
Ġin stantie
d an
an ger
Ġpre pectoraal
Ġgroter e
Ġverander ing
Ġdaar van
n iet
Ġaantoon bare
D O
ĠR outinecontrole
Ġspeci alist
um ul
Ġline air
oc a
Ġkwadrant en
4 7
Ġre g
Ġc el
oc ie
Ġcircumscrip te
Ġgaas je
ij p
Ġva ag
Ġparenchyma teuze
Ġbe staande
b rengen
Ġk linische
ĠSkin ner
tre den
sp ier
geb org
st atus
Ġt b
agen oeg
ĠIn geborg
Ġkalk jes
mamma carcinoom
ĠFran x
re chts
ĠNa Cl
% ;
rip le
Ġstru cturen
grenz ing
Ġaange wezen
Ġuit sn
Ġanal ist
eg t
Ġv eld
Ġafge ven
Ġuitsn ijk
sp raak
ĠL INK
Ġuitsnijk amer
Ġuit sluit
V an
derd aad
L ood
6 6
Ġj aren
ur atie
Ġing roei
Ġretro areolair
3 1
Ġversch ill
Ġsp ic
Ġdiagn ose
Ġqu a
le den
ma tig
Ġtoegevoeg d
Ġmar ge
Ġokselklier en
y nam
Ġh ilus
ĠR etro
hal te
vis eerd
ul d
Ġuit leg
Ġp atidnte
Voor afgaand
st ijds
ier est
Ġondersch eid
Aanvull ing
a am
ass ocie
Ġdoor lopend
Ġberust end
ge halte
ara at
ĠA r
we ging
Ġaug mentatie
Mult ipele
ierest rictie
Ġwaar mee
Ġuitw ass
Ġop treden
m oedelijk
ĠM DO
Ġductectasie Ã«n
v asie
Ġbek ijk
Ġb uik
g ende
Ġmo et
Ġgegroep eerd
ag itt
Ġtwee maal
ral ing
ysi ologisch
ang sch
Ġger angsch
et ium
Ġre injectie
n r
ĠMAMMA Onderzoeksgegevens
Ġlocoregion ale
8 9
id oca
ĠV egt
Ġdiffus ierestrictie
oo f
Ġ20 01
B evindingen
ver sterking
ra ctie
Ġst reep
to ilet
Ster eotact
z ogen
7 7
ĠB I
sle ijen
Ġonver anderde
Ġ21 6
raag d
P re
glucose gehalte
Ġontst ane
Ġverschill ende
ĠM eer
oe pel
Ġdi ent
Ġlang s
end raagster
Ġgev al
Ġfibro adenomen
je ctiv
f ollow
ĠN ieuw
kleur ende
Ġge c
ik end
Ġge associe
Ġ 00
Ġoliecy ste
te it
C ollegiale
ĠVer sleijen
z amen
Ġin brengen
S PECT
Ġv entrale
Ġretromamil laire
B enigne
Ġdes infectie
ra in
k sel
ver deling
eken ing
8 4
Ġplu kje
Ġbetrokken heid
Ġge st
Ġbe grenzing
Ġ21 5
ame ijer
Ġmamma prothese
cht ermamma
Ġpre operatief
w ogen
p en
ver s
Ġg al
ad viseerd
Ġverstor ing
in ding
end um
St adiÃ«ring
od g
Ġmetab ool
image s
Ġschors dikte
N anocoll
200 2
Ġcrani omediaal
Ġ200 0
Ġplasma glucosegehalte
ĠOl m
ĠE N
Ġomgev ing
ijd ens
Ġlijk en
tima al
ĠB o
itu atie
). -
ĠVer wijzing
Ġin middels
3 9
ĠR OLL
a cte
ĠV alde
ĠValde s
oe ilijk
T ekening
order nr
h and
ĠOlm os
) !!!
Ġben adering
Ġ !!!
2 17
odg kin
ĠD rainage
Ġokselklier toilet
een kom
ĠT otale
ĠP R
Ġcomp lex
B OB
Ġasp iratie
l inks
Ġachter wand
ol ge
mamil lair
ĠRE CHT
it heel
ut tel
ĠKn uttel
od y
Ġdi agnost
N iet
Ġam orfe
ink ermamma
ig ens
sar tefacten
Ġp ijp
ier en
ĠG eringe
or en
Ġval t
ie el
Ġaanwez ige
Ġf ysiologisch
up raclaviculair
Ġdaar in
ĠF amiliair
Ġs luit
D iffuus
d om
Ġchirurg ie
z ij
ss ituatie
Ġsch edelbasis
Ġvergro ot
ĠPre voo
Ġdi agnostiek
N x
Nu chter
ijft al
ump ectomie
ic uleerd
ĠB dz
Gro ot
last ische
oriÃ«n te
Ġeer st
2 18
Ġradiofarmacon Nuchter
Ġscreening Indicatie
z ame
L C
el ders
Ġmammogra fische
ek k
mmogra fisch
Ġkn obbel
Ġad juvan
Ġbe weging
Ġcaud omediaal
b enigne
ĠOn der
Ġge oriÃ«nte
ĠU n
Ġwe derom
Ġvergrot ings
Ġre ikend
Ġver leden
iv iteit
ĠDu ijn
ath ologische
ĠMAMMOGRA M
ro on
ne m
Ġob jectiv
ĠE erste
Ġhorm onale
Ġbepal en
Ġlig gen
ĠH o
al iteit
k ijk
Ġar tefacten
ĠDuijn hoven
or den
Ġin derdaad
Ġaspecifie ke
Supervis erend
Ġinjectie plaats
J odium
p uncteerd
b urg
B I
Ġlig gende
Ġdaar om
Ġn agenoeg
i ve
Ġverb re
Ġmacro calcificatie
ĠB elaste
ĠStereotact ische
Ġ --
oud ens
Ġleegge zogen
Ġsign aal
Ġcomp ositie
Ġh omogeen
sp ot
orma lis
Ġcaud olateraal
Ġlich aam
ĠK lein
s loten
ens iteit
ĠD iffuus
lin der
Un ifocale
ger s
Ġgeclu sterd
m g
Ver denking
Ġsluit en
Ġposter ieur
u li
ĠM evrouw
Ġ ident
Ġster ke
lijk se
Ġk omen
K oops
Ġg endraagster
Ġt ub
Ġhuid intrekking
ap sel
Ġmenstru atie
ĠA C
omat os
us ie
ĠG er
pro duc
ater iaal
Ġfamili aire
Ġpectoralis spier
5 6
ĠL idoca
C raniaal
o v
con form
all en
Ġf ors
Ġre produc
lit teken
iop t
Ġvoor alsnog
c alc
ress ief
Ġg ran
Ġcor rect
Ġv as
Ġge m
Ġgesp iculeerd
Ġmel an
Ġv ijftal
Ġhal o
Ġp oli
Ġre s
ĠVer denking
bes ch
Ġuitwass ende
Ġveth ilus
Ġverhoog d
menopauz ale
is sel
il d
Ġg aarne
dd endum
ĠJ an
g d
Ġgeh ouden
ĠP T
ta il
l en
gev raagd
pro ces
Ġ21 7
Ġleegge puncteerd
Ġin clusief
Ġver wijzing
Ġafwijk ende
a kte
ol aterale
oor n
Ġhog er
dit ionele
Ġstreep vormige
G espiculeerde
n ormale
atidn t
Ġ21 8
Ġge adviseerd
Ġvoel t
ĠF ibro
rac er
Ġopvall end
Ġw aren
Ġm iddel
ĠC yste
Ġbevestig ing
Ġbest aan
Ġst u
ull en
E chogeleid
P BI
Ġtumor cellen
ĠSt atische
5 7
im en
ĠT h
lijk e
u e
Ġma al
Af meting
in vasie
s Nucleair
Ġver ster
In dien
atiÃ«n t
Ġingebracht e
Ġuitge sloten
ĠC raniaal
ven eus
dequ aat
il and
Ġlater ocraniaal
ĠUit gang
Ġmammae Klinische
Ġaanwezig heid
erp lasie
Ġsub tie
ĠR ut
Ġc lip
Ġaange zien
ĠOnverdacht e
Ġva ster
Ġdan wel
Ġoede em
Ġt riple
Ġtumor proces
Ġcir ca
ĠL CIS
Ġd ruk
Ġvolle dige
Ġd raagster
ar ing
Ġab ces
omatos a
Ġw il
.. ..
Ġde tail
Ġgew orden
N ieuw
P ro
w er
Ġt om
ĠI II
ĠB etreft
Ġb ot
ite in
Ġduct en
ff erentie
Ġcyste us
r ijk
Ġrel atief
ĠMa ssa
ij vlak
k ter
ĠRut gers
ar end
Ġbev at
Ġvet tig
ĠT arget
af wijking
Ġcluster ing
H andtekening
ĠV ogel
f ase
re st
. (
an en
Ġcarcin omatosa
ele van
am p
Ġpijp jes
Ġherken bare
o du
ara kter
Ġde bris
Ġdik ke
Ġp ar
ĠM eerdere
ĠC ollegiale
la as
c ost
2 03
S O
duc eerd
Ġmedi ocraniaal
ive au
ĠVerslag FDG
re e
Ġaden ose
o ide
ĠR ond
at roon
On der
mamma e
Ġmaligniteit s
ĠI LC
h y
FDG Dosis
Ġpromin ent
Ġverster kte
Ġt racer
ili teit
ons wijk
Ġechelonklier en
O K
d at
Ġgedi fferentie
mamma biopt
Ġbetro uw
Ġz ullen
Ġobjectiv eerbaar
ĠM aligniteit
Ġherhal ing
Ġbevestig d
Ġr elevan
S UVmax
Ġlinks Verslag
ositie ve
rani olateraal
Onverdacht e
pre king
ĠC a
Ġt ijde
b l
Ġover pro
4 8
7 6
% ,
ĠD onswijk
Ġs cintigra
ĠTwee de
c o
ĠP ro
ĠH andtekening
Ġal daar
Ġgerangsch ikt
Ġkalk je
ec imen
Ġop gestuurd
lan aire
n aald
ĠMult ipele
Ġge dacht
ild klier
st ie
In f
Ġstern um
k h
Ġlos liggende
ĠH odgkin
Radi ologisch
Ġverm eld
Ġc amer
Ġt rans
Ġ ie
ele f
Ġinter cost
Hier uit
ie p
Ġbl ijft
if eratie
r reg
Ġan ter
K r
ĠHo ving
4 0
4 9
Ġmelan oom
Ġro od
oof d
screening Verslag
usp ecte
Ġmo bie
Ġlymf oom
Ġafwijk end
Ġgedifferentie erd
c ent
Ġs oepel
Ġtwist maker
ĠI ets
re visie
icro calcificaties
ver wezen
Ġsatellieth aarden
Ġprothes en
ĠK linisch
ydro marker
Ġnecro se
on isch
Ġglad de
Ġrest calcificaties
2 19
Ġver anderd
Ġlymfklier tjes
Ġtechn etium
bie us
OGRA FIE
Ġv olume
Ġduct i
Ġpl an
Ġaanvoel de
ĠHiel Nucleair
Ġ ?;
Ġm st
Ġonscherp e
Ġgro ver
eel den
M arker
Ġie der
Ġinh omogene
Ġlinks Indicatie
Ġaan gelegen
Ġsep t
ĠOver ige
th or
Ġm orf
am putatie
Ġreflectie s
E n
ro duceerd
k an
Ġh ele
is s
Ġs agitt
Ġimpon erend
ĠMammografie Na
Ġgemark eerde
Ġverk lein
Ġcyst es
Ġlon gen
Ġf ree
ĠA chter
Ġonderscheid en
Ġger ep
Ġar tefact
Ġom geven
eter s
n eld
l oop
Ġgerep roduceerd
ula e
Ġvers neld
Ġma n
i lair
Ġprog ressief
Ġk arakter
Ġbeweging sartefacten
Ġna uwe
L okalisatie
con clusief
l ijn
met ab
Ġcrani o
Ġuit vo
wee g
A chter
Ġsp ier
Ġconf lu
usc ept
uscept ib
ĠE chogeleide
S p
id u
Ġbest raling
Ġh ar
w ij
en st
usceptib iliteit
elef onisch
ust ig
Ġna dere
Ġmicro calc
ĠS entinel
Ġhyp erplasie
Ġaspecifie k
Ġrechts Verslag
ĠLidoca ine
in d
Ġsch ildwachtklier
Ġst adi
kijk end
Ġduct uli
Ġper ic
ĠVegt Nucleair
gro te
F U
ĠV olgens
a esie
m e
Ġin z
Ġat yp
8 3
o x
te cte
Ġon s
Ġl umpectomie
Ġper if
Ġ2 19
Ge zien
Ġconf ig
Ġgrover e
Ġt ro
ĠgeoriÃ«nte erde
ĠGer ret
v ent
Ġar ter
Ġhoog uit
thor ax
Ġep itheel
4 3
as aal
id en
Ġon derz
Ġspic ulae
Ġbeg in
om ent
ĠN et
Ġmeet baar
c ken
oc ale
Ġh oofd
ĠGerret sen
Ġover name
z u
on se
osit ion
v entie
ĠN AC
Ġmulticentr isch
S inds
A n
ĠVer moedelijk
Ġm oment
on g
te erd
bes preking
Ġsleutel beelden
Ġh ard
Ġb ody
Ġma mmillair
Ġcont our
t oediening
Ġs lanke
Ġgep land
verstor ing
Z owel
ran cken
Ġs oort
Ġst aat
ari um
d n
Ġcontrast toediening
ĠD irect
oor za
menopauz aal
op lastische
Ġdi re
ĠV rancken
Ġint act
aat ste
Ġgedi agnost
gro ei
E erder
Ġwe ek
Ġborst klierweefsel
i ale
di ameter
ijnlijk e
U N
e eters
On gewijzigde
ĠVersleijen Nucleair
Ġgeassocie erd
Ġvoor geschiedenis
Ġvergelijk bare
Ġdaar naast
Ġ images
CT IE
ĠStokkel Nucleair
Ġmamma c
ĠT e
UN CTIE
Ġp ol
A s
Ġver oorza
ul m
In t
ymf klier
9 3
roep en
g aan
o ge
RI P
Ġgedeel te
Ġtoenem ende
bev inding
Ġ radicaal
Ġreproduc eerbaar
ĠMammografieM risc
ventie ve
ĠV rij
Ġno ch
Ġbetrouw baar
5 3
ĠH art
lan k
stan ds
o la
M AMM
Ġg aat
creen end
ĠSlotervaart ziekenhuis
wal iteit
Ġge complic
ĠG es
Ġterug gaand
oop man
Ġaf spraak
Ġsamen han
Ġte zamen
Ġdiep e
ne x
6 7
ĠAm st
sp ectie
ĠO ksel
ell and
O R
Ġn ucleair
Ġev t
Ġl ange
chitectuur verstoring
Ġto v
ol itaire
Conclusie Visualisatie
ĠR eeds
c and
Ġgeb ru
Ġv linder
Ġex c
k amp
nam es
ĠM C
Ġcomplex e
Ġe ven
yn a
Ġm ri
ĠWe inig
c ept
ĠPost operatieve
l l
Ġo or
Ġde stijds
Ġh a
t u
ĠB os
Ġir radicaal
Ġpro jectie
ĠMa mmo
ĠK oopman
ĠDonswijk Nucleair
Ġlever metastasen
Ġdire cte
spot compressie
ĠT umor
o laire
wee st
1 00
Ġop roepen
Ġst art
Post operatieve
l ow
Ġadjuvan te
ĠK lier
Ġsep araat
Ġc laviculaire
or b
actie f
eratie clips
Ġhyp odense
Ġge weest
Ġmenstru ele
ĠN ST
erp ositie
la ag
yna ec
D E
Ġretro ma
Ġovaal vormig
edi ale
l ies
Ġonregel matig
v entueel
Ġno v
gebo uwd
entu ele
ag eleid
g radi
l ob
v isualisatie
ĠI s
last iek
Ġaangeto onde
Ġcamer ageleid
om heen
ogra fie
Supervis or
ĠKoopman schap
Ġ RIP
den burg
ĠI V
II I
ĠRedelijk e
Ġprima ir
d ag
la p
Ġkleur t
Ġbl oeder
ingen omen
Ġgr en
Ver wezen
to ont
ymmetr ische
D irect
Ġ ingenomen
ĠE veneens
Ġscler os
N on
K lein
Ġk on
Ġpunctie s
Ġbijkom end
Ġis odense
on aal
Ġsup erpositie
N anocolloid
Ġge s
Ġveroorza akt
uit vloed
gelijk e
ĠWe derom
Ġde c
8 0
ĠP ameijer
er ige
Ġop gebouwd
ĠDr ie
gele gd
ĠM ateriaal
ma r
ĠP ijn
Ġoverpro jectie
ĠP eeters
Ġcut ane
korrel markering
Ġint rac
ĠLINK S
ĠAf wijking
T IN
W el
On gecompliceerde
Ġex tra
ĠLoo d
Ġw issel
ĠMB Q
Ġt elefonisch
CH OGRAFIE
Ġintraduct aal
Ġk apsel
ĠLB K
Ġd ynam
o uw
ma lig
m de
Ġs usceptibiliteit
om b
eng d
Ġ1 00
Ġpost biopsie
Ġv l
Conclusie BIRADS
Ġs cho
Ġconfig uratie
Ġintraduct ale
Ġe iland
Vraagstelling Gaarne
ĠZ owel
Ġretro mammair
ken merken
ĠF ysiologische
Ġge wijzig
Ġvochtcollectie s
Ġl at
---- ----
stands metastasen
Ġweer stand
Screening Verslag
Ġsub pectoraal
Ġa cc
Ġreg ion
cyste uze
orre cte
p v
Ġbegeleid end
Ġplek ke
Ġintercost aal
ge ma
Ġductaal carcinoom
T weetal
g ins
m id
5 9
ĠOl denburg
Ġverwij der
ĠS lecht
V U
Mede beoordeeld
d is
Ġont de
Ġl esie
Ġlater ocaudaal
ĠOK T
M eer
Ġver toont
Ġh olte
Ġpleiom orf
Ġd ele
h el
Ġbeh oudens
Ġarm e
Ġ3 5
Ġhar de
Ġcorresp onder
id end
aar lijkse
Ġgeschat te
Ġmaligniteits kenmerken
Ġ00 00
M atige
Ġlang zame
er oom
Ġz it
Ġinter ne
Ġhyper metab
Ġinvolutie beeld
N et
ed rainage
ĠLee g
Ġh eel
ĠHier op
omb in
Ġgro f
Ġin conclusief
Ġser ie
Ġz es
Ġachterwand versterking
ĠD iff
Ġrechts Indicatie
Ġbeper kt
Be ide
A ddendum
ĠStereotact isch
Ġruim te
Ġun ifocaal
Ġecholo os
an s
arench ym
C audaal
S EL
it umor
Ġ199 9
echo geen
ĠVoor alsnog
ĠM atige
ĠH oe
Ġwaar op
Ġont bre
Ġl aten
Ġge k
hy ll
gev uld
h te
ert s
N og
Ġc o
Ġlymf edrainage
ĠBo hte
Ġcluster tje
Twee de
T eertstra
m ult
gebo den
t ing
odu laire
ech n
ger ust
ĠVergelijk end
t uur
Ġlang zaam
al v
v L
c ath
ĠKoopmanschap Radioloog
P atiÃ«nte
ĠRECHT S
ĠHart og
Ġduidelijk er
Ġd o
un ct
ĠV G
ĠF a
C C
r iet
Ġversch il
ma ar
all el
Ġoverwe gend
Ġver h
if en
Ġbelast Indicatie
us e
se c
Ġz ij
ĠVoor ts
A N
m utatie
Ġjuist e
m ediaal
Ġneo adjuvant
V IS
am ox
VIS IE
r eng
ink er
ĠA vL
i x
Ġlymfeklier metastasen
Ġmogelijk e
D erhalve
oor d
c ont
amox ifen
Ġrester ende
ĠHT Indicatie
Ġterug gezien
Ġsp arend
Ġl u
Ġged rain
p arenchym
Ġdiep er
Ġstabie le
g raag
d omen
ĠM inimale
Ġduct ale
ĠA erts
ĠEn ige
ex cisie
F am
Ġtepel uitvloed
Ġex t
Ġsup raclaviculaire
ma lige
8 1
xil la
Ġpar allel
ad j
Ġgem engd
Ġscleros erende
ĠN O
Ġdetail opnamen
oed ing
Ġsatellietlaesie s
er enti
ĠV ro
Ġaf standsmetastasen
Ġsleutel beeld
U M
H T
ĠEr ic
Ġb ruin
au re
ymmet rie
D rie
Ġvro eg
ĠS UVmax
Ġdiagnost isch
Ġtrans vers
Ġop gevraagd
Ġmetab ole
Ġals ook
ĠSter eotaxie
Ġret ractie
Ġvin dt
B elaste
in der
Ġo ss
er ig
r ca
ĠA dequate
Ġ3 15
t wee
ent ro
te k
Ġverkalk te
Ġvlinder vormige
Ġverw ijde
ĠRE VISIE
zij dig
Ġa x
2 02
Ġlymfklier metastasen
ĠRT Indicatie
P lanaire
Ġov arium
Ġan t
Ġoverwe gen
) ;
ĠN ieuwe
Ġuitbre idend
dis sectie
ekk age
Ġon gecompliceerd
Ġactiviteits verdeling
in ale
ver slag
Ġg ynaec
gebre id
Ġr up
alv age
Ġmar gins
ĠOK SEL
Ġgel uid
K walificatie
ĠA s
at te
Ġtb v
Ġvan Geboortedatum
ĠP l
Ġlig ging
Ġgewijzig d
Ġresp onse
C yste
Ġpart ijen
Ġv olum
ĠMammografie Routinecontrole
Ġpersist erend
ĠL ok
3 2
ĠAf wijkingen
Ġhel der
yt ologie
Ġk waliteit
c ulaire
Ġno dig
Ġdensiteit je
Ġgecomplic eerde
ifoc aliteit
oe pen
Ġverkla ring
Ġsch ildklier
Ġperic laviculaire
Ġmet ing
ap s
Ġa dequate
xima al
mat ige
Re chtermamma
Ġrester end
20 01
Ġaan geboden
Ġveth oudend
V olgens
d uid
T ijdens
ĠW at
Ġgedrain eerd
Ġtumor lokalisatie
b uik
oorn is
V rij
ĠN e
ger oepen
B iopten
Ġp hyll
Ġu itein
9 0
Ġintens iteit
Ġgez amen
c or
ter us
aure olair
Ġare ola
Ġtumor marker
tu ig
Ġc ol
Ġsubtie le
G er
MAMM A
ĠH ER
E valuatie
ĠPA PBI
waar schijnlijk
Ġover tuig
Ġgew enst
Ġmet en
Ġ4 5
oma stie
Ġne ven
op names
ĠB l
Ġsp riet
Ġma te
Ġdaar bij
ĠB ron
ff ect
Ġev entuele
er md
ra p
Ġop sp
umul atie
besch ermd
or t
F amiliair
ru im
Ġinf ectie
od orsaal
Ġcont rol
Ġgez icht
f ic
Ġc ost
ĠUit gebreide
Ġrup tuur
Ġge op
Ġt pv
Ġdoor groei
Ġbegin n
a v
Ġf ra
ĠTo en
C S
Ġtoenem end
ĠC audaal
Ã« le
Ġgren zen
Ġres idu
an co
la mma
Ġanter ieur
ĠSp aarne
Ġvor ige
Ġv ue
5 4
Ġaden osis
ĠT weetal
ĠB raak
zu igen
le et
are olaire
Ġ3 11
Ġ---- --
Ġdi stor
van kelijk
ĠNa dere
Ġgen mutatie
Ġbl anco
8 2
Ġmammografie Klinische
Ġop ge
nem ende
Ġdistor sie
m it
Ġonder liggend
Ġno di
Ġvan d
Ġaan vrager
Ġvergrotings opname
Ġgediagnost ic
ĠIntra veneus
i us
Ġv en
Ġhel ft
orb us
Ġl ekkage
ĠP UNCTIE
Ġop geroepen
ĠC he
Ġgeluid st
Ġplateau fase
ijk e
B irads
Ġzw anger
rans missie
pl ooi
om t
act iviteit
T I
Ġgeluidst ransmissie
ĠWarnar s
p lastiek
ĠP a
Ġv ar
Ġ3 2
Ġgev olge
Ġun ilaterale
Ge bied
ri um
be wezen
Typist e
Ġmamma bespreking
h out
Ġhel aas
Ġgezicht spunten
ĠD orsaal
Ġmoe ite
T e
oel t
ĠGroot ste
sp ect
ĠM A
h irurg
wij s
Ġneo mamma
gen eratie
Ġaan zien
Ġbetro f
ic ale
D orsaal
Ġsoort gelijke
Ġb eleid
ĠO B
Ġgelob d
Ver gelijk
h et
cept in
al igne
ath ologisch
ĠMa st
Ġ-------- -
Ġonderz ocht
t ische
Ġdis cre
Ġc ellen
S egm
wijz ingen
Ġon c
Ġverricht en
ik ke
i or
b N
m ogelijk
Jodium bron
On scherp
Ġrepresent atieve
L inkermamma
Ġplan aire
ca ud
N B
o on
D iff
ad jes
Ġma ken
w ater
b ekend
ĠVergelijk ing
voor beeld
Ġover wogen
Uit gebreide
we gen
ger ek
Ġ3 3
oud ende
amili aire
H O
Ġuitgang ssituatie
laat s
Ġpl ooi
ver anderde
Ġmassa vorming
AN VU
Ġafge zien
Ġlangwerp ig
rouw er
v oeding
Ġacc umulatie
dan ks
ĠZ elf
ĠH oek
ĠMamma poli
u re
Op name
Ġme v
Ġgew ogen
st r
ath ologie
Ġsagitt ale
Ġa ard
Ġaan gebracht
Ġ Â
ĠJ odiummarker
Ġdaar na
Ġmediast inaal
Ġhypermetab ole
ĠAl leen
ĠOp eratieclips
Ġm on
ĠVer dacht
Ġcomp act
Ġvaat calcificaties
laat sen
ĠN aar
nanocolloid Tc
Ġsn ijvlak
ed te
is eerd
Ġh oge
gradi g
os ering
ĠM art
Ġmult ifocaliteit
e chografisch
ĠgeÃ¯n volueerd
Stereotact isch
u y
sp atroon
ĠLange C
Ġom dat
Ġuitsluit en
Ġconflu erende
LO K
Ġst oornis
ĠM e
Ġverbre ding
eer der
Ã ¶
z onder
Ġre ikt
Af name
kleur end
min der
Ġreductie plastiek
Ġgein volueerd
Ġun f
alis eren
Ġlow dose
ANVU L
st ens
/ "
R T
Ġal len
Ġover igens
Ġcrani ocentraal
Ġvand aag
in ium
Ġs alvage
Ġperif eer
Ġmev rouw
L aag
ma st
ĠB rouwer
Ġgegevens Zie
Ġjodiumbron nen
Ġbek ken
Ġuitsluit ing
ta ke
Ġst reng
ĠO sNucleair
oc aal
v een
Ġvorm ige
Ġs e
ĠGe bied
ĠDi ameter
ĠV U
Ġopsp oren
ad ol
at ing
au er
Ġuitsnijkamer Verslag
be ide
adol inium
H uid
Ġveld je
f oto
Ġw erv
ĠSN P
Ġro de
Ġar ts
Ġpost menopauzale
ĠPA CS
ril lige
b q
S ub
5 8
Ġb asaal
at eerd
Ġ2 11
ag el
N ieuwe
Ġu terus
in f
ĠH auer
Ġhyp erd
m eer
astas eerd
Ġaan gelegd
ĠAmst elland
ĠgeÃ¯n diceerd
ĠUn ifocale
Ġrelevan te
Bes nard
Ġ6 0
ĠA ANVUL
Ġ ip
R ond
Ġhal f
l oo
Ġprogressie ve
ol k
Ġinf lamma
M ar
D oor
C raniolateraal
p ulm
Ġqu o
Ġtro eb
T umor
Ġmet ap
Ġger ichte
Ġoss ale
ĠE CHOGRAFIE
Ġg adolinium
We sterveld
Ġgelob uleerd
R G
Ġborst voeding
Ġad nex
usp ect
Ġare olair
bev olkingsonderzoek
Stereotact ische
Ġin it
Ġpunctie Klinische
Ġz one
sp uiten
ĠPl oeg
c lip
HO RA
an te
Ġn iveau
Ġd uid
HORA X
M inimale
Ġpr ol
unct aat
M ogelijk
M x
Per iclaviculair
Ġrood heid
Ġruim e
Ġst and
ĠOver eenkom
ĠLeeg water
Ġmillimeter s
ĠA D
D u
Ġvoor malige
Ġ199 7
ĠC alcificaties
ff en
Ġd ub
st ige
O LVG
Ġhui dig
Ġstadi ering
og ing
ĠK walificatie
Ġbij n
Ġex cis
IN TI
UM OR
9 1
ĠT UMOR
oe mde
Ġr ug
qu adrant
nam elijk
Ġlang gerek
Ġc ur
g eleide
GRA FIE
Ġpre ventieve
Mult ifocaal
Ġopname Onderzoeksgegevens
Ġna der
EN TIN
ĠNO DE
ic a
a and
Ġloc al
u ist
ĠL ob
B etreft
ĠW il
Ġrest afwijking
ĠOp vall
radic ale
4 2
ĠHoek sRadioloog
Ġma mm
ENTIN EL
v el
Ġ Vraagstelling
ĠH oog
mamma ire
Ġtyp isch
in de
illi am
Ġbe merkt
rie s
uisart sen
Ġaankleuring spatroon
u ro
Ġ ?
ĠHer beoordeling
Ġ---- ---
uncte erde
Ġvergrot ing
k k
Ġprol iferatie
Ġplu k
ĠS ENTINEL
Ġ Y
Ġher beoordeling
Lood markering
ĠB iopt
ĠW illiam
tel veld
wist marker
ĠS ub
le ver
Ġan te
Ġfamili air
Ġmobie le
erenti aal
ep er
Ġl anger
Ġsamenhan gend
Ġm g
grens de
INTI GRAFIE
ĠTUMOR LOK
e it
Ġ ste
icro kalk
ĠM SO
pro cedure
Ġad ditionele
Ġpart iele
Ġop timaal
b or
Ġ2 04
aps ulaire
t op
Ġt w
Ġtegen aan
Ġd ose
i ens
Ġtumor en
Ġductectasie dn
Ġexcis ion
ĠS ymmetrisch
Ġper itumor
P athologische
u der
ma als
usc ule
Ġontde kt
Ġ199 8
ĠL D
Ġdi ver
un g
ĠWilliam sRadioloog
p le
Ġaden oom
ĠL Y
sp ecimen
Ġtepel intrekking
iraal vormige
Ġv gl
ver wege
Ġgynaec omastie
Ġsub op
Ġonregel matige
ĠLY M
k maar
ĠMa mmografisch
Ġfree hand
eer ste
t on
Ġaanvoel end
rreg ulaire
Ġverh ard
Ġbij voorbeeld
Ġrib ben
? ).
ĠMult ifocaal
bev indingen
Ġrest afwijkingen
Ġcontral ateraal
Ġscintigra fische
Ġlymfeklier metastase
cu la
Ġbevat ten
Ger ichte
G eg
Ġl o
Ġlinker arm
2 14
SC INTIGRAFIE
Ġknobbel tje
ĠE ek
ĠH B
Ġgen ormalis
Ġrechts axillair
sch reven
l er
Ġt h
Ġtepel vloed
Ġtub ulaire
Ġwerv el
ĠDu bieus
dan ig
Geg roep
tecte d
ĠP arasternaal
Ġmult i
Pre voo
Ġgema akte
ek el
Ġaan wijs
Ġde generatie
ĠO m
astas ering
om er
Ġz elfde
af name
S upraclaviculair
Ġ21 3
kh orst
Ġw olk
at isch
ĠM ar
Ġon gerust
Ġex act
Ġvoor af
ab le
Ġ4 0
Ġinz iens
or e
sist erend
ĠEek hout
u k
Ġ Radiofarmacon
Ġals nog
cula ris
Ġ čĊ
Ġchemotherapie I
b laas
5 2
ĠOn duidelijk
P R
h aring
200 0
t ot
Ġtepel vocht
ee st
ĠPT R
P iek
Ġdynam ische
P unctaat
Retro mamillair
Ver wijzing
ĠBron khorst
Ġd cis
marker ingen
Ġdruk p
P ekel
ĠG E
ĠC HT
onde ert
Ġbes la
Ġtom ografie
Pekel haring
13 6
bie uze
Ġgep uncteerde
bre iding
ĠLO Q
i mm
Ġc p
Ġaf ger
Ġuit sluitend
Beeld vorming
F E
Ġvaat verkalkingen
ĠH uid
le chts
ist ent
Ġbe iden
ĠH e
ĠA MC
ĠIn f
lig ging
ver ander
Ġdag en
Ġab uis
K oekkoek
01 7
Ġ or
Ġrechter arm
L ange
ie ve
Ġv ele
ent en
Ġr ustig
Ġhier door
plaats ing
Ġgep osition
eem t
w it
Ġde Koekkoek
Ġaan gevuld
Ġsec onden
entr isch
Ġk rap
el aas
Ġcorresp ondeert
u ma
th er
H anging
ĠS mit
ĠAr m
4 1
Ġjodium za
Ġint acte
be ek
Ġh oe
Ġu l
Ġterug kijkend
Lood korrelmarkering
Ġduct us
op en
r ond
ĠTUMORLOK Onderzoeksgegevens
Ġog v
le vo
Ġmammac arc
p us
p ass
Ġcrani olaterale
Ġboven rand
a ve
Ġzw ak
ir p
Int ratumorale
odi g
Ġlinks axillair
ĠP atiÃ«nte
Ġgediagnostic eerd
03 6
Ġom schreven
Ġno vo
Ġwolk ig
Ġf low
Ġduid en
sc op
Ġ9 9
P arasternaal
A r
v als
Be oor
er n
Ġn l
T O
Gro te
ĠChe ung
irp atie
Ġvoor namelijk
er st
Ġl oop
ĠMRI SC
af vloed
ĠB eelden
Ġlymfklier metastase
v p
ĠRe cidief
) -
m b
Ġpunct aten
di gen
Ġmin uscule
Ġca ve
b innen
kelijk e
ĠV isualisatie
Ġhyperd ense
if orm
Ġc umul
gev olge
et en
Ġpre pectorale
ĠVro emen
Ġh een
Ġboven buik
st udie
S n
Ġbiopt eren
ĠC omp
Ġcyste vocht
Ġgal blaas
Ġla bor
Ġgel u
Ġsiliconen prothese
Ġuitvo erig
ot ische
Ġbloeder ig
et je
Ġpro be
ĠA P
ra g
ĠC orrecte
ĠO wer
Ġhal verwege
T oediening
aan s
Ġlocoregion aal
ich amelijk
ĠHier na
Ġh and
Ġex p
Ġbeper kte
Ġaan dacht
Ġing reep
W LE
p alpabele
Ã ©
Ġ3 12
caud aal
oe genomen
ĠL ang
Ġachterl ating
r it
? )
Ġzo danig
li cht
dom et
Ġinf raclaviculaire
Ġman telveld
Ġdoor gema
Ġ------------ ----
Ġcorre ctie
Ġv raagstelling
reg io
on odig
A d
Ġm orbus
Ġge de
ĠE valuatie
Ġverwijder en
Ġunf avourable
b rca
ĠP atidnte
ĠE ventueel
P ijn
Ġse qu
Ġstand aard
Ġbloed ing
ĠRond om
Ġcel arm
n elijk
Ã¶ ger
ĠP ositieve
acht er
z ette
Ġmin i
T echn
S ymmetrisch
ĠF avourable
Ġwand verdikking
ma ximale
st el
Van wege
ĠVerslag Toediening
13 7
Ġnaald biopten
ĠKlier weefsel
L ok
Ġcontrol es
in den
H oog
ĠP atiÃ«nt
Ġdoor verwezen
Ġstu kje
Ġaanwijs baar
mast itis
Ġsp oor
Ġnaald biopt
Ġspriet erige
Ġhet zelfde
int ensiteit
g ooi
gl omer
09 6
p land
ĠDoor snede
ĠL aesie
ĠH uy
van gen
01 6
Ġovertuig ende
ĠL aatste
ĠDaar bij
ĠHuy gen
i di
p ositie
Ġgal wegen
Ġ ath
Af wijking
Ġcost a
Ġ2 09
ĠV entraal
ĠVerslag Het
Ġcompositie beeld
Ġlu cht
ton ius
er dere
Ġplasma cel
B aas
man gi
N aald
Ġjodiumza adjes
h olte
Ġm ening
Ġst rik
olle dig
Ġu w
vra gen
ic iteit
K lier
uc ente
Ġverhard ing
Ġer g
or p
Ġgev uld
za kelijk
cont rast
Ġvoor afgaand
Ġcomp leet
mid den
ol ide
ĠK omt
vals bevinding
glomer aat
Ġvar ier
Ġdiver se
Ġherken nen
Ġgro en
Ġwijzig ingen
Ġtracer stapeling
a a
a ug
Ġb ilateraal
Vraagstelling PET
Ġgeb racht
Inf raclaviculair
hal en
Ġcol on
ĠIn gestuurd
beeld ing
Ġk rijgen
. )
O Q
te gen
Ġident ificatie
Verslag legging
Ġup Verslag
ĠD ikke
Ġinter p
Ġverstor ingen
Ġaf wez
al le
09 7
Ġuitgang sonderzoek
c ut
Ġh omogene
9 2
02 6
ĠLINK ER
Ġmetap lasie
Ġde f
ĠJan sen
ĠTo ch
on ecro
ĠS lanke
Ġcontrole mammografie
in um
oide s
Ġscreening s
ĠRetro mamillair
Ġn r
ĠLYM FE
yp T
B ilateraal
C luster
Ġn anocoll
Ġb il
Ġh obbel
ĠC ytologie
p alpabel
Ġander s
Ġzou den
Ġverdw ijn
p an
mat oom
14 6
Ġw ide
Ġf lank
Ġath eroom
ĠM icrocalcificaties
ĠG el
order de
Ġneven bevindingen
Ġrest ant
v et
Ġvol doende
d ensiteit
k un
S uspecte
Ġk w
N aar
Aan kleurende
Ġvervaar digen
ĠIn middels
Ġgen n
Ġple ura
gro ot
Ġveld jes
Ġtumor ale
Ġgebru ik
ĠAl le
jecte erd
09 9
ĠB orst
kwab je
Ġd oen
Ġgeposition eerd
ĠLYMFE SCINTIGRAFIE
lijk s
Ġcorresponder end
G es
In middels
Ġdub bel
l ing
hal ing
m N
r ingen
g raad
Ġlang ste
M risc
P atiÃ«nt
Ġboven quadrant
Ġt amoxifen
est al
or sten
Ġklier metastasen
l at
Ġrest tumor
N A
Ġ2 07
ĠL oc
Rechts axillair
ĠFa Mrisc
ĠUitgang sonderzoek
hor ende
Ġoperatie clip
Ġdystro of
Ġmammografie en
Links axillair
inima al
ĠOn gecompliceerd
e uze
s Geboortedatum
ĠN anocoll
Ġen d
Ġk we
Ġj an
cess en
G lad
s ub
ĠS o
Ġ uren
Ġret our
Ġh oudend
M aligniteit
c us
Ġp atidnt
Ġup take
cularis atie
I T
Ġvergelijk en
is me
Ġlymfeb anen
se g
Ġdo ch
richt ing
Ġb ere
Ġmediast inum
M oeilijk
ĠL inkermamma
ĠVan wege
ijn s
Ġmon om
ĠH ydromarker
Ġli Indicatie
imm ings
i Ã«le
Ġ-------- --
W inter
I P
Ġmoe der
Ġonc oplastische
196 6
Ġ3 4
G rillige
ĠW ij
ĠAl kmaar
ĠVrij wel
mar t
Ġhe mangi
Ġmetab ol
Ma mmografisch
N e
5 1
Ġn ucleaire
ĠHoe f
ringen de
ĠM OQ
Ġnog maals
ĠGE G
Ġexc entrisch
p h
Ġh ilair
d rainage
b een
ĠP athologische
00 6
Ġvolum ever
u eerd
Ġm ilt
Dr ietal
ĠAan gezien
H uisartsen
196 9
Ġech ogen
Ġin ject
Ġtroeb el
196 5
eg eleid
ĠG ooi
n agel
or ta
% ).
b ekende
Ġretro pectoraal
Ġinge dikte
M LO
Ġin spuiten
ĠHoef nagel
et h
01 5
Ġsub pectorale
ĠVerslag Intratumorale
Gegroep eerde
p arasternaal
k lein
ĠT iel
ĠGes cand
Ġab domen
F ocale
ĠC or
Ġhemat ogene
Ġvoor ste
Ġregion ale
Z ekerheidshalve
xil laire
Ġdiagnost ische
ist ieken
dom inaal
cy sten
ui zen
ĠVer spreide
IE S
ĠS upraclaviculair
Ġontbre ken
ĠKr Ã¶ger
oen ame
Ġgran ulair
Ġretroma mmillair
Ġuitgang s
Ġn amelijk
A fwijkingen
ĠV oelt
G el
Ġmin stens
Ġver st
ĠK immings
p T
Ġinfiltr atie
int ense
Ġatyp ische
c entraal
Ġla ge
at to
Ġvas culaire
el ateerd
FO TO
Ġgeop ereerd
is erende
uc as
spectie f
Ġ2 12
ĠJ ens
Ġvaat wand
ĠL itteken
Ġuit st
org anen
V IES
Ġander szins
Ġip s
mart oom
Ġge geven
ĠVogel Nucleair
ie ure
Ġsilicon e
Ġpre sent
ormalis atie
Ġan gio
Ġw le
Ge autoriseerd
ĠLob atto
Ġrand aankleuring
Ġplaats v
Ġcon glomeraat
Ġv ari
or able
ch ogene
Ġom ringende
ĠF levo
Ġin d
In druk
rog er
r ima
FU Verslag
ĠZw elling
Ġvarier end
H e
Ġb orsten
I ets
09 8
Ġbek eken
Ġmetabol isme
Ġ ;
Ġuitgebreid heid
ĠRe cent
ĠOver name
c raniaal
Ġge ven
196 1
B ruining
Ġneo adj
ĠGro ve
it hel
Ġaf beelding
Ġaf deling
Ġgezamen lijke
ĠS n
ĠAD VIES
7 8
u cin
ĠT ijdens
ĠS UV
12 6
Ġt on
04 6
ĠROLL Onderzoeksgegevens
Ġma ag
Ġv isu
R eeds
Ġv ijf
09 5
Ġcumul atieve
aug mentatie
Ġloc alisatie
Ġversch enen
ok en
stern ale
Ġgelu kt
Ġmulticentr ische
g aarne
Ġma j
Ġgemet astaseerd
Ġax iale
w ar
ot al
ruim te
Ġboven ste
od ens
be grensde
i der
196 4
195 9
Ġno od
Mamma poli
Ġgec ombin
arc oom
Ġon ru
ente xcisie
Ġtechn iek
an dige
mm un
Ġf avourable
ĠA bl
Aan gezien
a de
erv ix
D oll
ĠDoll P
o Ã¯
Ġam p
ĠMammografie Belaste
al leen
ĠPa get
ĠG lad
Ġgenormalis eerd
G ep
ĠRe chtermamma
Ġmin dere
Ġokselklier dissectie
Ġplaats gevonden
ib i
p athologie
Â ½
Controle Verslag
Ġ199 6
lin e
Ġhuid markeringen
ken merkt
Ġla p
13 9
Ġbijn ieren
entr olateraal
Ġblijk baar
ĠD ia
Ġoksel top
Ġd arm
ĠM edi
Ġrest eert
S ta
r ele
03 5
Ġe ffect
Ġgest art
Ġto onde
ijf el
Ġge kenmerkt
Ġplasmacel mastitis
ĠTiel beek
Ġn eemt
cel carcinoom
Ġp oging
Ġlymf omen
Ġloodkorrel markering
ĠGroot te
Ġdoorgema akte
g an
fam ili
Ġmaj or
F ran
Ġ ypT
Ġgegevens T
ĠSmit huis
egeleid end
b eiderzijds
ĠM eest
ac aal
Ġz estal
7 9
y kan
Ġre Indicatie
ass istent
Ġbetreff ende
ek t
ĠRECHT ER
r um
B eelden
v rij
7 4
h aard
ĠM risc
el dt
Ġcolle ctie
Ġveth oudende
F ysiologische
Ġher ceptin
196 3
ĠSo ykan
ĠK en
In tra
Ġo s
ĠWe st
hirurg ie
gev allen
p ost
Ġmarker ingen
RG IN
Ġuitge zette
Ġover liggende
196 0
sch e
ĠF amiliaire
Ġbevestig t
Ġphyll oides
ĠSt abie
n iveau
Ġger icht
ĠF U
ĠMammografie Screening
Mult ifocale
Ġvolumever lies
Ġ2 08
Ġh ad
Ġlos gelegen
Ġintercostaal ruimte
Ġsubop timaal
S entinel
ĠMamma ca
Ġste at
Ġpresent atie
rit er
ter n
alis eerde
thes en
Ġde Geboortedatum
Ġ-- >
Ġmet a
Ġbeginn ende
Ġvoel en
Ġmede beoordeling
il oc
ĠVoor geschiedenis
domet rium
Ġinge pland
ave maker
Ġl e
Ġ2 06
Sch erp
Ġgecombin eerd
RGIN S
Ġhyp ere
ira d
Ġpunct aat
w elling
in i
ĠV eel
r ien
v ia
Ġge t
mm en
ĠK an
Ġg aan
Ġp us
IE P
Ġcomponent en
ĠV aat
196 8
ĠSch avemaker
En ige
iform e
Ġp aar
13 8
y sp
Cont ral
ĠSch edelbasis
elijk e
Ġaange eft
13 1
Ġkwe ek
Ġplaatsv inden
us sent
ĠAl hier
md at
ĠNe o
Ġbes laat
met a
Ġmarker plaatsing
Ġind uratie
Ġinject ion
O C
Ġresectie vlak
laesie s
d a
ific eerd
Ġpl atte
getro ffen
rreg ulair
ĠG ering
00 7
ĠPer iclaviculair
ĠRe present
Ġva ste
ul de
Ġaan getroffen
V entraal
Ġtepel niveau
ĠX MG
ĠOwer sNucleair
13 5
ĠGro te
Ġha martoom
Ġ3 7
get je
Ġhele maal
ur loo
ĠA d
Ġprothes es
On gecompliceerd
ip le
ĠAn tonius
ater land
riter ia
Ġd ysp
Ġf a
ĠE xcisie
ke ur
195 5
IT EN
Ġs creenend
Ad ditionele
Ġcor pus
on c
Ġven a
ĠT ijd
Ġb irads
ĠL ichamelijk
Ġon danks
ol gen
Ġwe st
av orable
Sta bie
Ġ >
ver grote
z end
ag er
Ġnood zakelijk
ĠS olitaire
ab l
Ġvas cularisatie
Ar chitectuurverstoring
ibi ot
Ġg b
Ġomgeven de
ĠK roger
u ide
Techn isch
Ġreg ressie
Ġge con
Op namen
ĠHier door
Ġton vormige
Al leen
Ġzwanger schap
ĠB oven
Ġon beoordeelbaar
Ġvier de
ĠUit gebreid
Ġzelf s
Ġh aar
Ġbol rond
con e
Ġbol vormig
+ +
ĠD IEP
adi en
Ġst ug
Op vall
Ġnl d
ĠS lechts
at ori
verander ingen
0 01
13 2
S olitaire
Ġon bekend
Ġf eit
h aarden
Ġ9 0
Ġverv olgen
m p
Ġw it
ob aire
nem end
ken kamp
Ġperitumor aal
at uur
12 9
d re
ĠM on
Ġger elateerd
ĠMart ine
Ġmamma Indicatie
Vraagstelling Sn
Ġl it
Ġ3 6
Ġatheroom cyste
be st
Ġhier boven
Ġaf vloed
za ak
on geveer
ĠVer dere
Ġtumor rest
Ġmarker en
Ġpector aal
Ġexcisie litteken
Ġ199 5
Ġbre de
Ġs kin
onecro se
P ameijer
U ITEN
Ġ2 05
196 2
Ġinjection em
iop sie
Ġgez ogen
sp ron
13 4
rol iferatie
Ġcarcin oma
tima le
U MC
Ġleeg zuigen
Ġmobie l
ĠM oeilijk
Ġin cisie
Ġb irad
Ġechogen iciteit
f ibro
02 7
ĠAf name
m iddel
Ġver deel
Ġeven als
oc rien
Ġcont in
Ġbdz Verslag
195 7
Ges cand
ĠPT C
Ġdors olateraal
yt ische
Ġn ieren
Ġd rain
Ġlanggerek te
Ġe cht
Ġ3 8
Ġh art
ĠRe st
Ġpl omp
Ġverkalk t
Ġmel dt
besch reven
A VL
ĠIn druk
Ġoverleg d
Ġt hor
Ġecho versterking
L aesie
Ġaankleur t
197 1
Gep land
o ont
Ġ Radiologisch
Ġir radicale
Ġwissel end
ĠMast opathie
p roliferatie
Post menopauzale
ĠM aligne
ĠB UITEN
ucin eus
ĠS uspecte
Ġuit vloed
t ijd
Ġbl ok
ĠD uidelijk
In gestuurd
ik baar
ne st
im e
Ġ et
ĠF am
lijk t
Ġlymf ang
cone ssen
plaat st
ĠBorst lap
Ġrechts lateraal
ĠC R
ĠDens iteit
ĠMA RGINS
. ).
C omp
ul atie
Ġmult in
Ġer van
Ġpro ject
h a
ĠS cho
ĠFran ssen
p araat
int ens
L ymfklier
c laviculair
Ġaan grenz
00 5
Ġexcisie gebied
ĠBrouwer Nucleair
Hier bij
ĠBUITEN FOTO
ĠH eeft
l ong
ĠDe urloo
As ymmetrie
ĠD osering
atori um
Ġmiddel ste
A xilla
Ġdes m
o als
V eel
n ormaal
t atie
ak k
A dequaat
B iopt
Ġintra veneus
ystro fe
ĠMammografie Controle
ĠB O
Ġafger onde
Ġk lin
Ġvervaardig de
Ġlabor atorium
02 5
Ġd war
196 7
ĠJan ssen
N o
Ġniet s
l o
ech og
W aarschijnlijk
I rregulaire
Conclusie Goede
Ġovereenkom t
Uit gang
14 1
Ġcon vent
ussent ijds
Ġafge sproken
v asief
Ġmoe i
k ogel
ĠMammografie Familiair
Ġontst oken
Ġma mmo
Ġscho uder
uide xcisie
? ?
ĠTer gooi
ĠBos ch
or te
eg gen
deel baar
Ġant ibiot
Ġlokalisatie s
O ksel
194 7
Ġa cht
Ġtoe valsbevinding
Ġverm eldt
ĠT w
esp ons
C alcificaties
ĠCyste uze
Ġmult iloc
197 0
Ġm is
r end
ug kijkend
Ġmin or
tek ens
z icht
H ydromarker
P laatsen
Ġcon clusief
ĠM ari
oll en
Ġ Radi
ĠS uspect
t ussen
al yse
Ġz acht
ĠGe g
L aatste
Ġa dequaat
ĠConclusie Lokalisatie
ĠMammografieM ST
Ġ "
Ġser ies
t isch
ĠUn ifocaal
Ġverkla ren
ĠDaar na
O M
Ġtoe val
uro s
Ġover weeg
Ġg a
Ġhuid calcificaties
Ġoksel s
ĠOver igens
Ġretroma mm
x op
Ġhuid in
Ġmee ge
mamma ca
el t
14 2
V O
Ġc riteria
08 6
Ġspoor tje
ĠTo xop
Bes loten
ĠToxop eus
ĠL ater
06 6
Ġog end
nest isch
Ġgegevens mammacarcinoom
Ġbepal ing
pl ek
H istologisch
ĠC luster
Ġkarakter istieken
ĠUitgang ssituatie
Ġg lob
ĠH ol
ĠL ucas
Ġla st
Ġgegro eid
ynam iek
14 5
Ġz onodig
ĠA spect
rog ressie
ĠZ aans
Ġmel k
ĠOn veranderde
un d
Ġtepel knop
Fran ken
Ġre den
Ġoor spron
Ġradi atie
14 4
Ġsymmetr iserende
Ġb een
Ġhematoom vorming
Ġlaag gradig
m ediale
00 4
Ġaxillair lijn
Ġrelevan t
re sectie
Ġge komen
Ġdoor gestuurd
F orse
ĠB oel
Ġintra pulm
Ġgeassocie erde
14 3
gedi kt
03 7
ĠDu bieuze
ĠMe ander
up ra
Ġnu mmer
Ġs uper
Ġhydromarker s
E xcisie
Ġv entro
Ġsignaal intensiteit
Ġg ra
Ġver loop
ĠAl s
Ġsch ijf
Ġzw ell
Ġpro cessen
Ġger ev
ĠAm sterdam
Ġst a
T otal
ne mer
13 3
ĠTe pel
Ġbesla an
Ġ199 4
Ġgeoriente erd
ĠHier voor
197 2
ĠDe els
klier en
Ġpap illair
Ġth v
t yp
Ġbetreff end
Ġpleura vocht
ex t
Ġsubtie l
Ġmorf ologisch
1 01
ple eg
Ġteken ing
Diff use
ĠLok aal
Ġneg atieve
ph ia
g ra
i wit
eter en
ĠBe oor
Ġpol iep
Ġge el
pervlakk ig
pan tie
ĠSch erp
Ġactiviteit stapeling
D i
Ġbil obaire
ab dominaal
6 5
Ġer v
Ġmonom orfe
ig h
.... ....
C PA
195 2
Ġpersist eert
Uit slag
Ġgevoel ig
ma teriaal
hoog te
Ġoor zaak
Ġaan duid
Ġdiscre et
icentr isch
Ġoede ma
pleeg kun
en kele
12 7
Ġoksel lokalisatie
204 05
ĠToonenRadioloog H
zij dige
Du bieus
Franken Radioloog
I s
Ġd osis
te us
09 4
Ġin gedikt
Vraagstelling Graag
195 4
Vergelijk end
e ma
ĠDiff use
7 0
l oc
op t
Ġpol ym
Vraagstelling sn
Ġtepel hoogte
j aarlijkse
Ġov ar
Ġma ma
ĠMa ximaal
195 8
Ġlymfe afvloed
or gen
Ġcontrast middel
Ġcontin u
Ġovarium carcinoom
Ġl ijn
ĠU MC
ĠJodium zaadje
Ġlinker boven
ĠG ra
ss e
Ġtransvers ale
" <
< /
Ġblijk en
ĠOver weeg
ĠP alpabel
ĠP ijnlijke
Ġli Verslag
Ġredelijk e
od us
g oed
Ġlinks lateraal
ĠOn scherp
2 06
Ġe iwit
dre as
S creen
l ij
Cyste uze
con clusie
ĠLangeRadioloog C
agen aar
Ġantibiot ica
ion eel
Ġlob ulaire
n is
gro ep
Ġregion aal
re kt
Ġoverwe ging
Ġpersist erende
Ġvol komen
Ġz e
er s
Re cidief
ĠH oo
tre cht
c an
Ġimpon eren
ocrien e
Ġaanduid ing
m icro
it one
Ġaan vankelijk
chogra fische
ver gro
ĠP atidnt
ĠI N
ĠStatus nummer
ĠL icht
Ġfibro cysteuze
ĠS T
Ġlit tekens
ent atie
W at
Ġre Verslag
ĠMAMMA E
We inig
ne u
12 8
Ġjodiummarker s
op ro
rijk e
c r
09 3
Ġtw ijfel
Ġdegeneratie ve
d raagster
ran den
ĠC raniolateraal
Ġmult iple
en adering
la ard
08 8
ĠVerslag De
ĠLok ale
7 3
v m
ann eer
pass ing
oud ing
Ġverklein d
n et
Ġ ur
H omogeen
ĠU trecht
Ġpre operatieve
ĠCa ve
ĠDaar om
Ġm ij
ymf adenopathie
07 6
Ġhaard je
Over eenkom
ĠBoel laard
ĠT ot
Ġzie kte
ĠLood markering
Ġul c
Ġcon s
h oudens
Ġs ens
Vraagstelling pre
ithel iale
Ġaanvoel ende
Ġab normale
w ollen
Ġ )
Ġo og
Ġmid dag
Ġclip jes
W ij
ĠJ uist
P athologisch
Ġstu ks
Ġstructuur tje
Voor alsnog
Ġarter ieel
T horax
aan kleurende
Ġhier mee
Ġnecro tische
h uid
Ġis o
inde valuatie
b ouw
Vrij wel
ĠToen ame
Ġont vangen
Ġnod ulus
6 0
Ġproject eren
Ġ199 3
ĠH age
ĠS ec
ĠUit breiding
Ġbesch rij
Ġverb inding
tot aal
olog en
Ġken nelijk
ĠF ocaal
Ġm n
Ġcompressie opname
Ġgevoel de
yp er
ĠF A
pro thesen
ov entraal
Ġdysp lasie
M edi
ĠAf metingen
Ġident iek
P alpabel
Ġtoe passing
Ġrand normale
Ġpre c
ĠS nel
ific eren
ĠL ymfeklier
Ġlood kogel
A O
Ġp te
Cont rast
Ster k
ge wogen
Un ilaterale
204 04
c yst
Ġm ucineus
Ġ ik
Ġklein ste
Ġt al
ĠE erdere
Voor geschiedenis
Ġte midden
Ġd raad
Ġonder kwab
Ġgep alp
Ġtechn isch
ĠJ aarlijkse
B egeleidend
m oeilijk
Ġx mg
Ġmedi olaterale
Ġpass ende
Ġmorf ologie
Ġn ad
ĠOn zeker
Ġcortex verdikking
str ib
Ġsitu atie
Ġreconstructie s
ĠW agenaar
te kend
ĠBO V
z eer
Ġrest massa
Ġ ori
Ġmamma Verslag
14 0
ombin atie
). "
Ġbre edte
6 8
A dequate
Ġuit spraak
Ġcaud o
Ġgep ro
f lectie
og er
Ġver minder
Ġadjuvan t
ver bre
Ġdaar voor
lot te
ĠÂ ¦
ĠHol t
Ġdesm oplastische
M ST
Ġtumor activiteit
E chter
Ġovereen komen
r ische
Vraagstelling Gepland
ĠPost menopauzaal
Ġsatelliet en
Ġjaar lijkse
ve is
ĠPro these
Ġtumor tje
ĠPer i
mult ifocaal
Ġb rengen
B eper
min ente
ren getje
echog eleid
or dt
Ġref erentie
oma teuze
ĠAf stand
Ġtepel s
Ġuitein de
ĠVer ander
Ġkor t
ie ctomie
Ġg land
Ġtoe stand
Ġsens it
ol om
l iet
ass end
Ġverklein de
vergro ting
ĠCheung Nucleaire
Ġa orta
mer kte
Ġhemangi oom
1 02
Ġechogra m
Ġepitheel proliferatie
ĠN on
il inder
Ġinjectie plek
204 06
Ġgec ont
ron onc
Ġvl oe
r im
Ġboven kwab
ster eotact
ĠSter k
Ġsc ar
an ne
ĠN ina
Ġverv et
Ġtracer verdeling
usie velijk
Ġbe halve
ĠG espiculeerde
Ġmedi ocentraal
14 7
ĠN M
Z welling
ĠM anu
Ġmammografie Ã«n
Ġch ron
ĠManu el
k olom
ĠT HORAX
Ġper f
rol eerd
? .
E ventueel
Ġwissel ende
Ġgelok aliseerde
Ġvl ekk
ĠAn dreas
lever kwab
Ġ ili
s afname
Ġb laas
ĠWesselsRadioloog Dr
Ġen dometrium
Ġmultiloc ulaire
ext irpatie
E veneens
v a
af meting
E indevaluatie
Ġr ijke
afwijkingen Verslag
Ġom heen
Ġintrac apsulaire
195 6
Ge heel
Ġuitein delijk
Z onder
Ġm ic
Ġaan gevraagd
Ġhuidin cisie
ĠHolt kamp
m edi
ver d
ĠOp namen
Ġw r
leur ale
ĠConclusie Non
le m
et jes
bre edte
Ġgroei ende
Ġgran ulaire
ar den
Ġr t
ik te
Ġun ilateraal
tek ende
08 9
ĠFibro adenoom
ur m
Ġbloed v
Ġinflamma tie
Ġder Geboortedatum
rel atie
Ġh em
Ġe ind
I J
s d
sch il
ret ractie
kan ker
6 4
P T
ul ken
geb iop
fic iele
in nemende
Ġtumorlokalisatie s
y er
Ġla ct
Ġgecont roleerd
ul atuur
P atidnte
u ij
sc ur
194 9
Ġh ouding
Ġlitteken vorming
Ġsagitt aal
ĠOvereenkom end
Ġklier pathologie
Ġom liggende
j odium
Ver dacht
03 8
ĠF ocale
Ġpla veis
Ġwervel kolom
ther apie
Ġgebru ikt
Ġre ct
Ġas c
Ġn ier
Ġloop t
ist ologische
ĠAr chitectuurverstoring
PA io
Ġmutatie Indicatie
op h
ĠO v
Ġpunct eren
Ġvert onen
). .
Ġinterp ret
Ġverdwijn t
Ġmin us
Ġhuid plooi
Ġdi st
os i
Ġl uc
ĠE v
ore flectie
7 1
L inker
p ool
ĠZ ou
Ġkor rel
ĠOpvall end
Ġposter ior
Ġl bq
Ġbe merkte
ĠA ddendum
Ġhyp odens
14 8
Ġips ilaterale
Ġretromamm ilair
Ġ <
ĠN ab
Vraagstelling graag
ĠMon ro
ecifie ke
Ġbovenbuik s
invasie ve
kor te
194 8
205 02
R E
op pl
ĠA xilla
Ġc ombinatie
Ġboven beschreven
gen oemde
Ġbescho uwen
Ten minste
ĠKen nemer
uur s
itein delijk
6 3
Ġmee ste
> "
m ijn
ĠL aterale
Ġgep rononc
at o
punctie Klinische
er g
08 5
Ġin spectie
Ġsequ entie
194 6
Ġver pleegkun
ĠV liet
Ġhier op
Ġtyp ische
ĠS uros
Ġscler otische
iss er
08 7
oppl er
03 4
Ġbloeder ige
Ġinflamma to
Ġzwak ke
cr ete
01 3
01 8
Ġme d
Ġsp ecimen
Ġverv olg
Lok ale
at ra
Ġbe dro
195 3
Ġi mmun
ĠM icrokalk
Ġbij be
i la
Ġgev ulde
Ġloc aties
/ -
w andige
Ġrechts Ter
Ġpapill omat
Ġrechter boven
r ia
Ġtegen stelling
ĠA dequaat
Ġtot al
Ġaf zonder
Ġcut aan
Ġoperatie f
ĠAan kleuring
Ġv aten
hal s
Ġgez wollen
ĠB ijkom
L overen
Ġvan Loveren
Ġmamma parenchym
Ġpapill omen
Al hier
% )
Re chter
ĠMammografie Follow
ĠH elaas
to en
IN G
Ġplomp e
ot isch
Ġmammae Status
ĠAbl atio
ati ons
Ġhier tegen
od ulair
it air
ĠL inker
iss ue
o er
ĠT oegenomen
195 1
Ġtom o
lat eerde
Ġz eggen
ĠS uggestie
Ġhier omheen
oe md
Ġmicro verkalkingen
Ġlok aliseren
h uizen
Ġeiland je
oont herapie
Ġmoei zaam
Ġover loop
Ġt aa
Ġdiscre pantie
o zen
ge w
Ġgroot st
Ġz in
ĠMet s
gebiop teerd
ar ige
Ġop vragen
D D
Ġsp oel
ĠVan uit
L ang
Ġ4 2
Ġrest kalk
Ġtub ulair
Â °
Ġ( <
ĠPer sisterend
agitt aal
malig niteit
Ġbedro eg
Ġmet astasering
Ġverdeel d
Ġst ellen
Ġgedi lateerde
ra gen
ĠP assend
ĠRe gel
Beoor deling
Ġhyp oe
ĠS O
oÃ¯ d
AO IS
sp aring
icht ing
Ġdaar door
urm erend
ĠM inimaal
Ġaanvull ing
ĠNM E
Ġv iew
ĠGes ch
Ġvoor heen
Ġter mijn
Un ifocaal
ĠO f
ev al
laag de
L aterale
Ġvari Ã«
Contrast opname
ĠA den
ĠVer dikte
V ier
ĠLee uw
Ġori entatie
Ġof ficiele
ig m
ĠC E
aan vull
r etro
ĠE x
ĠGe heel
lavic ula
Ġbijbe horende
01 4
Ġpart ieel
Z elf
ĠAan wijzingen
Ġkleur en
He den
T HORAX
Ġben a
M ateriaal
ill ing
Ġradi ologen
Ġ199 0
ĠN B
Ġex acte
Ġl ytische
ol ie
Ġlever t
tra ctie
R VO
ĠOpvall ende
uma rk
Ġver lop
Uit gebreid
Ġlater ocentraal
up e
w ik
ĠS egm
6 9
T S
i laire
Ġl if
Ġst rengetje
02 8
ĠF orse
Lateraal boven
Ġscintigra m
p s
ent ies
ĠAan kleurende
Ġcon us
Ġz kh
ĠD ulken
ĠMammografie Mammacarcinoom
ĠOvereenkom stig
Ġhobbel ig
Ġk ern
ĠI vm
Ġlobulair carcinoom
Ġechol ucente
Ġontbre ekt
Ġuit erst
Ġinter pectoraal
ijk t
ĠV isser
Ġbevin ding
Ġuitloper tjes
03 3
04 7
Ġp osition
Ġst aan
02 4
hoog de
s a
Ġdystro fisch
Ġafge geven
195 0
Ġ199 1
de u
vers um
ran od
il laire
12 4
07 5
er oen
Ġw ond
Ġklier rest
Ġmeet bare
c ide
Ġmoet en
Ġmedi aan
T otale
ath eter
Ġcur ve
Ġm y
Ġgest opt
Ġklier metastase
Ġm ijns
Ġs yn
yste m
mer king
Ġstadi um
Ġtransvers aal
il versum
Ġander halve
cy t
Ġnanocoll ond
ĠDe stijds
Ġ( >
Ġhorm oontherapie
er eerde
Ġmammogra mmen
ĠDiff erentiaal
Ġhoger op
Ġsta af
Ġtra ctie
Ġtra ge
rele erd
Ġaf gel
Ġlong n
ranod ale
id le
Ġlater odorsaal
Ġgran ul
Op nieuw
04 3
Ġvet kwabje
v es
ab domen
ĠC D
ect atief
Rond om
ĠT wistmarker
14 9
Ġha ak
Ġs ystem
ma le
famili aire
07 7
echo isch
Ġnet to
ge gaan
Ġh igh
Ġp an
Ġgerangsch ikte
Ġfra a
ĠD ystrofe
Per i
T oename
as c
ze p
Ġbron nen
M icrocalcificaties
02 9
han kelijk
le vel
eg ens
agnost isch
Ġinz icht
ĠZwart Dr
Ġbel oop
on ge
R O
ĠT ussen
Ġ-------- ---
ĠVerdacht e
19 99
uggest ief
ĠWess els
ĠAs ymmetrie
ĠRe chter
Ġext ranodale
P ap
L R
or releerd
ĠP laats
man Geboortedatum
ijn en
Ġcor onale
Ġgen oemde
Ġv d
vestig ing
ĠRepresent atief
Ġbovenbuiks organen
Ġc alc
sluit en
Ġindex laesie
Ġverbre ed
Ġverminder de
ĠLeeuw arden
, ,
On veranderde
ĠUit slag
Ġcorresponder en
i ken
Ġverslag en
Ġgevoel ige
Ġmacro scop
ĠL okalisatie
Ġvor en
S ymmetrische
Ġlymf ogene
Ġtepel retractie
Ġlip onecrose
ink je
Jodium zaadje
Ġbeginn end
m v
Ġb obbel
Ġr ij
ĠTw ente
ĠL ichte
Ġbovenkwadrant en
s upervisie
ĠVerslag Op
Segm enteel
zep am
volutie beeld
ĠOm vang
M aligne
Ġb and
Ġk uur
P ijnlijke
Ġb et
ĠF NA
Mamma prothese
Ġjaar lijks
abl atie
E O
Drie maal
Ġintrapulm onale
Ġonder ge
Ġ Q
Ġhorizont ale
Ġintrac yste
f ries
ten minste
Ġoperatie ve
ĠP lanaire
Ġop geleide
Aan wijzingen
Ġvisu aliseren
ĠPijn klachten
Ġoorspron kelijke
S impele
om ediale
Ġecho beelden
ĠV et
Ġont wik
Ġverklein ing
Ġlymfebaan tje
2 11
u il
Ġ `
in it
Ġeigen lijk
ĠR uim
04 4
cht ing
ĠHB OC
rk eerd
d orsaal
197 3
Ġb ult
ĠP laatsen
met en
Ġgroep en
Ġuitsnijkamer Echo
Ġeen maal
Ġan g
Ġs uggestief
wijz e
d us
ĠH omogene
Ġ image
Ġt op
ĠV TS
Ġaankleuring scur
ĠMed ische
Klier weefsel
Ġpro ble
cut aan
int ra
achter waar
Ã ¼
Ġgepro jecteerd
I DC
Ġk l
Ster eotaxie
Per sisterend
p ositieve
Ġt issue
Ġpost op
bel aste
.. .
02 3
Ġbena derd
Ġ Â·
acht en
Ġel ast
Aan kleuring
Te pel
ĠLood korrelmarkering
Ġbeen mer
Ġdiagn osi
Ġtaa i
Ġborst kanker
Ġvol gen
V raag
de positie
Ġd mv
ĠSt adiÃ«ring
ĠgeoriÃ«nte erd
p je
en gevolge
Ġdient engevolge
Ġl op
Ġvoor keur
deel s
Ġb la
Ġradi ologische
ĠMet astase
Ġhypere chogene
Ġc ilinder
gev orderde
08 4
Ġverk orte
Gel ob
t se
Ġcyst etjes
Ġimmun o
eer bare
ati on
re constructie
Ġonder ste
MRI SC
Ġinzicht en
u a
Ġ Ã
Ġgezamen lijk
ĠScho t
O v
z et
slag plooi
cyste us
Ġvaatwand verkalkingen
Ġchron ische
Ġor ig
lij m
P atidnt
Ġde clips
Ġmamma ria
opath ische
ĠNa uwe
13 0
Redelijk e
ĠB innen
Ġb ilaterale
Ġc entro
over eenkom
Ġwaar onder
eer st
ĠHier omheen
b eg
Ã¼ m
g t
Ġbest aand
Ġn ormalisatie
Ġgeleid elijk
Ġvert elt
Ġafwez ig
Ġnabij heid
ĠAm phia
Ġdoor kleurend
ĠDr ietal
07 4
Ġ199 2
As ymmetrisch
Ġgerev iseerd
ĠI rregulair
de ze
Ġeven min
ĠT echn
ĠL R
Ġmedi o
h oudend
Ġkan s
verbre ding
g um
Ġlip of
ĠK em
Ġpector ale
Ã¯ ne
te erde
Ġvergrotings opnamen
Ġbe moeilijk
Ġconflu erend
Ġna ev
D uidelijk
on veranderd
t omosynthese
ĠUrk Dr
Ġge vorm
le es
H L
ĠW aterland
Ġmusc ulatuur
ĠNa uwelijks
Ġs vp
Ver dere
ĠAl daar
ble ek
Ġlo sse
h r
r ont
s cho
Ġwaar de
ce d
Ġover liggend
Ġ------------ --------
Ġst ro
d raad
ĠM bq
00 8
hand eling
gen eeskundige
Ġvacu Ã¼m
ĠSec ur
re eg
06 4
Ġ- .
c entr
Ġc entrolateraal
Ġh of
Ġar gum
ep je
H elaas
ĠHer halen
Na uwelijks
IS CH
k kelijk
Ġre ele
ĠL aag
Ġweg gebiopteerd
ĠO mdat
Ġ+ /-
Sp iraalvormige
rani ale
ĠSentinel node
Ġver kleuring
Ġlater o
Ġ5 5
grens d
last isch
Ġgroei wijze
Ġvolg ende
ĠP ouw
Ġonderzoek F
Hier in
ĠSn ijvlak
h o
sch ildklier
Al s
ĠV ier
s nel
is N
Over ige
dd orp
oof ddorp
Ġlipof illing
o it
ĠW aar
Ġinflammato ir
Ġb ob
ĠL ymfklier
kk ingen
Re cent
Ġdi chter
ĠUrk J
ĠSp iraalvormige
Ġvoor ken
Ġech ogene
Ġvoorken nis
Ġmediast inale
ĠDrie maal
ĠT RA
197 4
k apsel
ĠIn getrokken
194 4
m eerdere
Ġechorijk ere
Ġmorf ologische
og eleide
Ġdetail opname
Ġonderge tekende
7 2
IO PT
ĠD ijk
ĠC h
04 5
Ġrand je
Ġnucleair geneeskundige
Ġoog t
Ġtumor depositie
ĠIn vasief
ven euze
Ġlymfang io
S olide
ĠN adien
ast ig
Ġal tijd
aal de
l oe
p itheel
Ġgen oemd
Ġsn ij
B iopsie
ĠvariÃ« rend
d rie
ĠP lan
05 6
Ġqu adrant
al en
ig szins
Ġdis sectie
Ġposter ieure
ĠMult ifocale
Ġretro spectief
ĠT amoxifen
Ġzwell ingen
W K
he matoom
Ġmultin odulaire
h oud
Ġcontrole Verslag
ĠKem per
Ġk reeg
1 03
Sp aarne
Ġgesch ikt
Ġg elijk
rima ir
ĠN HL
197 5
ĠDoor verwezen
Ġinge scand
on ker
L ymfeklier
c ip
Ġargum enten
Ġsub tractie
Ġvol st
ug ger
Ġsamenhan gen
Ġmamm ila
seg m
A bl
ep at
11 5
Ġger ust
ĠAanvull ing
Ġvoel baar
c p
l ang
A xillaire
Ġmediaal onder
M A
ju ist
Ġprominent er
cide erd
p ap
Conclusie Non
e ffect
h oe
Ġhoe wel
Ġili um
Ġbuik ligging
Ġposition ering
H uidexcisie
b aan
ĠAan vankelijk
Ġbehand el
thorax wand
S creenend
Ġonderz ijde
Verdacht e
igm oid
al a
Ġre con
Ġs at
best raling
re eds
ul aties
L icht
om s
06 7
Ġrest aankleuring
Ġafwez ige
MRI sc
lex ander
ĠAmst el
as culaire
Ġfeb r
Ġgroei end
pulm onaal
ĠGra af
ĠGe dacht
ĠMAMM O
Ġ je
ru kt
Ġsensit iviteit
e chografie
ĠM L
Ġmediaal boven
Un ilateraal
ĠSoykan Dr
Ġsep ta
Ġl ies
Ġver sterking
gest elde
Ġn am
ese ctie
et sel
os arcoom
Ġ4 4
Ġspot s
Ġhaard vormige
ĠC hirurgie
Ġvert icale
205 03
st adiÃ«ring
ĠO s
ĠVerslag Pro
ĠAmstel veen
ĠWest fries
ĠLoc atie
ist of
ĠInf raclaviculair
ber e
Ġbloed glucose
Ġdraagster Indicatie
ĠÃ ł
k ingen
z onden
Ġc lavicula
ĠB evindingen
Ġonder gaan
Ġsec und
Ġbere ikt
T wistmarker
Ġschors breedte
Ġsec onde
Ġ3 9
12 3
st ations
ĠP ar
ĠA sp
te ctie
ĠH ilversum
oregion aal
Ġdis crete
Ġuitvo erige
Ġp et
Ġap ocriene
oede em
s oort
ĠA b
conessen huis
lees baar
ieken huizen
V P
d osering
Ġintra veneuze
k ant
le op
ce maker
ĠB re
ĠL ijkt
Ġ2 03
Ġtoediening sp
Ġgek ozen
ĠVerslag legging
C or
eken is
seg ment
Ġver lopend
ag ering
ĠZ o
ĠRe actief
Ġmast opathische
Ġlact atie
k le
erd am
Ġcyst ische
Ġend opro
leop atra
J uist
ij st
Ġma ker
ĠWit te
controle Verslag
Ġspic ulaire
l ink
04 9
Ġom slagplooi
P ositieve
it ieel
Ġskin sparing
Ġdr s
mm ing
ĠB lijkt
08 3
Ġext rac
ĠStabie l
ĠH oger
Ġarchitectuur veranderingen
art iele
ĠAs ymmetrisch
ĠD ec
Ġna v
Ġinterpret eerbaar
Ġnetto dosering
p lan
waar de
Ġj onge
a akt
Ġl ager
Ġexp ectatief
liecy ste
per itone
ĠMST Indicatie
Marker ing
A L
ĠFibro se
Ġslecht e
ĠFam ilie
04 8
11 6
Ġben ige
Ġaange merkt
Ġris k
Ġconvent ionele
z ol
a y
Ġwaar binnen
Ġresidu ele
Ġ %
Ġma p
ĠV ries
Ġinter n
ta cte
u x
Ġd Ã©
Ġr oll
amer a
ĠdÃ© bris
e ut
Ġbe z
I X
ver schil
ol ec
re sp
Ġp os
ad uwen
Gro ve
F amiliaire
y sten
ĠR ustig
prik ken
Ġ------------ --
As ymmetrische
M ed
k kend
odu li
ver lies
ru is
Ġfibro tische
arm er
197 6
Ġdwar se
m j
Ġmamma prothesen
Ġpre paraat
sp anning
k ere
Ġmast op
Ġ------------ ---
licht ingen
C ytologie
e f
Ġ4 3
Ġarter iele
B Q
re actie
ec on
Ġeiwit rijke
achterwaar tse
t ten
ĠMa x
Re st
00 9
Ġdiff erentiaal
d B
j arige
p atiÃ«nte
Ġ0 99
cler os
Ġdubbel zijdige
volu erend
Ġhier naast
olle dige
Ġv allen
Ġop mer
ĠVerander ing
1 05
h ouden
ĠN S
Ġschaduw tje
kijk en
Ġverbre de
Al le
Ġgeop ereerde
ĠC rani
Her haling
la ar
aal f
ĠOn t
Ġ7 0
M evrouw
Retro mammair
Ġonduidelijk e
Ġdef ormatie
Ġbet ekenis
onder kwab
Ġverb onden
Groot ste
1 09
ĠM oeder
Ġsubc lav
Ġatyp isch
c amera
Ġop bouw
Ġlinks Ter
we g
MRI sk
Van uit
L dB
ĠNa ast
ĠIntra mammair
Ġa c
eid en
Ġsat el
Ġvoor zien
Ġexcisie biopt
ra at
Ġge ex
Re den
ib ux
19 98
ĠDoor gestuurd
ĠMar ijke
ĠNab ibux
11 7
Ġkan aal
Ġexter n
lin ge
at ting
Ġw ijde
ĠB eper
Ġst ans
TIN G
Ġpolym orfe
Ġgeprononc eerde
Ġ Contral
Groot te
ĠFa MRIsk
Ġvert akk
idi ver
Ġs creen
Ġklier vergroting
ĠN o
Ġ9 8
ĠGesch atte
is ico
Ġcor onaal
cel lig
Ġprec ies
Ġvlekk ige
ode m
Ġzit tende
st umor
Ġma akt
ĠH el
ĠE l
Ġde tectie
dic teerd
G RO
Ġonder rand
ĠOp name
bere iding
GRO TING
C orrecte
ĠB aas
Ġf ist
Conclusie Lokalisatie
Ġl open
Ġhier na
07 9
M ast
we stie
Ġgesp roken
ĠD en
ĠBijkom end
S nel
ende tected
cre endetected
eb ruari
Ġsegment aire
ĠBes loten
Ġop er
Re present
Ġmicro cysteuze
he p
15 0
deu king
nam nestisch
Ġerv aart
1 08
h ist
as ale
kk oord
ĠI J
sc o
ler eerst
t r
ĠS te
Ġcont act
rie sco
Ġin deuking
Ġontstek ings
ij ven
Ġeval u
Ġatyp ie
Ġgel ig
ĠM IP
Ġ21 00
Ġscherp begrensde
ĠNu chter
echo Ã¯
ĠHiel Nucleaire
wer king
Ġdrukp ijnlijk
01 9
Ġverv loe
ĠT E
Ġphyll ode
strib utie
ev olkingsonderzoek
ĠTwee maal
id t
Ġvertakk ende
b and
Ġver gevorderde
Ġc ervix
Ġreproduc eren
ĠDuidelijk e
l aten
vent er
ĠV re
Ġgr ond
deelbaar heid
Ġde tected
B enadering
Ġgegevens DCIS
ĠBruining A
ĠWitte veen
Ġm il
Naald biopten
ĠO ost
econ stru
Ġver plaatst
Ġbev ond
ite s
Inf low
Ġaankleuringscur ve
Ġtoedieningsp laats
Ġw ens
Ġdi stributie
2 09
k westie
Ġcorrel eren
Ġdens ere
Ġrechter long
ccess o
ĠSter ke
O P
rij gt
riesco upe
an al
Ġz iet
Ġverspreid ing
aar lijks
ĠVer k
ĠR ijn
ĠVU MC
1 07
arnar s
Ġacht ige
Ġaan prikken
Ġcor e
typ e
Ġvloe istof
comp onent
ĠB ilateraal
Ġrec ept
194 3
s vp
Ġp ulm
Ġs ere
Ġretro peritone
Ġomvang safname
Over name
Ġonru stig
Ġklin iek
03 9
mar ge
Ġdynam iek
Ġbeenmer g
zend ing
centr atie
end ens
In tacte
screening Mammografie
Pro cedure
Ġbruin vet
ac rum
Ġwe zen
Ġnodu le
ĠMarker ing
en a
De els
Ġverwijder ing
z ekerheid
Ġc ar
Inf ra
Ġglob ale
T A
Ġstaaf vormige
ĠW ordt
Ġer n
Ġger econstru
Ġschors verdikking
Ġsubclav ia
ĠS ep
Ġdd AC
s agittaal
el ijst
met rische
Ġv elden
ĠS creenend
ĠOp nieuw
Ġrug ligging
ling ing
uit slag
Ġbemoeilijk t
rik t
Ġbe ste
ijn de
Ġterug kijken
W arnars
Ġr uis
Ġfa MRIsc
Ġ5 7
Ġverricht e
Ġdun wandige
Ġgek eken
Ġonder deel
gren zen
mid dag
2 12
verdacht e
Ġboven arm
ĠH ege
volu eerde
ign aal
Diff usie
Stabie l
ĠHege man
Ġlater e
an je
ĠA xillaire
Ġtw aalf
ĠGe zamen
Ġdoor ge
uc ces
ĠAl m
m ond
ĠL UMC
Ġintrac ut
Ġl etsel
gev oel
Ġdrie hoek
6 1
en n
der ing
Ġsec ur
Ġwr s
ite en
P M
05 7
Ġe c
ĠE chografische
oo ien
ĠHoog uit
Ġkrap ste
E CHOGRAFIE
On duidelijk
Ġbot metastasen
Z uiver
Ġup Indicatie
Ġhyper intense
Ġgenn volueerd
oor de
Ġlokalisatie draad
gele verd
Ġneven bevinding
Ġexp ander
Ġp atroon
ac ale
Ġnam ens
Ġp at
on ger
ap eut
Ġdensiteit jes
Ġbiopt ie
Ġsuperpositie beeld
vrij e
Ġgepalp eerde
Ġcor t
Ġscherp e
erv icale
lan de
Ġlanggerek t
scan de
Ġstreng vormige
Ġmamma p
Ġcyst etje
Ġh ot
Ġh epat
ĠH IX
E U
o mm
Ġfijn ere
Ġaangrenz end
ma b
mee st
ĠLO K
Pro these
ĠTRA IN
u vel
ĠK l
f ra
r ib
Ġonder pool
Ġcrani ocaudaal
C hirurg
o et
s entinel
ĠR espons
Ġstu k
ĠUitgang s
Ġhaard jes
zu mab
- )
ĠT wist
Ġverpleegkun dig
Ġpan cre
ver moedelijk
Ġulc er
ĠP iek
pro tocol
Hier van
Ġprojectie kwestie
malig ne
6 2
P UNCTIE
B l
ont spanning
up Verslag
Ġov oide
ĠDollRadioloog P
ĠMamma e
Bes ch
Ġspier ontspanning
Opvall ende
ĠPar ra
Ġst ase
Ġ4 1
met astasering
groot ste
in n
ĠP ara
Ġontde kte
Ġextrac apsulaire
ag a
lop ig
Ġgevorm de
e chter
Ġtro mb
d ra
er ie
ĠLinks axillair
ĠS S
Ġge be
Ġbev allen
es da
00 3
EL L
eth esda
ver kleuring
Ġmutatie draagster
Ġlesie s
ver gelijk
Ġseroom holte
b raak
Ġrechts Geen
Ġtumor weefsel
Ġster vormig
ge komen
Ġ8 0
Ġcomp on
Ġvergrotings opnames
in houd
ro m
Ġmicro metastase
ĠIN FO
ie gel
18 6
L ater
Ġcompon ente
J odiummarker
op ie
ĠVerslag St
l g
Ġplaat jes
ma ximaal
un t
oc us
Ġgediagnost iseerd
am in
ĠI rregulaire
In getrokken
Op eratieclips
Ġcontrast fase
205 00
in zending
Ġsatel iet
Ġt ime
cyt ologie
Ġver ificatie
06 3
houdend heid
or ing
th ans
Ġbesla and
M inder
ĠMammografie Mammografie
Ġ19 89
Ġstern i
Ġsere us
07 8
Ġhobbel ige
2 13
p e
Ġoperatie litteken
Ġlig gend
Ġarter ie
ĠVer di
Ġbetre kking
aar dig
ĠH aag
Ġf avorable
Ġbevestig en
Ġweer houden
Stabie le
Opvall end
ne g
Ġthor acaal
Ġs oms
ĠU iteindelijk
Ġonru st
Ġ9 7
Ġsamen gevallen
Ġmaligniteits graad
oster ieur
Ġsch il
T oegenomen
ĠSch ildwachtklier
Ġre d
as eerd
Ġokselklier metastase
Ġaan vang
ĠAn dere
la s
ĠS int
07 3
rac lav
Ġactiv atie
in ier
Ġb o
Ġf em
Ġschors verbreding
Pre ventieve
Ġge Ã«
Ġon g
yn ac
leg gen
vl ies
cintigra fische
Ġsol itair
ĠQ ua
ĠInt ratumorale
stereotact isch
Ġkorrel ig
pot compressie
Ġnad ele
te b
ĠGe duid
gradi ge
Ġopnam elijst
Ġgeor idn
Ġspotcompressie opname
hals gebied
n on
ĠJ ong
in nemend
Ġz us
r ale
v olledig
cht ingen
re kkend
k a
ent ele
Ġokselklier metastasen
194 5
Ġdik ker
Z o
ĠZwartRadioloog Dr
Ġinfra mammair
ade mde
ĠVerslagPro be
Ġa ccesso
Ġbeter e
V et
Ġz orgen
Ġperf usie
lijm vlies
Ġendopro these
Ġk atheter
lass ificatie
ĠN ij
order line
ĠHer haling
Ġs sa
Ġretroperitone aal
Ġcon centratie
ente ctomie
erv icaal
ĠBraak Typist
EO TA
wez ig
Ma ximale
m icrocalcificaties
p ril
Ġechorijk er
all y
O m
ĠST ER
Ġvoor liggende
On geveer
Ter ugkijkend
Be vestiging
beg eleide
Ġre sten
it o
Ġext irpatie
Vergelijk ing
ĠAden ocarcinoom
Ġpalp ato
Ġma kkelijk
Ġmacro metastase
b uiten
u de
Ġsp aar
hep atische
Ġre excisie
ĠD E
ĠL ever
Ġbesch aduw
cut ane
Ġend oc
Beper kt
G E
ĠStabie le
Ġcilinder cel
ynac ad
o os
Ġin kt
Ġu iteen
ĠH of
06 8
Ġs acrum
es oph
Ġmicro scop
ĠP urmerend
vull ing
Ġdiameter s
ĠCor relatie
ĠVersleijen Nucleaire
ĠLidoca Ã¯ne
Ġlucht houdendheid
Ġgep rikt
al ic
Ġc linging
ĠD iep
Ġep ider
der se
st elland
19 96
Ġc om
Ġf link
mamil laire
Du bieuze
ot is
Ġsch edel
Ġpl at
ĠBeoor deling
Ġovar iectomie
aar lem
Ġbeschrij ving
ĠSTER EOTA
val t
ĠInt acte
u in
ĠMamma prothese
Ġ ).
Ġd el
D Z
Ġg oud
205 01
Ġhorm oon
Ġident ificeren
Ġw anneer
Ġcentimeter s
ĠTen minste
ula ris
Ġj a
Ġmass ieve
enten gevolge
W il
Ġop gev
Ġhoog gradig
Gro tendeels
ĠMbq Klinische
ĠP rogressie
ell ate
Ġverander de
Ġsequ enties
Ġk lass
Ġl ucente
Ġs lank
Ġuitloper tje
ecifie k
M inimaal
o chem
raal d
C hirurgie
L itteken
Ġsub str
ĠHegeman Radioloog
Ġsubstr aten
Naald biopt
clu ster
Ġ------------ -
Ġrect um
Ġafge grensd
ĠN oord
Ġlever parenchym
Ġvooraf gegaan
vl ek
ĠLang ste
ĠDia zepam
Ġnaev us
anal ys
Ġz oek
Ġbl oe
er man
Ġlymf baan
ign ale
Ġgeb aseerd
Loo Typist
ĠMari anne
Ġsystem ische
Ġpancre as
sar tefact
ĠH yp
em ber
Ġintracyste us
acht ige
U D
Ġvorm ing
inf raclaviculair
Ġkw am
Ġafzonder lijke
in dex
Ġpro ximale
Ġcur ves
Vraagstelling gaarne
O S
ĠH oofddorp
Ġte mp
Ġmicro cysten
di agnostisch
Ġbe wogen
Ġcollega e
Ġperitumor ale
st aand
Ġc up
Ġz iekenhuizen
ast inaal
ĠMart ini
Ver moedelijk
ĠC leopatra
Ġges ignale
Ġdo et
Ġbeschaduw ing
analys eerd
k v
ver band
ĠMA RI
Ġb rca
Ġge ob
ĠM ET
min derd
Ġ oriÃ«n
la kte
Ġsneldiagnostiek Bevindingen
pre operatief
194 2
ĠÂ ±
Ġover zicht
Ġ19 88
Ġk eten
Ġretro spect
Ġob v
ĠPost operatief
ens lotte
1 06
Ġna dien
ĠL ymfadenopathie
z i
la r
amin atie
ĠB erg
es wijk
ĠW egens
15 1
Ġgede tecte
Ġp as
b v
Ġ9 5
06 5
le ven
Ġversch ijnen
Ne u
Ġcons ult
Ġgep lande
Ġvaat stru
ĠMammapoli Verslag
B oven
s itu
Ġin voluerend
dro om
ĠB DZ
Ġbij een
19 80
ĠJ eroen
Ġlanger e
r eteren
in us
ru ik
Ġ9 6
Ġlong metastasen
Ġovertuig end
? -
ir ena
Ġbij horende
Ġinterp reteren
u zumab
CT ISCH
Ġeen malig
oc raniale
ble ven
ĠA ard
Ġtra uma
An alyse
Ġge f
Ġint ral
19 84
ĠGen eeskunde
R OLL
Ġaf lijn
Radi o
Ġlymfeklier drainage
Ġrechter mediale
ĠCC A
Ġden ken
Ġinit iÃ«le
+ ,
Ġv it
Ġge bleven
cu ul
Ġbed uid
Ġover zien
af rag
Ġp rik
ur ende
ter en
ril lig
te st
ĠD an
ger Typiste
lie cyst
ĠEn de
Ġbasaal celcarcinoom
v oren
van ced
Lok aal
Ġaangrenz ende
N AM
in oom
C a
Ġhuid afwijking
L oc
Ġpap illaire
Ġherh aalde
Ġoedema teus
Ġfist el
Ġeen s
ĠA lexander
vent ief
f ront
n odulaire
Ġt ran
acht ig
Ġbeduid end
K linisch
E S
Ġna uw
Ġhuid verkleuring
Ġbeh or
per iclaviculair
Ġgeex cideerd
Ġres ult
schildklier kwab
Ġlinks Onveranderd
In tern
ĠOn voldoende
Ġpunt iforme
Dens iteit
z ocht
yst eem
Ġplaveis el
ĠOn geveer
ne o
Ġam orf
ĠSTEREOTA CTISCH
F T
ast ing
ĠHe den
Ġgegevens Screen
ĠRechts axillair
Ġgev orderde
Pijn klachten
ĠVre eswijk
met astaseerd
Ġ9 4
05 4
Ġad vanced
ĠOn gerust
ĠComp licaties
2 08
H B
t otale
an ten
Ġp ra
ĠP ame
F avourable
p a
ĠGe groep
Ġlob ulaties
197 8
Ġmic ron
1 12
Ġ =
Ġzit ten
ĠD CA
Ġafger ond
an nen
Ġverkla art
sche iding
Ġpart iÃ«le
Ġaf m
ax el
Ġhot spot
ub rium
Ster ke
Overeenkom stig
Represent atieve
hist ochem
L INK
u mat
ĠM G
Ġbuik wand
oc ele
idi teit
Ġje uk
Ġe inde
Ġaan sluit
Ġl um
05 5
axil laire
Ġessentie el
b ele
Ġverdwijn en
er baar
ch e
Ġaange tekend
ĠVaat kalk
ĠIn vasie
Ġtumor densiteit
ep itheliale
1 04
Ġin za
Ġno oit
ĠR us
Am stelland
m i
ĠE ss
ĠR VP
ĠLoc oregionaal
S uspect
Ġdrukp ijnlijke
Â° )
t ings
ink jes
Ġoedema teuze
Ġbloedv at
segm entexcisie
s upraclaviculair
Ġs omm
Ġsubc laviculair
Ġplek je
sist erende
H istologische
Ġp leurale
Ġge ident
15 5
ĠSnijvlak ken
E erdere
F ocaal
Ġrechter leverkwab
Ġradi ogeleide
Ġlinkerboven kwadrant
Ġaankleur en
Ġscler ose
ĠAs ymmetrische
11 9
Ġkw ab
M B
ĠOp pervlakkig
ar ge
Ġw eten
Ġonderkwadrant en
Ġne uro
Ġgereconstru eerde
E x
In volutiebeeld
Ġover schaduw
ment en
al t
Ġbult je
ĠH a
ĠVer grote
Ġinfra mammaire
ne men
ĠHer ceptin
Ġuit gaande
Ġgec orreleerd
C aud
19 97
Ġ+ ++
ĠPame yer
Ġpost menopauzaal
Ã© n
s inds
ĠC ut
el o
Ġplaat sel
Ġmin ste
C rani
Ġaan vra
ĠO liecyste
L ine
i w
Ver grote
in clusief
Ġfraa ie
Ġverw ijd
z oals
Ġt ri
Ġs igmoid
eval ueerd
, .
n odus
11 8
05 8
19 81
Ġvet lob
A G
S UV
s erv
te grenzen
Ġaf tegrenzen
ĠMB K
kt ober
Ġscho tten
Ġco il
RG OS
Ġget racht
Ġgeident ificeerd
Ġst re
ĠD oppler
Ġgea cc
Ġspriet erig
e cht
p athologisch
onger sch
Ġcort icale
te ert
echoÃ¯ sche
ĠoriÃ«n tatie
k leine
Ġb odem
ĠP athologie
Ġl iet
Ġst ip
Ġverst oorde
asc ie
N M
ĠS upra
Ġcrani odorsaal
h yp
p ijn
Ġglad begrensde
ĠGro en
Ġdrukp ijn
2 07
S upra
V ER
z eem
V iveen
Ġklier verdeling
ĠTo ele
Ġelast ische
ĠSecur marker
ĠHoger op
ĠV I
Ġmoeder vlek
RE CHT
re cept
gema rkeerd
Ġsecund aire
Ġge evalueerd
ver wijzing
Ġst agering
ĠR CC
ongersch ans
Her halen
c ategorie
fie l
197 7
Hier na
ĠEn igszins
Ġman ubrium
L umpectomie
Ġd onker
ĠK ool
ĠTer ugkijkend
ĠLateraal boven
a id
im um
Ġoverpro jecterend
Ġv raag
Ġsteat otisch
geb leven
er ent
Ġrechts Onveranderd
Ġbeiderzijds Mammografie
Ġ5 3
ĠDr s
ĠMede beoordeeld
Ġhoger gelegen
Ġvooraf gaan
ĠEss erman
o ot
ge meten
la kt
Ġst ellate
Ġluc ent
h ole
ee s
esoph ag
ol eerde
ver denking
im ide
Ġexcisie biopsie
Ġband vormige
init ieve
ĠT AC
Ġwor d
Ġlever laesies
Ġbijn ier
Axilla e
sd ynamiek
iw j
Ġge analyseerd
Ġboven staand
Ġgep en
arge te
ad nex
Ġ4 6
Ġvast gestelde
Ġverkla ard
scho uder
ĠB aar
ĠH oorn
Ġcont aminatie
06 9
Ġsnijvlak ken
Ġgen oeg
Ġverlop en
nieuw de
194 0
ĠSeinstraRadioloog B
uit s
E C
ede em
Ġkapsel door
ĠBl oed
Ġgepen etre
j ongerschans
p atiente
ĠM in
ĠTot aal
Ġhuid laesie
E v
om ografie
ĠA RGOS
ĠV or
Ġretro pectorale
af w
Ġthorax regio
CL IP
Ġvolst rekt
CLIP S
Ġh uis
r int
ont gen
11 3
Huid biopt
Ġconus excisie
uur t
Ġsp aring
Ġsign ific
id den
idiver ende
imide x
ors ale
Ġstructuur tjes
ĠVer meer
ĠStokkel Nucleaire
Ġextra hepatische
Uitgang ssituatie
Ġmastop atisch
Ġmicro cysteus
Ġben ader
Ġanter ieure
re et
Ġnu chter
Over ig
E l
Ġan gi
Ġ4 8
onder kwadrant
ĠUit sluiten
V aat
Ġontwik kel
O mdat
V oelt
Ġmammae Mammacarcinoom
hoog d
Ġvermoedelijk e
waar van
Ġbere ikbaar
g eleid
Ġgland ulair
Ġab dom
Ġg af
Ġinit iele
Ġsomm ige
Ġaf nemende
ĠV olledig
Ġgek regen
ge plaatst
st ate
se min
Ġmantelveld bestraling
loc atie
g v
p al
en Geboortedatum
194 1
Ġfors ere
Klier densiteit
ĠH ui
P a
ĠG ec
H yp
Ġre iken
Ġuitgebre ider
Ġnaald biopsie
teb raal
Ġkapseldoor braak
S uggestie
Ġon bekende
ĠA DC
Ġtumor haard
16 7
Ġaanzien lijk
Overeenkom end
Ġ6 5
ĠDe venter
Ġ5 4
Ġ id
Ġcost o
tende d
ĠPro minente
ĠHuid verdikking
Ġc ent
vo u
Ġanal oog
Ġh y
ĠV een
be d
Ġrest ante
Ġom ring
Ġpl ooien
Ġpijp je
ĠVermeer en
Ġgecon st
d iep
ĠVer hoogde
Ġech oreflectie
Ġang st
ĠA ug
Ġder mat
min ent
gew richt
Ġver minderd
Ġafge kapsel
ĠUit was
Ġdik ste
Z aans
Ġaf iwj
ĠSN Indicatie
Ġlong parenchym
Ġdieper gelegen
Comp ositie
Ġschedel front
op timaal
ru p
om in
Ġlip omen
Ġintercost ale
-------- --------
ĠBe houdens
LINK S
om y
Ġgede form
B asaal
ĠP athologisch
laat ste
Over igens
K omt
m n
Conclusie Ongewijzigd
ĠMammografie T
grond aankleuring
Ġnecro tisch
a ort
mm el
ĠR ot
Ġep itheliale
Ġur eteren
Ġ---------------- -
Ġsubop timale
Ġst ral
Ġschildwachtklier en
z ing
an gen
z owel
Onscherp e
Door gestuurd
ĠVerslagSt atisch
f ecte
Ġre gel
Ġte a
ru g
18 7
ĠI UD
tra ject
ĠG rillige
x SN
is eerde
ek ker
Ġfra ctuur
B ody
C ervix
D ikke
Ġlinks Mammografie
sen teert
Ġ09 6
Daar na
Ġvaatwand calcificaties
ĠSegm enteel
Ġafgel ijnde
ĠContral ateraal
ĠVER GROTING
Ġbespre ken
Ġb uurt
Ġvoel de
Ġrechterboven kwab
u raal
se p
Ġpa cemaker
z er
ve el
Ġperif ere
Ġget ro
Duidelijk e
Ġsp ont
Ġparenchym verdi
Ġmen opauz
cis cus
Pro minente
Ġsusceptibiliteit sartefacten
Ġgev raagd
aanvull ende
ĠW as
ever wijk
rast uzumab
v olle
Ġaan t
Ġtechn ische
wij l
V olledig
ro fie
ver tebraal
n t
Ġa vl
Ġgezien e
I rregulair
j a
Ġl n
ĠL N
Ġtumor soort
Ġsneldiagnostiek Palpabele
Ġonduidelijk heid
laats ing
Ġafiwj kingen
L BQ
Ġde tecte
Ġpre ventief
Ġlong carcinoom
S lechts
Ġde positie
19 86
Ġpar otis
Ġlymf oedeem
ĠL K
ul te
ijn a
MAMMA E
Ġk rijgt
Verslag FDG
Ġdi a
Ġger es
Post operatief
ĠMammografieMrisc MRISC
inf iltr
ĠE ind
Ġtroeb ele
Ġdist aal
F ibro
j om
n ier
Ġcel rijk
rele ert
ma teuze
Ġre eel
Ġ19 86
groot te
k op
m us
Ġo ste
is atie
on es
Ġbe do
ap ula
Ġlymfadenopathie Conclusie
Ġpost therapie
Ġscreening Verslag
Koops Typist
Ġcamer a
Ġlongn oduli
Ġtromb ose
Ġv riescoupe
ab ele
ond an
oor ts
up es
etro zol
kt isch
L ever
Ġd ra
Ġuit scheiding
19 82
Ġmax imum
Ġsyn droom
re s
ak ker
205 04
Ġsusceptibiliteit sartefact
Ġglob aal
Vraagstellingpre op
tr ent
em ende
Ġboven genoemde
gro tings
Ġver d
ĠH ar
Ġoksel metastase
rij ne
Ġ radicale
Ġt rip
Ġbetrouw bare
Ġ Con
Ġh ilaire
Ġst apel
Ġgew oon
raak been
RECHT S
% ),
Ġma ior
ĠVerslag Na
Ġhe uvel
dz alic
Ġ214 08
ĠKr dzalic
Medi ocaudaal
on nen
05 9
ic yste
Ġclass ific
P le
T ussen
re chter
ĠR et
Ġrib fra
Ġinv as
esp onse
Ġmedi odorsaal
Ġpre sternaal
Ġgest eld
N adien
Ġl ook
ro ek
ĠM irena
ĠH anging
uit breiding
ECT IE
Ġmacroscop ische
o den
Ġaan vragen
am nestisch
Ġd omin
Ġsegm entexcisie
r ath
id ente
semin atie
G ering
ol en
Ġ9 3
ĠGro tendeels
Ġmarge s
E ens
P laatsing
op cor
ĠD is
Vraagstelling WLE
Gelob uleerde
opcor n
Ġdi kw
Ġlob je
m ie
Ġw ant
ĠC aud
agn ose
Ġma rk
Ġc ito
18 5
Ġgecomplic eerd
Ġhemangi omen
Ġphyllode stumor
Ġge is
es ion
lin iek
Ġresult aat
Ġge comp
radi otherapie
Ġlinker leverkwab
Ġgeleid elijke
Ġcompressie opnamen
J ECTIE
Z ijde
Â ¿
Ġl idoca
ze gd
omen te
Ġtom ogra
Achter grondaankleuring
Fam ilie
Ġdist ale
Ġn orm
Ġf el
ĠMet astasen
Ġongerust heid
ĠUMC U
Ġern stige
geb ruik
ilt raat
Ġpapillomat ose
ct u
Ġmacro kalk
ondan ks
omente el
Ġm es
Ġuitst ral
Ġwil de
Gro epje
Beoor deelbaarheid
ĠVerk rijgen
a z
Ġv is
st ek
ne um
Ġvolum ine
Ġtemp i
M R
Ġom trent
duct aal
rima ire
17 6
ucces volle
sp arend
ger ekend
ĠBo er
Ġasc ites
a N
ris k
Ġinit ieel
ĠRus sel
I ps
R ustig
s lecht
ĠT riple
Ġaankleuring sdynamiek
Ġchem ok
15 2
ei ra
Ġnanocoll oÃ¯d
ĠDia conessenhuis
ĠAd juvan
Ġintral um
Ġ5 8
19 94
Ġfra g
ĠGel re
ch irurg
Ġp lastiek
Ġp ix
ate ur
overeenkom stig
ie ke
Ġcor releert
Ġmass ief
Ġoper ateur
H odgkin
M e
P ara
ge in
Ġm gl
ĠGe v
yp e
Ġden Geboortedatum
Ġ314 6
verander ing
ĠCheung Nucleair
Besch ikbaar
Ġop perv
Ġsnij randen
Ġe in
Ġbl ijven
Ġvlak bij
ĠVet necrose
kv h
Ġo a
Ġk nop
Ġter wijl
Ġpara vertebraal
Ġ19 84
Ġsec reet
yt ologisch
Ġminus cuul
B ethesda
ĠS ymmetrische
19 87
Ġocc ulte
Ġsatelliethaard jes
Ġdriehoek ige
i ders
Ġf out
Ġaanvoel t
dit ioneel
Ġconvent ioneel
Ġhypoe chogene
Ġge dicteerd
Ġn agel
Ġ6 6
ĠAn alyse
Ġuitwass end
Uitgang sonderzoek
Ġventro caudaal
ho ve
m icrokalk
Ġaf nemend
Ġcor eb
Ġle ek
ĠD es
ym p
Ġgep lakt
P NAM
h ilus
k eld
st rijk
der land
Ġsch aduwen
ĠRetro spectief
Ġgest aakt
Ġlop end
ĠM RM
Ġverdicht inkje
oeder ige
c atie
Ġv entrolateraal
Ġre Ã«le
Ġf ascie
ab el
Ġtumor vrije
Ġaden opathie
Ġmn d
M icrokalk
up take
Ġgep loo
Ġtherapie Indicatie
Ġax iaal
Screen ende
ĠDE CLIPS
ĠC lassificatie
ĠLood korrel
05 3
15 6
Ġimp lan
uits land
Ġc entr
rog ressief
eter ing
15 3
order ende
p akk
Ġs upervisie
Ġs arcoom
11 4
ĠAl len
Ġb asale
Ġmastectomie litteken
Ġopmer kelijke
Ġpra ktisch
ĠT umark
19 88
Ġobjectiv eerbare
d ant
el ast
Ġma t
ĠRe inier
Ġk oorts
ĠOp eratie
Ġpulm onale
c ente
ĠB iopsie
ĠS oepel
cor dant
klein ing
pakk et
Ġo esophag
ĠN P
Ġachter gebleven
B K
s nelde
st oename
ĠS olide
Ġlateraal onder
Ġpro begeleide
ĠIntra mammaire
ĠKool en
Ġparenchymverdi chtingen
Ġne u
V R
ul um
ira at
Ġendoc ervicale
Ġant i
h yper
o vo
der de
ol st
Ġ2 02
Ġeen vou
ĠL ymf
Ġangi osarcoom
S lotervaart
ele pitheel
ĠVer kalk
17 5
St atische
Ġinge scande
hand en
Ġafwezig heid
ĠAlm ere
o ens
ill en
Ġhypoe cho
radic aliteit
rath or
Ġcy linder
Ġuit genomen
geb eld
Ġlaag gradige
Ġa ss
Ġges ugger
A T
el k
K wadrant
at jes
ĠS laar
Vraagstelling in
Ġhyp oreflectie
Ġaandacht spunten
Ips ilaterale
Ġnagel aten
Ġex tended
out ine
Ġecht e
Ġt ussentijds
Ġvolledig heid
Twee maal
d ur
g ie
Ġl uid
Ġplaveisel celcarcinoom
Ġhe up
Ġinvas iviteit
Ġm bv
Ġlinks Geen
Ġrechts Mammografie
Ġ09 8
Ġpre senteert
Ġwash out
Ġlu kt
Ġgenn diceerd
ĠGegroep eerde
ent al
Ġopperv lakte
is eren
Ġi le
MAMM OGRAFIE
erenti atie
y l
Ġ ra
Ġon zekerheid
ĠP ijnlijk
Ġdiep gelegen
ĠPre operatieve
Ġdomin ante
Ġdoor dat
Ġmee gerekend
intra mammair
Ġorig ine
Ġprik ken
Ġclassific erende
th et
uit was
g ion
x eira
oek e
ĠT ei
Ġvoor handen
tex dikte
ĠBruiningRadioloog A
ei derd
ĠFran ciscus
sle utel
Ġhypermetab ool
Contral aterale
ĠBloed glucose
ĠTei xeira
eiderd orp
Ġvoor ts
Ġoksell ymfklier
Ġlinkerboven kwab
I LC
r ief
re erd
s ag
Ġz achte
Ġcomp rim
Ġzoek en
Ġgedetecte erd
Ġinza ge
H omogene
ĠH aarlem
ĠVerslag Lokalisatie
Ġscan s
Ġ214 07
Over weeg
Ġgecomp rim
d aan
l inker
klier dissectie
ĠOn danks
Ġgediagnostic eerde
Ġou dere
Ġdwar s
R espons
ĠP M
deel telijk
Ġ5 6
Ġgev allen
Ġgeb l
OK D
Ġadnex extirpatie
Ġfem ur
m usc
Ġ ........
R D
ĠW alde
Ġdarm en
ĠWalde yer
n om
r t
st orm
aal vormige
ĠIn pasbaar
Ġhuid verkalkingen
orijk e
Ġza adjes
Ġomgev end
Ġgenormalis eerde
ĠAbl atie
ĠMedi ocaudaal
Ġpat int
Ġ6 2
ep pel
Ġaanvra gend
I D
Ġs ysteem
Ġ6 1
Ġco upes
Med isch
Ġplaatsel ijk
Ġv ull
de tected
ĠD ruk
he ven
e ur
Ġaf gevallen
Ġ5 2
Ġbep aald
Ġscreen ende
re delijk
ĠZ onodig
ĠGel ob
Ġo liecyst
Ġgroep eerde
Ġprocedure Verslag
ĠVogel Nucleaire
Ġmil de
Ġaflijn bare
Ġalle maal
Ġgesignale erde
s ign
di b
Ġop gevuld
lijk baar
Ġrest anten
ĠIntra pulmonaal
ĠB ol
ĠZ oals
Ġne ur
Ġgren zend
Ġplaveis elepitheel
L astig
d endum
t erdam
ĠM OK
Ġr im
ĠBes proken
ĠSp anje
Ġabdom inale
: (
h ydromarker
ĠM utatie
ĠZ ij
aan kleurend
CP B
o bie
ĠC ysten
Ġcluster tjes
p N
an is
ol id
uw ing
Ġmee genomen
ill oom
Ġgeconst ateerd
Ġt gv
ĠK alk
ĠN A
Ġmidden kwab
Ġmultin odulair
Ġz ones
Ġec zeem
k waliteit
Ġals voren
gevoel ig
L ate
er Geboortedatum
ee uw
ter ne
ĠVer snelde
Ġkleur ing
Abl atio
argete cho
d ie
Ġ randen
Ġbiop s
Ġhier over
Ġhypere cho
Ġdoor gebeld
ept abele
p leurale
ch i
Ġc t
act er
Ġmogelijk heid
m ente
n ieuwe
ĠB IOPT
19 83
ĠRT X
Ġdikw andige
b ul
Ġon ze
ĠP te
ĠH eer
ven bevinding
gev een
Ter gooi
Ġ19 85
Ġrecon s
Ġcel materiaal
oens dag
18 3
ĠIs ala
Ġpix els
le i
Ġuitgevo erde
Beper kte
ĠBe iden
Ġdaar mee
Ġskelet metastasen
oc aliteit
hal f
Ġsup raclav
ĠVoor afgaand
apeut ische
- ,
T omografie
V gl
Ġb aan
Ġmammaca Indicatie
Ġsneldiagnostiek Via
205 06
zicht baar
ĠLater ocraniaal
h oudende
ij den
Ġboven veld
ou dt
Ġf orma
ut ine
Ġher nieuwde
Ġbest raald
Ġstart en
mult i
p atroon
RA AG
oe valsbevinding
Ġvacuum biopten
Ġvisu alis
ar iectomie
Ġn ek
ro se
Ġuitstral end
Ver dikte
ĠS atelliet
Ġweefsel Achtergrondaankleuring
19 85
val ueerd
Ġbre idt
Hier op
Ġ214 06
Ġvit ale
l ymf
slag en
ik e
Ġrecept or
Ġintralum inale
99 5
Ġab usievelijk
Ġb orderline
ĠM ediale
ur ale
ĠZ onder
ob ulair
Ġgesp annen
P rimair
R uim
Ġafge grensde
l ander
ma mmografisch
et ime
ĠJ uni
Uit leg
Post menopauzaal
ĠLeeg zuigen
ĠDiff usie
ĠRepresent atieve
Ġgecon cent
ĠgeÃ« valueerd
Ġbehor end
et ab
D rainage
ĠH omogeen
he m
Ġhyp erp
h ele
ol utie
ĠG raad
Ġrest hematoom
ente gen
Ġzw art
hoe wel
ĠL ine
Ġafw achten
P rogressie
Ġb ra
Ġuterus extirpatie
Ġluid t
I DE
Ġn anocolloid
Ġw s
Ver di
Ġaxilla ris
ĠVer zoek
Ġad dendum
Ġbdz Indicatie
Ġepider mis
ĠZ eker
hand eld
Ġevalu eren
ma mmillair
ge m
Ġster eot
Ġrest laesie
Ġverm elden
ov ale
een de
Ġ19 87
ĠPre menopauzaal
r in
Ġgeacc entu
i lig
in ele
ir eren
ĠVer m
Ġcon cordant
15 4
Ġbot scan
ĠRot terdam
B ol
oek ema
Ġbiopt Verslag
Ġmult icyste
Ġ19 83
18 9
Ġdiep ere
Ġalle s
Ġfijn nodulaire
men ging
Ġnecro sen
Ġgegeven st
Ġschijf vormige
Ġmammap ol
A b
I C
in dien
Ġw oensdag
Ġsc apula
etab ulum
um er
Ġhal ve
c rani
Ġtumor recidief
Ġproble em
ĠNij me
Ġr ontgen
ul der
Ġdiff erent
ĠHoe wel
L ichte
L eeg
i Geboortedatum
Ġp opcorn
Mamma ca
biop teren
Ġkl oeke
Ġgeoridn teerde
nt gen
ĠM CA
Ġexcisie s
Ġcyste wand
Ġoksel regio
Ġplek ken
ĠG aat
ĠP alp
wijk end
Ġbre ed
Ġsatelliethaard je
Ġc er
cleros eerd
O edeem
Ġk ruis
ĠD ynacad
yper metab
u inaal
or r
Ġgro eit
ĠZ us
Op merking
Ġchirurg isch
f lank
Ġma g
Ġlig am
Ġdigit ale
Ġlong haarden
Lymfklier en
Ġluc entie
c aal
Ġver zonden
Ġtepel zijde
ĠR el
Ġscho tjes
ĠGel derse
chem otherapie
197 9
ĠTechn etium
b ruin
Ġvoor t
Ġ13 1
Ġeenvou dig
Ġ ide
Ġop en
Ver richt
op a
Ġf ot
Ġmammografie Via
Ġdors ocraniaal
Ġsneldiagnostiek Second
Ġresponse valuatie
Ġepitheel cellen
Ġklin ieken
ĠOv ale
Ġspont aan
og ingen
Ġfibro tisch
ĠComp lete
H eeft
er k
ar te
ol ent
mmogra fische
Ġdoor kleurende
19 89
ĠS uper
mult icentrisch
Ġwezen lijk
Ġv ragen
ĠS amen
fibro adenoom
L ichamelijk
S can
ink Geboortedatum
ĠF oekema
Koops Typiste
Ġgepalp eerd
Ġlif e
ignaal intensiteit
f ocale
ĠA pril
Ġal ler
ctiv iteit
f il
Ġ13 3
ĠSp arend
Ġsteat otische
c arc
s atelliet
ĠB E
oÃ¯ de
ĠM inder
Ġk onden
Ġlever de
lan co
Ġgez ocht
ĠKlier en
sec ond
Ġle asie
F ocaliteit
L ymfadenopathie
Ġc arc
Ġc ervicaal
Ġbeeld kwaliteit
M ari
b oog
ĠL CC
Ġne op
Ġspaar zaam
ĠBaar s
Ġaankleuring s
ĠR ich
Ġechogeleid ing
cintigra fie
Ġb i
ar ds
17 9
ĠNijme gen
Ġasp ireren
Ġstandaard protocol
b oc
Ġh uisartsen
Ver hoogde
Echo arme
ĠR ichting
Ġ09 3
ĠSch ne
Ġcircumscrip t
lit axel
Ġwervel cor
ĠOwer s
Ġstrik vormige
n o
or rag
ĠE ch
sch ien
Ġmaligniteit en
Ġzo dat
ĠOver ig
r ig
plaat sen
Ġc ath
op ing
ĠMa as
Ġcrani omediale
Ġgr m
ĠB enadering
Ġloc ally
thes es
Ġweerstand en
ĠCut is
st abie
du ide
resp ons
Ġs inus
Ġder male
rag mente
Ġcons olid
Ġcel carcinoom
un stige
ĠO M
Ġpath oloog
Ġgeor gan
Ġsc ore
Ġdik kere
ĠSep tember
A B
n d
v aardig
Ġaan merking
lob ulair
Ġschildklier carcinoom
p oort
Ġ Radioloog
Ġ2 Â½
ur aties
Ġafwijkingen Mammografie
Ġafge tekend
Ġ09 7
Ġpersist eren
vergelijk end
Axillae Ipsilaterale
Ġgecomprim eerd
Leeg zuigen
p ret
Ġl esion
ĠJ ON
Ġcomp acte
Ġasc endens
p athologische
ĠD uitsland
ĠVoor stel
aort aal
m l
Ġf ol
ĠChe m
A P
ar chitectuurverstoring
Ġmelk gan
d rukt
Ġg ing
ĠT ype
ĠK roon
ĠW anneer
G rillig
Ġp al
Ġmammografie dn
ĠV age
Ġhuid calcificatie
ĠR esectie
19 90
Ġchemotherapie VG
Ġ214 00
Segm entele
Ġdef initieve
ĠSuper vis
l ina
ĠM icro
Ġpro st
pervlakk ige
twee de
fibro se
ĠB everwijk
ĠL a
Ġcon cre
Ġmonom orf
oer den
ĠD ie
Ġtepel gebied
Ġonder ling
ĠV VR
Ġverlop ende
Ġbla uwe
Ġmicron odulaire
hyp erplasie
w at
Ġp neum
Ġlymfang itis
Ġmacroscop isch
ik liniek
verkalk ing
e iland
Ġ Contrastopname
it ie
ĠIn itieel
em ie
Ġ13 0
Sub totaal
ĠUitgebreid heid
ĠBeper kte
Ġop timale
Ġj r
Ġbehand elde
Ġpr in
Ġven e
ĠSub cutaan
S IE
Ġver heven
p atient
Ġtechniek verschil
Ġgeis oleerde
s is
Ġb ul
Ġbev onden
Ġ12 7
ĠJ anuari
Ġrest klier
CL C
k ens
ne ek
Ġcluster vorming
vaardig d
at ten
Ġo cht
oe st
Conclusie Een
15 8
18 4
Ġpunct iforme
Ġhel dere
ĠAD H
Ġzin vol
Ġhyporeflectie ve
u kje
ĠH istologische
uit strijk
Ġcompressie opnames
loop t
ĠLob ulair
ĠM aar
ss el
ĠP ap
oll er
Ġst op
ĠDec ember
Ġstuk jes
ĠD NA
gev ing
te chn
Ġ( +
Ġgew richt
ĠInf ra
ĠMedi astinaal
sign alen
A namnestisch
her beoordeling
19 39
Post biopsie
Ġspecialist e
Ġbot metastase
ĠSchne iders
r els
Ġca v
23 6
ĠRadi otherapie
Ġeiland jes
ind weefsel
Intra mammair
ĠSnel le
ĠInvasie ve
Ġp ogingen
ĠD C
Ġst ij
be pal
Ġnabij gelegen
eval uatie
Ġproble men
Ġmicro pap
ĠNe u
Ġhaak je
S cintigrafische
d ens
Ġpunctie Via
Ġsp ecifieke
Ġborst wand
Ġpre op
Ġvas o
cip e
Ġstre per
Ġocht end
el an
lin d
ect rum
umma tie
Ġt her
ĠB r
ver de
op timale
Ġwel k
min ima
Ġadnex en
B re
ij s
ĠB eg
Ġonc op
Ġvetlob je
z over
19 95
Ġstru ma
klein er
B evolkingsonderzoek
J aarlijkse
um en
ĠMammografie In
ĠZwartRadioloog I
Screening Mammografie
Ġlop ende
Ov ale
Ġorig inele
Ġred le
Ġpolym orf
F A
st ip
ĠMa cro
Ġtoe dien
IN JECTIE
Ġstro ma
B IOPT
v or
Ġs ummatie
Ġlinker onderkwab
Ġbeweging s
ĠAl rijne
oeder ig
Ġulc eratie
Ġdetecte erbaar
R esponse
u lit
ĠM x
Ġwel licht
ĠMult i
abl atio
er aard
ma Geboortedatum
ro p
Ġuit mond
Ġ09 5
Ġsn Indicatie
Lood korrel
Ġmis lu
Ġafiwjkingen Verslag
Ġneop lasie
Ġc ell
Ġop lever
Ġdiff erentiatie
ĠMult icentrisch
cip lina
Ġprin cipe
Ġ12 8
Ġasp iraat
19 91
iom orfe
Ġzijn de
Ġ13 8
Ġvrij e
ĠB el
ss on
Ġonzeker e
Ġspoel vormige
Ġintracut aan
B ijkom
p unt
bie den
ĠMammografie en
ĠV RAAG
Ġover leden
Ġdat o
Ġopge zocht
ELL ING
Ġgedeform eerde
stek ing
A DC
Ġon juist
ĠS m
ST ELLING
tie le
kun de
Ne o
Ġm een
is ciplina
id isciplina
ĠP ort
22 7
ĠMast opathisch
ĠVRAAG STELLING
Ġis odens
Ġ5 9
lex e
Ġv o
Dr s
ĠHe matoom
v elden
ĠT ussentijds
ĠH uisarts
oe den
ĠL e
19 93
ĠVerdi kking
Ġretro sternale
Ġdrain eren
Ġgeaccentu eerde
Ġmet ingen
Ġ21 01
Ġont last
Voor ts
man s
Ġmilli metrische
Ġges cleroseerd
caud ale
vet necrose
ĠVaat calcificaties
Ġmenopauz ale
di tie
ang uin
Ġhem orrag
Ġz u
Ġsp re
tra umat
Ġvaatstru ctuur
Ġver laagde
ib el
Ġac etabulum
M eest
r ine
Ġpro cess
Ġgroep ering
Ġl in
ar ina
eer stra
Ġmammografie Status
Ġhuid kalk
Ġhuid sparende
Ġduct ulus
Ġsegment aal
Ġsept aties
Ġvar id
ĠL astig
Ġafzonder lijk
Ġro mmel
Ġaanzien lijke
ĠLitteken weefsel
ge geven
ent er
Ġgro e
post radiatie
C ath
st art
Ġm ijn
oc i
ter end
ar yn
le sie
ron ingen
Ġ13 5
Ġdifferent ieren
m ei
ĠDCIS Indicatie
neem t
Be houdens
ĠÂ ¿
Ġgroen ig
Di entengevolge
ĠNS SA
A sp
Op pervlakkig
man n
Ġver ge
fic ieel
Ġpapillomat osis
infiltr atie
el ft
wijz en
Ġ8 5
ĠHier naast
Ġbeg onnen
Ġgebl eken
anguin olent
i ver
Ġklier kwabje
ĠGe ma
pret eerd
ing vormige
Ġmassa werking
Ġst eken
Ġcer eb
S lanke
l ymfeklier
Ġver ru
Ġt umark
Ġtumor bed
Ġbeh oort
Ġ09 4
Ġweg biopteren
Ġperi ode
Ã¯n jectie
Ġgedeeltelijk e
itumor aal
Besnard Typist
Ġdub bele
Ġtran sson
Ġtrip pel
Ġstapel ende
ĠOwers Nucleaire
Ġwaar over
stan t
Ġb indweefsel
oe i
ĠMa stectomie
stru cturen
DC D
Ġperif erie
Ġgerust stelling
ĠS impele
ĠI k
Ġmult idisciplina
Ġtoen eemt
ĠSp arende
itt end
Ġthor acale
N O
S te
u un
v raag
Ġl ag
Ġz at
ĠAan kleurend
Ġvast leggen
Ġstug ger
ĠEind hoven
k ent
Ġw rat
Ġca va
be handeling
Ġhemat omen
Ġdeel name
Ġ---------------- --
Ġafgel open
Ġgeres ec
fil tre
M art
M oeder
O DCD
u ini
Ġw hole
ĠB Q
Ġbeiderzijds X
Aan kleurend
17 3
Mult icentrisch
Ġ204 03
Gegroep eerd
Ġbla uw
Ġuitmond end
Ġ5 1
Ġhoog st
lass ificeerd
ĠMast itis
ards on
Ġa dv
Ġver l
Ġab cessen
Ġaanvull ingen
ĠSN B
ĠTumor positief
E chografische
es preking
ap lasie
Ġinf iltraat
ax ol
mer s
Ġcaud omediale
Ġbuiten foto
ijk en
ur k
Ġer in
Ġinfiltr erende
Ġgedi strib
Ġmon it
S potcompressie
S ignaalintensiteit
ĠR ade
Ġged urende
Ġ214 09
204 03
An n
Ġul cus
Ġdubbel zijdig
Ġoesophag us
P artiele
Ġboven zijde
Ġ6 4
ĠHB C
Ġbe w
Ġ6 7
ĠVer grotings
Ã© Ã©n
ĠRich ardson
Ġh ili
Ġ9 2
Ġcaud ocentraal
Ġlok atie
Ġ19 80
s olide
ĠM ei
Ġlinker long
ĠPer sisterende
b etro
e ase
ĠG r
Ġboven op
Ġ4 7
Ġdors ocaudaal
Ġger e
Ġspic ulatie
Ġhaak vormige
: :
Ġs h
Ġmamma reconstructie
ĠP osterieur
Conclusie s
Ġmarker tje
Ġrechter onderkwab
Ġsubcut us
Ġtwistmarker s
pl ateau
linder vormige
Ġgenmutatie Indicatie
ema ra
Vier tal
Ġontwik keld
Ġoliecyst jes
ĠRade maker
Ġom liggend
gevoeg d
Abl atie
L i
Na ast
Ġgroen e
gra m
ĠRe actieve
Ġ12 4
ĠOp names
lop e
18 8
17 7
Ġin kle
ĠL eiden
On danks
Ġ12 6
Ġaccesso ir
b irads
Ġop nemende
Ġf usie
Ġhar der
Ġlum b
m f
Ġklier stations
Ġpunctie Verslag
ĠW arm
ĉĉ ĉĉ
Ġretro areolaire
Ġomvang stoename
Ġvast gelegd
Uit vo
RT Indicatie
Ġstrik marker
pan el
HB OC
Ġgeploo id
mmet astase
Ġbl eken
ynaec omastie
fecte erde
m Tc
on k
Ġver kleur
Ġt rastuzumab
Ġw arm
Ġonder quadrant
Ġover al
Ġhuid afwijkingen
ch us
Ġop hel
Ġboven been
ther mie
Ġgeorgan iseerd
ch an
Ġs lope
Ġeen zijdig
Ġ19 82
Ġvro uw
Ġfraa i
Ġboven dien
Ġher sen
Ġverm eende
Ġdis ease
ĠEv entuele
T ussentijds
r ende
y clus
Ġp alpab
Ġge gaan
cin oom
ĠR t
Ġcomp at
Ġhe ilig
esp iegel
Ġ313 4
Pre operatief
ĠBos man
Ġbloe dig
Ġmark eert
aryn x
e ide
ge sproken
Ġaf hankelijk
Ġfib re
ĠHel der
2 25
Ġs arc
ĠM idden
wel ke
16 4
wer kt
Cor relatie
s amen
di ff
Ġw enst
Ġdegeneratie f
ĠKen nelijk
Ġer omheen
Ġ13 7
Ġbed ragen
Al kmaar
Ġgal act
Ġgranul oom
Me ander
k oepel
Ġge zegd
on ne
on leesbaar
Ġre Ã¯njectie
Ġt argetecho
ĠK o
os espiegel
ĠV olledige
Ġradi al
19 9
Ġ214 04
luc osespiegel
Ne venbevinding
Gelob de
Ġ% /
ĠNS CLC
Ġdoorge ademde
ĠH al
Ġhuid markering
ĠR ode
Ġovar ia
Ġl etrozol
Ġtumor haarden
Intra mammaire
i al
ĠT il
Ġwaar om
22 6
ĠNO ODCD
Ġecho beeld
ĠRe ster
Ġimmuno histochem
G RM
g ressie
Ġar imidex
Ġher kent
R isico
a Geboortedatum
v raagstelling
or d
Ġmamma biopt
ĠO ktober
ul st
Ġbiop te
Ġmammae Na
oo ij
ĠUit loper
Ġnaald je
Gro ep
Ġskelet ale
Ġscintigra fie
ro eg
eng de
16 6
Ġoverloop klier
Ġechoreflectie s
m oeder
Ġvoor bereiding
Ġsub pleurale
! )
D iep
h omogeen
k n
Ġaan een
Ġpectoraal spier
ĠGezamen lijke
Ġmultidisciplina ir
ĠAm putatie
ĠKn obbel
ĠAchter laten
ĠGezamen lijk
* *
W I
et ra
Ġg ast
Ġom bouw
Ġrichtingen Ter
ĠConclusie Scintigrafische
Ġap icaal
ynam ische
ĠRijn state
Vraagstellingin spuiten
bul king
de m
Ġ8 9
Ġad ditioneel
w an
ro f
ĠN agenoeg
lo os
GE LE
Ġklass iek
k raakbeen
Ġlymf os
Ġvoor stel
Ġj ug
Ġdit zelfde
23 8
ĠBl ijft
it aal
cont ral
R onde
c ulair
Ġlymfeklier stations
ĠV eld
ĠMamma reductie
Ġhyper intens
Sentinel node
ul en
Ġter echt
Ġhuid biopt
Ġsp ieren
ĠConclusie Een
ĠSt atisch
Ġser omen
Retro mamillaire
ĠDonswijk Nucleaire
Ġpluk jes
Snel le
Ġgoud marker
Ġgeob serv
afrag ma
G S
b i
ip oom
ĠSp iraal
S SA
Ġp orta
Ġboven staande
Ġer bij
pass end
Ġdarm lis
Ġpalpato ire
Ġ Ã©Ã©n
ĠV asculaire
Ġcaud olaterale
Ġi mm
Ġgerev iseerde
ar di
Ġgel aten
waar voor
neg atief
ar de
ĠG roningen
icentr ische
ĠRetro mammair
domet ri
F ors
S H
k ende
Ġo lig
on verdachte
Ġk opie
Ġg lucosespiegel
ĠD ynamiek
ĠH aga
ĠR X
Ġ13 4
Ġtoen emen
Ġverw acht
Ġgein volueerde
Intra pulmonaal
Line air
Ġcav um
Ġsp ecifiek
SO PNAM
Ġt ip
ĠRe ductie
Ġhyperp lastische
J eroen
T h
b a
ĠO ude
ĠW al
Ġcorrel aat
Ġprocess us
Ġ org
Ġc la
ĠA namnestisch
Ġst ekende
Segm entectomie
T NM
ĠE erst
ĠI C
Ġ12 9
Ġrec idiverende
ĠInt ens
Ġdis cus
U iteindelijk
a ara
v t
Ġb oon
Ġa kkoord
ĠB ody
ele ct
ĠS creen
ĠMammografie Positieve
ĠGoed Mamma
Ġrespons meting
gend raagster
An tonius
Prevoo Typist
Ġtal g
j an
Ġge duide
land en
ĠTe gen
Ġbobbel tje
M iddels
ie ze
Ġb uis
ĠB er
Ġged rukt
Ġtussen liggende
gesch at
jodium bron
ĠM orbus
ĠB evolkingsonderzoek
ot omie
Ġwaar omheen
Ġ11 5
16 5
Ġradio actief
VU MC
Ġh ouden
Ġf lu
ond entie
Ġkan t
Ġaange ven
Ġlong laesies
recept or
D an
N ormalisatie
Ġpa c
min us
FU P
Ġ0000 6
Ġheel kunde
Ġwr sch
Ġlif etime
ĠLever metastasen
Ġvisualis eerbaar
b lique
23 4
ĠBron ovo
ij e
Ġh oek
Ġint rathor
Ġmed isch
N EU
al hier
ĠD uctectasie
ĠH orm
ĠI mp
Aan tal
ĠVier tal
ĠBeper kt
Ġomring end
Ġstreper ige
ulit is
c er
Ġf iss
ke y
19 37
ĠPre operatief
Ġdoorgroei end
Ġverpleegkun dige
aanvull end
Ġverge ten
t wist
In itieel
Ġdi enen
Ġrechter schildklierkwab
Ġtomosynthese Ter
ĠCT x
Ġpara medi
Ġsneldiagnostiek Revisie
205 05
Int ense
Ġblok vormige
Ġnad at
Ġcent ra
ĠWarm erdam
Ġcompat ibel
m k
ĠIn derdaad
Ġlok alis
18 1
ura vocht
ĠBl oom
M O
Ġt he
Ġnog al
ĠHof poort
de stijds
Ġmet aal
ell er
Ġob ject
ĠPer itumoraal
Ġmammac arcin
Ġbez it
y f
in dt
eter ogene
onderzoek en
retro mamillair
Ġ iom
ch ond
Ġstreep vormig
Ġeffect en
Ġtumordepositie s
filtre erd
D hr
t arget
v olg
ĠB egeleidend
Conclusie Geen
Ġst uwing
Ġafwijkingen X
Ġlymfeklieren Overig
Ġsp leet
ger Typist
Mammografie Ter
Ġpre contrast
17 4
man dib
Ġbelasting Indicatie
Ġlip onecro
kh uizen
Ã¶ ntgen
ĠN eg
Ġvlekk ig
Ġcom ed
umen i
Ġop pervlak
sle chts
stereotact ische
W est
c k
ĠS eroom
19 1
ĠMamma sparende
Ġgland ula
ent um
Ġ6 3
of t
Ġcorrel erend
l ok
z welling
Ġ and
Ġtumor uitbreiding
Ġrib kraakbeen
Ġplan nen
) Â·
P alp
b dz
x N
Ġb olle
ing uini
te iland
ĠB akker
ĠAf wezig
Ġlie ver
Ġval lei
Door verwezen
Ġpro ximaal
ob b
35 8
Ġuitslag en
46 9
Ġulcer erende
oll ing
Ġgem ist
Ġhoofd zakelijk
Ġbeschrij ft
! ).
s uspecte
ĠP L
ru kken
ĠF ebruari
Ġer naast
17 8
Ġvervloe id
Ġre ch
ĠM en
ĠI r
Ġinter na
Ġare olaire
Ġmediaan lijn
f avourable
Ġh uidexcisie
Ġla stige
Mamma tumor
extremiteit Klinische
27 8
Ġtamoxifen Indicatie
ĠOnt st
ĠEl khuizen
ĠHyp o
ĠVerm ulst
f ig
Ġst ation
Ġinf er
Ġch olec
Ġlaag ste
Ġovarium ca
b o
s eroom
st ad
deel d
tre em
Ġder gelijke
Ġconfig uraties
ĠHaag landen
Ġmicroscop ie
v iteit
v ies
de erd
ĠB etro
ĠPost op
ĠNieuwe gein
Ġa ort
Ġt oek
ĠD un
Ġvoor komen
ĠN EU
Ġlip omateuze
Ġinfectie us
Ġtoek om
in middels
it a
Ġs ugger
Ġaan geleverd
ĠT N
omp lic
Ġ14 0
ĠSt art
naald biopten
Ġmeen emen
Ma x
han ging
ber gen
Mamma e
ĠLangeRadioloog S
ĠECHO GELE
ĠPer ifocaal
ĠAr n
Naald biopsie
Ġneur inoom
Ġwervelcor pus
du i
Am stel
18 2
hy re
ĠPro cedure
+ .
Ġm erende
di agnose
kor rels
Ġstern oc
Ġven euze
umer us
v entraal
Ġbetro ffen
weg ens
Ġplaveiselepitheel cellen
Ġbiops ien
I L
Ġt aal
Ver zoek
Ġoppervlakkig er
Ġplus minus
Segm entexcisie
P urmerend
Ġe ct
Ġher beoordeelbaar
gele verde
Ġlos liggend
Mar ge
D ors
p te
al der
Ġa k
Ġon volledig
Ġvoor liggend
Ġcm Indicatie
we inig
ich el
Ġgegevens Status
09 00
ust rof
Ġweg ge
bre ast
Ġhals regio
procedure el
Ġhepat is
Ġcentr ische
Ġbiopte ur
ro geen
ĠM eppel
ĠD d
se qu
Ġecho geen
ĠV raag
Ġretro spectie
25 8
Ġdoorgema akt
Ġgef ragmente
at eerde
ste mming
Ġan amnestisch
15 7
ĠM I
Ġdi afragma
ff ic
and en
od ensiteit
Ġlang dur
pre paraat
45 6
Gel re
v at
Ġ ij
ĠT jongerschans
im us
ow n
19 2
Ġlever metastase
Ġverdeel de
Ġcontinu eren
Ġinkle mming
R outine
v ari
ĠM aart
ĠB ern
ĠG ha
Ġg laas
ist ologie
19 92
lip se
Ġdat eert
ĠVoor bereiding
Ġreconstructie Indicatie
Mult i
Ġing uinaal
Ġbuik organen
Ġmelan oo
Ġulcer erend
Caud olateraal
ĠAdjuvan t
Ġile um
Ġgeobserv eerde
Ġtumor schaduw
f oort
Ġv ag
ĠF ors
Ġverb etering
Ġcoreb iopt
h omogene
or a
Ġlater ocraniale
Ġgel oc
eng elo
ĠDaar in
Ġgec lassificeerd
Ġgebe id
Ġ4 9
19 0
Sn ijvlak
Ġophel dering
Ġl ym
Ġop valt
ĠZ H
art iÃ«le
23 5
Ġtri al
r y
Ġw aterland
Ġmamma Mammografie
Ġmammacarcinoom Indicatie
Ġper itone
Ġpijnlijk heid
Ge adviseerd
75 4
ac ob
Ġgb Indicatie
Ġerv aren
Ġintracut ane
Vet tige
ĠGha zi
F levo
Ġv orderende
Ġuit b
Ġinf o
19 3
Ġsinds dien
Ġinfiltr atief
ple uraal
Ġmeege geven
ĠVerander ingen
Ġflink e
Ġliponecro sis
or adi
ĠW eert
Ġ13 6
Ġlood korrels
twee maal
Ġsepta e
- /
g s
Ġge test
Ġonder huid
ĠR isico
Ġsch atting
09 2
kom t
H ER
met aplasie
Ġpa rac
ĠPA P
Ġontst aat
16 9
Ġdicht st
Ġresectievlak ken
h eeft
n etje
Ġen dometri
Ġintens er
Ġro ze
ĠBoven IJ
Ġintrapulm onaal
F R
R et
Ġa v
Ġin form
Ġh aal
ĠD ors
ĠMammografie Zie
Ġgep re
Ġcon sent
sen teerd
Ġthorax opnamen
Ġwij st
Ġ08 9
29 7
Ã¯n volueerd
ekk ige
Ġkapsel vorming
Ġ0000 4
Ġherceptin Indicatie
Ġpus s
Ġrij tje
ĠDijk lander
Ġln n
el yst
ĠGro epje
Ġreg ulier
elyst ad
te vens
li fic
Ġk op
ur s
Ġmamma ire
Ġr ijk
Ġmedi ocaudale
ĠIn ge
ĠZw olle
ertens ie
rans vers
laag d
L M
Ġv e
Ġm omenteel
il le
Ġto ilet
za aid
di d
Ġon leesbaar
Ġu teri
Ġhoog ste
Ġing el
45 5
NB C
Ġcumul atief
N AC
Ġ2 200
Ġk g
ver kleining
ĠS neek
Ġcentraal boven
Ġster eotax
Ġov al
Am phia
Ġmis schien
rup pel
et racht
Ġvan middag
Ġt rekkend
Ġw acht
Ġonder laag
Vraagstelling cT
Ġretro sternaal
kor t
Ġlob ectomie
Ġechoarm er
Ġhoofd halsgebied
Ġschildklier kwab
Ġunf avorable
Tumor massa
ĠAd ditionele
Medi ocraniaal
Ġrechterboven kwadrant
di a
M icro
Ġma len
ĠC H
19 8
Ġdors omediaal
Ġcontrole foto
Ġprotocol lair
77 7
olst oel
Ġlinks zijdig
ĠT D
ru ikt
Ġaange duid
Ġverm elde
Af stand
Ġhyper thermie
iep ectomie
Ġrommel ig
r atie
Ġb oll
ct ale
ĠT H
ĠS WK
Ġgele gd
Ġpre menopauzaal
ar tefacten
ĠT enslotte
ub bel
ĠInf iltr
Ġstral en
Ġobject iver
2 200
T wist
f out
ĠK u
Ġtumor aal
ĠDaar op
vent ionele
itumor ale
aps ulair
Techn etium
Med ische
ĠHui zing
bepal ing
Ġmonit oring
Ġinform ed
ra umeni
Ġc l
ĠV ast
Ġ13 2
Ġsegment en
27 1
Ġet c
Amstel veen
Ġd rog
Ġuit zonder
Ġhyp erv
ĠBeeld vorming
all ing
arakter istieken
Ġsnij rand
oo it
che aal
Ġ ran
od orsale
Ġtijd stip
stan dig
G T
p ijnlijke
Ġ :-
ĠB lanco
ok ter
Ġrecidief tumor
Ġvolg de
36 7
Cervix uitstrijk
Ġgeresec eerd
v onne
ver spreid
ot her
rij ver
ĠBruiningRadioloog S
Ġlip o
Ġ314 7
Pre pectoraal
Ġsteat osis
Ġpalpato ir
Ev idente
elan oom
Ġcla ustrof
Ġgepre senteerd
) ).
at ose
ĠM ijns
ĠB uiten
Ġgen e
mb olie
m eld
Ġpro fiel
ĠF EC
AM C
ĠVan af
Ġstern aal
Comp lete
Ġforma line
f a
st ellen
van wege
12 2
ĠGer ichte
elect ase
Ġbe etje
om et
Ġgoed deels
45 7
cler ose
yt aire
33 3
ĠTe zamen
Ġgranul omateuze
ĠCrani omediaal
Ġschil f
u te
Ġbiopsie plaats
ĠMarker s
Ġb an
Ġlinker thoraxwand
ĠR BK
Ġpost radiotherapie
Ġanal oge
ĠTeertstraRadioloog C
Ġtomogra fisch
Ġoksellymfklier en
ĠBe handeling
Ġser os
Ġmidden boven
Ġbij menging
ima mil
ad vies
Ġachter ste
Ġmetap lastisch
Ġimp ressie
36 9
A D
ma te
ĠVoor af
Ġtepelhof rand
ĠGes laagde
q uis
s Additionele
Ġre Ã«
Ġd ruppel
In lichtingen
ĠA IOS
Vraagstelling nu
Ġoperatie s
Ġ08 8
Ġlood markeringen
24 7
28 7
ilicon en
48 2
Achter laten
ĠMe ijer
eth oudende
Ġgec alc
Ġdoor loopt
44 7
I G
M X
i oom
z w
ĠB leek
Ġ9 1
Ġsch uil
Ġgroot cellig
lop ende
ĠVro eg
z one
ĠB ELL
ati viteit
ob lique
Ġsignific ante
Ġchemok uren
ĠBELL IN
I K
M on
Ġlever cysten
Ġkarakter iseren
Ġbenader en
Ġzu igen
Ġs creendetected
Ġcm Bekende
art s
eb er
ĠBe zoek
Ġmacro verkalkingen
Ġkuren Verslag
Ġ313 3
Ġbo teiland
Ġafgekapsel d
Ġboon vormige
s er
ĠRe constructie
ĠJan sd
mmun ic
ĠK w
Ġ19 81
cel arm
b ec
ĠR os
Ġsub mandib
Ġsamen werking
Ġdaarom heen
Ġaccesso ire
Ġaansluit ende
ĠRet our
Ġimm uun
6 00
f re
al er
Ġw ig
ĠP rimair
Ġpost ther
ĠJ aarlijks
stan dige
Ġgewijzig de
Ġeiwit rijk
Tepel vocht
W egens
f ocaal
der ig
Ġd okter
ĠO P
Mamma biopten
Ġlaag je
25 6
C ar
p ar
s o
Ġ1 Â½
Ġn vt
ĠL eiderdorp
Ġmammae Ter
19 38
ev ental
ĠRE INJECTIE
Ġcontrol eren
Pameijer Typiste
Ġopgev angen
Ġheuvel tje
c v
m c
se ud
ĠZ ijn
ĠJansd al
! .
S ep
d ent
h aald
Ġeen derde
ĠH P
aan wijzingen
tocol lair
Ġmid lijn
Ġstereot actie
stabie l
chond rale
imamil lair
Ġde bulking
ĠS potcompressie
ĠC entrale
Ġdoor zaaid
ĠV alle
dure erd
Ġth ym
ĠNo vember
Ġbra chi
Ġcomed onecrose
ĠValle i
Ġventro mediaal
Ġen t
ĠD us
Ġpunctie traject
On zeker
im ing
Ġgegro eide
86 6
Ġvaster e
% /
D uctectasie
D ystrofe
N odulaire
Y vonne
Ġv oller
or iteit
ar inaal
Ġre vis
Ġbe zoek
Ġz n
Ġf emara
Ġ3 Â½
Vraagstelling Met
ik kel
Ġverslag geving
ĠCT Indicatie
min i
ĠBe ek
Ġbeschik bare
bre king
Ġ313 8
Ġinit idle
ĠRadi caal
ĠBeoor deelbaar
Ġaansluit ing
sleutel beelden
Uitvo ering
re erde
Ġe ditie
ĠC arcinoom
ĠV ie
Ġ6 8
Ġvervolg d
ĠRel atief
A R
ie d
Ġ12 0
Ġun i
Ġbloed verlies
FT ER
ogra m
ĠG endraagster
pel le
ab ij
23 3
L ucas
ĠP artiele
ĠV ocht
Ġverm oeden
87 6
Ġanter olateraal
Ġsystem isch
T C
Ġt raag
ĠF ijne
En kel
Ġsuper ficieel
Ple uravocht
P lan
V orm
ĠE ven
ĠA typ
ĠK ok
Ġpunctie Palpabele
Ġhier onder
Ġretro claviculair
Ġbijzonderheden Conclusie
Ġex tremiteit
Ġple it
vl ekkige
Ġ314 3
Ġrester en
Ġplooi ing
ĠGering Bekende
Ġperf us
Ġlidoca ine
Ġt re
Ġmet een
11 0
Ġcon sequ
Ġing ele
35 5
ĠAsp ecifieke
Ġlater ocaudale
Ġonder linge
Ġal lereerst
Ġcaud oventraal
ate d
Ġpneum on
ĠVoor al
36 5
Ġoss aal
Ġproliferatie s
V T
t oe
Ġal tern
ik king
Ġgra den
conclusie ve
Ġon waarschijnlijk
Ġdors ocentraal
bl oeding
Ġsuper o
G en
G ec
d cis
l ater
Ġver vangen
Ġaf loop
Ġvergelijk ende
eld rop
Ġecho Verslag
ab ool
Ġ18 6
ĠZwartRadioloog S
lop ige
kken heid
gel uk
ĠPost biopsie
38 4
204 01
Retro areolair
Pre pectorale
Ġdruk gevoelig
Ġvroeg ere
ĠY az
ĠDifferentiaal diagnostisch
ĠYaz di
Ġc oe
ok t
sch aduwen
Ġlon ge
ĠAb ces
Ġmislu kt
ĠPL US
z ou
Ġk er
Ġboven kant
Ġr olstoel
arm ere
ru st
act iv
24 5
Ġimplan t
chan ter
oradi atie
Ġm i
ific eerde
ĠL ig
ĠSter vormige
Ġmamma biopten
ĠP FT
radi aire
Ġhypoecho ische
ĠG esp
mamma poli
ĠC ath
ĠK orte
Ġaanwijz en
99 8
ĠAf genomen
36 6
Ġangio invasie
Ġgedistrib ueerd
r olateraal
Ġm orgen
Ġge sep
Ġt iming
Ġab dominaal
Ġab alt
oud marker
Ġsubstra ctie
Ġvast z
75 5
204 02
PBI Indicatie
He matoom
ĠAntonius hove
Ġdepositie s
ĠBr ink
ĠGema rkeerd
b etreft
ĠD atum
ĠA FTER
ĠSinds dien
Ġgynaec oloog
Ġribfra cturen
l ymfklier
is waar
ĠZ uiver
gel ob
pector alis
35 7
iss imus
Ġuitvo ering
Ġdef ect
j aar
Ġmamma ir
ĠP rimaire
18 0
Ġgepenetre erd
ĠAug ustus
ĠTil burg
ĠG y
ĠZ over
Ġclass ificeren
Sub optimaal
Ġmeege komen
Ġintracyste uze
Ġtalg klier
Ġuitzonder ing
ĠK ra
55 5
H oger
Ġde ukje
ĠT otal
ĠC oop
Ġrechter thoraxwand
Ġ214 03
ĠSch rijver
quis itie
an gr
ic ulair
ab eth
Ġbel angr
45 3
38 8
ot act
Ġca p
Ġken nis
Ġslag schaduwen
55 6
aand am
Ġlonge mbolie
or ad
le b
wijk ende
02 2
Ġein dig
Ġbiopsien aald
Ġdrog beeld
. ;
ĠT horax
Re actieve
97 6
Ġvull ing
Ġmulticyste uze
Ġconcre menten
k st
Ġrond ovale
geto onde
Ġcorresp ondentie
F ijn
P ijnlijk
d r
ing Geboortedatum
Ġt av
Ġz evental
and normale
ĠMammografie Eerste
cy clus
Af wijkend
Ġ214 01
Ġtub oo
Teertstra Typiste
Ġor idn
ĠAxilla e
Ġwezen lijke
ĠEnde Nucleair
Ġbul ging
Ġv ond
Ġeen malige
we gend
Ġstans biopten
Ġgeloc aliseerd
w issel
Ġh umerus
Ġk ie
ĠB ra
arium carcinoom
Ġvari ant
R ijn
Ġd oc
22 8
Ġinge zonden
Ġm ogen
ct aal
ĠL umpectomie
04 1
Ġborst sparende
Ġbest ral
gevo erd
23 1
29 4
Ġro utine
Ġmoei zame
Ġcy lind
Ġar men
ĠR FA
Ġpost traumat
ip s
do ch
Ġbron netje
hel ft
Ġcontrol aterale
ĠAb usievelijk
ĠVerkalk ingen
D ense
V aag
v ariectomie
re pen
Ġp lastische
oog d
Ġlymf ev
oc y
Ġecho ische
ru ijn
Ġan ast
ĠVerslag Echogeleide
dv al
.- >
203 00
hyper intense
vari atie
Ġabalt io
te min
Ġ6 9
22 4
ĠVor ige
Ġcylinder cel
h i
ma rk
Ġv iel
Ġl ike
Ġovereen stemming
ass en
Ġul tra
Ġverru ca
T R
V EN
a sp
Ġ organen
01 1
Ġdaar op
cu um
88 5
Ġarter ia
i pelle
y stectomie
ĠP ast
94 3
ĠBI RAD
PR ES
Ġuitst rekkend
gan kelijk
Ġcollectie s
OM PRES
Ġcylind rische
R esectie
d arm
e ven
Ġde sc
Ġz h
sp iraalvormige
Ġan us
arench yma
oid ose
Ġsatelliet jes
Ġloc ale
Ġips ilateraal
famili air
Ġwit tig
Ġthor ac
Ġopmer kelijk
OMPRES SIE
H ui
un ifocaal
ĠS iv
ĠL af
ĠVer hoogd
Ġrechter prothese
ĠR onde
ke ma
Ġdors i
Ġintens ere
Ġmo q
45 4
216 04
Ġ216 04
Ġ0000 5
Ov aalvormige
ĠfaMRIsc Verslag
Ġgepenetre erde
ĠGec orreleerd
Ġtuboo variectomie
Ġeen dui
Ġ12 3
Ġvert ak
Ġdiver t
Ġcervix carcinoom
f eerd
Ġl eggen
Ġa kt
Ġchem oradiatie
Ġob structie
46 6
Diff erentiaal
Ġ---------------- ---
ma mm
on gewijzigd
Ġfollow up
24 9
Ġring vormig
Ġhyperecho geen
W Z
g sch
der halve
Ġp seud
Ġaf kom
ĠS P
Ġuit eraard
99 3
Ġper idu
Ġlat issimus
Ġsensit ief
Ġran gsch
Ġrevis eren
Ġrangsch ikking
op er
Ġf u
ĠO AC
ok e
dra den
techn etium
contral ateraal
T oen
Z oals
f ormatie
Ġb acter
Ġm it
Ġhuid nodus
Ġgele iding
Ġrest klieren
Ġpalpabel Indicatie
Ġwand standige
94 8
44 2
Int ens
202 04
Ġant ist
Ġmargins Klinische
ĠLang zaam
ĠNab ij
Ġvarid rend
ĠBern hoven
Ġpuss ig
Ġlipo vulling
ĠC el
Ġmicro c
37 6
34 7
ĠVERGROTING SOPNAM
v ast
re sten
Ġs eb
Ġ8 3
Ġinfiltr atieve
T ot
f erentie
m y
la ct
ig ert
Ġbev alling
Ġmicropap illair
M ediale
Ġuit p
ond uidelijk
25 1
28 6
98 3
cleros erende
ĠHP V
N D
P OM
Ġc rib
Ġp t
Ġen do
Ġk ind
ens ch
01 66
Ġmedi catie
Ġkalk sp
Ġ7 3
ang io
Ġhyp odensiteit
Ġlever laesie
duc er
87 7
ĠTumor massa
Ġmama carcinoom
olie cyste
overeenkom end
J uli
K ar
T n
T bris
Ġge dval
Ġd Tbris
ĠL en
ĠK on
Ġdoor ademde
Ġ14 6
ĠRT x
Ġberust te
24 6
Ġloodkorrel tje
ĠPost menopauzale
ĠWittenberg R
ĠgeÃ¯n volueerde
Ġ315 4
rin sen
Ġtransson oriteit
Ġjug ularis
n anocoll
n ov
regel matig
Ġvertak kend
ĠE pitheel
Ġof wel
Ġsub pleuraal
Ġgesugger eerd
Ġoplever t
M F
on gen
ĠD erde
Ġgel dt
Ġhyper emie
D erde
Ġp ub
Ġecho patroon
ĠBe st
22 1
96 0
Ġvloe i
Ġendometrium carcinoom
Ġoverzicht elijke
Ġcosto chondrale
Ġingel icht
Ġlinker schildklierkwab
B alder
g racht
j uni
j odiummarker
z ig
at je
Ġb rief
Ver hoogd
ĠN ie
Ġplaat je
Links zijdig
Mammografie en
Ġrest activiteit
ĠPA SH
Ġborst verkleining
Ġsneldiagnostiek Mammografie
75 6
ĠMammografieMrisc Onveranderd
HT Indicatie
idi um
Lang zaam
Ġdel ay
Ġoverschaduw d
ĠSiv ro
ĠLen ka
D is
ra s
Ġop tie
af el
sub cutaan
a us
ĠP S
08 1
ĠBre ast
Ġcereb ri
L CIS
is sen
Ġk orst
ĠO oster
se ct
ĠGe start
Ġ12 1
Ġ8 8
Ġder mate
Ġbiopsie holte
75 7
48 3
u mm
ĠM S
ss aal
Ġaan staande
201 04
ĠR o
09 1
Ġrest weefsel
ĠDi entengevolge
Ġloc aal
ĠIntra ductaal
ĠLang s
Progressie ve
ĠGesp iculeerd
ĠCath arina
C ut
M o
g oede
Ġv lotte
Conclusie Twee
Ġcm Afmeting
Re gion
ĠK im
ĠMRI Indicatie
vorm end
clu sterde
16 3
Ġlong velden
En dometrium
ĠMammografieMrisc Klinische
ĠBijkom ende
olie cysten
Ġgeconcent reerd
opa ke
Ġantist olling
Ġgedval ueerd
? ,
Ġb v
pro theses
door snede
24 2
36 3
ĠKlein ere
Ġbloedv aat
MB q
Ġcholec ystectomie
t ro
in vasief
ĠM an
ĠP oging
26 4
37 7
85 7
i ing
Ġm eld
Ġw achten
Ġop h
Ġboven pool
Ġar ch
van uit
Ġger aakt
beoor delen
Ġhyp ertensie
Ġcontrole mammogram
Ġvier maal
ĠBes ch
23 0
K n
b os
g n
Ġm olec
01 2
ĠN ormalisatie
ter ieur
12 1
26 8
Ġsuper ior
Ġcrib r
Ġ ..
Ġge Ã¯
Ġver lies
Ġs lot
Ġten gevolge
ex istent
ari Ã«
comp lete
pro be
Ġvlak ke
per s
weging sartefacten
Ġtrans ducer
Ġzij den
Ġcolon carcinoom
Ġaant asting
t z
Ġmamma Klinische
Ġg ang
ĠT om
oe p
Ġmammografie Palpabele
Ġgegevens Via
ĠJ uli
Ġvet infiltratie
Ġmogelijk s
ĠWLE Indicatie
ĠVerslag Per
Ġlokalisatie I
22 9
ĠRetro areolair
ĠNe derland
wit ch
H oe
a h
u ut
ĠH A
naald biopt
Ġelast isch
I CC
re qu
orf ologisch
Ġopge slagen
Ġgefragmente erd
fre ctomie
C ytologisch
d ell
ĠF ocus
Ġgep aard
77 6
ĠEv t
' .
V E
h ard
en dig
Ġaange daan
over gang
Ġradio activiteit
Ġbuiten ste
Ġdo chter
Ġgeprononc eerd
Ġconsolid atie
Ġc q
Ġg unstige
Uit breiding
loc alisatie
Ġkort ste
Ġword ende
Ġaant onen
omplic eerde
C orrectie
F avorable
J oke
z elf
Ġlinks X
Ġlymf ocele
ĠGeen Additionele
we st
19 36
Aan vankelijk
Ġov oÃ¯de
clu deerd
over leg
entie ke
gevoeg de
Ġtoegedi ende
screening X
Hier door
ĠPre pectoraal
per i
Ġdruk verband
203 03
203 04
ĠBraak Typiste
Ġbovenbuik structuren
Ġmeege meten
Mast opathisch
i que
et ta
Ġin lichtingen
Ġf ractie
ster k
ĠK ruis
ĠW eer
Ġretro aureolair
98 0
spot en
Ġclip je
Ġmelk gang
Ġoorspron kelijk
t y
Ġper imamillair
ex tern
37 4
Ġmelk achtig
D oppler
Ġbe wijzen
Ġk ijken
boven kwadrant
est rogeen
Ġscler otisch
Ġopge zogen
Ġligam enten
Ġf requ
ĠV ol
Ġrechter nier
25 4
98 7
obb els
le eg
15 9
stru eerd
ĠBo x
Ġgenmutatie draagster
ĠOnduidelijk e
Ġlabor ant
Ġsyn thet
S einstra
ol itair
Ver s
01 0
ver se
Ġlymf oide
201 02
Ġonder buik
Ġmammae Via
Ġover ig
Ġinformatie Echografie
racht en
cu te
Hier voor
Ġ214 02
96 3
95 6
ĠOksel klier
Ġse ss
Ġvervolg onderzoek
ĠWessels Dr
ĠAsp iratie
ĠVor ig
res idu
Ġpac litaxel
Ġhaal baar
rinsen gracht
ot en
Ġr ichel
09 0
Ġrand vormige
stan s
Ġmastitis beeld
ĠTechn isch
c li
k rijk
07 2
Ġir radicaliteit
oide us
ĠTw ijfel
Ġbez ig
a o
p rint
Ġat rofie
Ġvan daar
as cularisatie
Ġlijk end
88 7
Ġwit te
Ġvolst aan
A ug
B innen
N oord
Ġv all
op pervlakkig
Ġvoor lopig
Ġdaar entegen
Ġsamen gesteld
95 7
77 8
Vergelijk baar
Ġdubbel tumor
Ab usievelijk
Ġon geluk
Ġg lucose
if eer
ĠP OP
ĠGeen AxillaeIpsilaterale
and a
Conclusie Beeld
Ġ+ +
ĠInt ense
ĠLoveren Geautoriseerd
Ġfijn vlekkige
spun t
26 3
Ġanamnese Indicatie
39 0
Pro minent
Sp ecimen
Ġverwijder de
202 03
Ġmamm ca
ĠLD CT
Ġga mma
ĠArn hem
Ġm ut
li ch
23 9
29 3
29 5
Ġinge zet
ĠToen emende
Ġsignific ant
minima al
) "
Ġs ur
Ġbij gekomen
ĠW oerden
Ġsusp ectie
ĠV a
Ġspier weefsel
Ġtro chanter
Ġregulier e
p unct
Ġwor k
Ġsp uiten
94 7
c ir
ĠA sc
ĠS D
17 2
Ge metastaseerd
regel matige
85 8
Ġvas culair
ĠBl oederige
Ġvo eren
Ġgalact ocele
f lu
Ġs pel
ĠT NBC
Ġ+ .
tre kken
Ġrand zone
waar den
38 3
Ġtechnetium injectie
Ġprec ieze
ĠProgressie ve
ĠImp on
. *
J o
S int
h boc
ĠT pv
In gr
Conclusie Verdenking
Ġr Ã¶ntgen
as cularis
ĠGe mini
Ġafwijkingen Indicatie
ĠV os
Ġlever cyste
Ġ08 6
Ġ08 7
Ġprotocol Indicatie
Ġmeet variatie
26 7
Ġ314 5
jectiv eerd
oest ische
ĠPap illoom
ĠLaf eber
Ġpub is
ĠVerslagPer itumorale
Ġvall end
Ingr id
ra k
ĠC ur
ĠPol iepectomie
Ġap art
Ġgein fecteerde
26 9
Ġvooraf gaande
ha ak
Ġbedo elde
D ia
r ic
ĠL ast
Ġ+ ,
Ġander half
Ġvaat je
Ġgedeel ten
38 6
ĠRetro mamillaire
Segm ent
orp tie
Ġmerende el
le id
ĠP rogressief
Ġf lap
ru ctie
Ġhier tussen
comp lex
Ġlever koepel
Ġacc eptabele
mers foort
Ġconsequ enties
Ġdesc endens
en e
el ateerde
ee xcisie
ĠH eel
Ġbeoor d
Daar bij
85 4
Ġtub a
49 3
Ġreden en
H oorn
ificatie s
ik els
uper viseerd
Ġ08 5
Ġlaat st
28 4
Ġdicht bij
Ġres olutie
sentinel node
I UM
st it
Ġre del
Vraagstelling screening
Ġgev ascularis
ĠGRM Indicatie
Ġ214 11
Ġgevisu aliseerde
cintigra fisch
Ġ313 5
Ġeerst genoemde
Ġprominent ere
ind a
ĠTumor soort
ĠSoykan P
Ġoverschaduw de
Crani omediaal
Hyp o
Ġverd oven
eeuw storm
Ġak oestische
ĠREINJECTIE Onderzoeksgegevens
Ġs lijmvlies
Ġweefsel kwabje
ex p
Ġgein jecteerd
colle ga
87 9
66 7
re actief
37 9
Ġperic ar
Ġopgev ulde
Ġban ale
v end
Ġklier eiland
be houdens
Ġap ex
Ġgew one
98 9
de s
Ġh ev
Ġt ante
op y
baar heid
ĠH oudt
08 0
Ġintra musc
waar bij
Sp arende
Ġmama m
Ġcomprim eerbaar
D ec
W erd
i ent
t wistmarker
Ġo oit
Ġb ran
Ġa di
Ġver re
Ġt enslotte
ste ek
deel te
ĠZ uid
omat osis
Ġversch u
75 3
ĠPro minent
OR D
Ġribben boog
Ġevalu eerbaar
Ġafgekapsel de
E RA
J an
K Z
b on
p atiÃ«nt
de pot
ĠB roek
Ġmamma gram
ĠD WI
Ġklier dissectie
ĠMa xima
ĠS agittaal
): Â·
Vraagstelling svp
ĠJ ap
Ġom entum
Ġablatio Indicatie
Ġ07 4
Ġverw achte
27 3
29 6
Ġ314 4
203 01
Ġperic lav
Ġ315 3
ĠST atus
verbre de
ĠvacuÃ¼m biopten
Ġphyllode s
ĠfaMRIsc Mammografie
Later ocraniaal
Ġred xcisie
Ġontwikkel ende
Ġmelanoo mmetastase
M v
der en
Ġver vorm
ĠC la
Ġsp ec
Ġ8 2
Ġoverloop klieren
Ġmes enter
Mv A
Ġ isch
em d
Ġmee geleverd
Ġap arte
24 3
ĠEv ident
Ġsecund air
D CA
p ijnlijk
u zer
et isch
Ġp ot
ol sel
ĠA mersfoort
Ġ7 2
Ġex treem
36 4
Ġident ific
Sub cutane
Ġgerust gesteld
ĠWas h
c ur
Ġverw ar
Ġkn ie
Ġmammap rint
oei zame
Ġdarmlis sen
Ġpostther apeutische
Ġakt iviteit
Ġafkom stig
h orst
in odulaire
ĠL elystad
Ġst oring
Ġecho vrij
On t
Ġbevin d
28 8
96 7
Ġdis seminatie
Ġbrachi alis
. Â·
A pril
C ysten
K en
S pot
V ethoudende
n aar
s ignaal
Ġt ons
ĠM ulder
Ġf ront
Conclusie FDG
ĠS creendetected
ĠC ytologisch
ĠGe Ã¯nvolueerd
Ġmammae Verslag
Ġgoed Indicatie
get jes
Ġcortex breedte
ĠDollRadioloog S
Ġbel ang
Ġgrens normale
ump ed
me et
ĠCHT Indicatie
Uitgang s
Ġang stig
Mast opathie
Bol ronde
aara chter
Ġon mogelijk
aden ocarcinoom
99 6
Ġmoeilijk e
Ġinge spoten
Ġrect os
Ġnav raag
orr ho
Ġsarc oidose
B ron
i le
ma ma
Ġv entr
Ġover genomen
Ġachter af
Ġ13 9
37 8
ĠMar ge
Ġseb orrho
z ijn
ĠRe cente
ĠDe generatie
dv ocht
Ġovereenkom stige
Voor lopig
Ġlong meta
Ġpart ij
oma teus
Ġgest uurd
AT IE
ol s
ĠT oe
ib espreking
ĠBe vestiging
Ġlever kwab
Ġlever meta
Ġweg druk
ĠVaat verkalkingen
j aarlijks
ge duid
Ġeen tje
ic ulaire
ĠT urk
grenz end
57 3
Ġband vormig
ariÃ« ctomie
. /
b r
ma cro
Ġre VG
Ġre sect
ĠT isN
ist eren
ĠC oe
200 02
Ġir idium
Ġthorax gebied
liecy sten
ĠLoverenRadioloog M
Al lereerst
Ġaanknoping spunt
Van af
Huid verdikking
Sub tiele
Mast itis
Ġgeoridn teerd
Ġgeob jectiveerd
96 6
67 3
Ġcol or
Ġinterpret atie
Ġid entieke
Ġn oe
Ġw sch
Ġte kst
Ġj arige
Ġbenader baar
Ġlangdur ig
? ),
Ġbe weeg
ĠW MO
ystro fische
bl ok
resp ectievelijk
Ġvaatstru cturen
Ġmamma panel
ĠP rinsengracht
ĠW ol
Ġep ithel
en ste
Ġv agina
Ġk eren
Ġte st
Ġpunctie plaats
plaat ste
yt isch
Ġepitheel hyperplasie
ĠLang zame
S atelliet
T jongerschans
a it
l ating
z uiver
Ġmicro cyst
Ġuit gelegd
ĠV rouw
De stijds
Ġ11 8
Ġne ut
ju v
Ġ08 4
delen massa
Ġloc oreg
Ġ314 9
Ġintre kkingen
66 8
segm enteel
Line aire
ĠGev oel
ĠGelob de
ĠLine air
crani ocaudaal
Ġfot open
Ġseros anguinolent
di afrag
ĠV en
06 0
Ġur eter
ĠM iddels
Ġaf grenzing
ter e
Ġlinker adnex
ĠGe metastaseerd
ĠVoor t
Ġverdw een
24 8
Ġgez et
Ġbuiten land
AC S
Ġman if
Ġspaar zame
Ġvolumine us
Ġeen zelfde
ic ol
ĠD at
Ġuitwas fase
Ġmoeilijk er
Ġvloei baar
Ġwegdruk baar
M in
N agenoeg
Ma stectomie
55 7
ĠLO RD
Ġuitein den
Ġuitp uil
Dec ember
D ruk
H el
p il
u al
ma teus
Ġg da
Ġna bloeding
ot s
In volutie
Ġar mer
odi fic
ĠRechts Kwadrant
Ġasymmetrie Ã«n
Ġ08 3
ĠAl ber
Af gezien
Ġondersch at
ĠUn ilaterale
Ġabces vorming
ĠPlaats ing
plan nen
Ġmammapol ibespreking
Ġstop pen
Ann eke
Ġsugger eert
Ġgesep teerde
Ġoridn tatie
ras mus
etta ge
Ġseborrho ica
ken ing
Ġdi en
ĠW eefsel
he chting
Ġpost ir
Ġlever metastasering
Ġwijz en
34 4
Ġbloedv aten
Ġcalc ium
00 0
ab ces
ĠZ aandam
Ġne frectomie
Ġontst ond
36 8
I ET
N ET
Ġge inter
ĠD ense
ster on
sch ijn
05 2
94 1
ĠLYM FO
ĠOntst aan
D S
U IS
h n
ge steron
Ġin conclusieve
ĠC IS
Ġmalig n
Ġ8 1
Ġper ine
comp leet
23 2
86 4
VER GROTING
Fibro adenoom
Ġvolumine uzer
ĠNeg atieve
H oofddorp
K EN
in et
Ġb le
ĠB us
ĠS ling
ĠN odulaire
ĠGeb ruikt
hier van
Ġple x
Ġtussen gelegen
ĠAl lereerst
ĠMar ie
Ġgeposition eerde
ĠLymfklier en
Ġverl engde
A kkoord
F ebruari
G ynaecomastie
b ol
Ġm rt
ĠT Tn
ĠH elling
ĠH ypermetab
Radioloog Dr
Ġmedi olateraal
ĠN x
IS ATIE
tie l
Ġ21 31
Ġsneldiagnostiek Verwijzing
Ġintens ieve
Ġsn ow
orizont aal
iel le
Ġanatom isch
cor texdikte
Ġtroebel ig
Ġstug ge
ĠSegm entele
Om vang
Ġribfra ctuur
Ġvis ion
Verdi kking
Ġaaneen gelegen
ĠHelling man
g lad
Ġlater al
ĠGe m
99 0
16 8
ĠEn kel
87 4
Ġres orptie
Ġuitst ulp
L obulair
o uren
ge el
ĠD o
um e
lop t
Ġrand om
Ġpunt vormig
lis abeth
ive aus
56 8
r isch
er kt
Ġv re
Ġf ormatie
Ġ7 6
oden um
ĠLYMFO SCINTIGRAFIE
H aga
O ude
Ġk al
Ġe g
ĠD VT
ĠEcho arme
Ġ18 5
25 7
88 8
ĠChem otherapie
ĠInfiltr erend
Ġoph oping
Ġplex us
a ak
u z
Ġs onde
raag de
Ġover ge
marker s
Ġcor on
Ġex of
Ġachtergrond versterking
Ġbuiten mammogram
duct ale
Ġkwe stie
ĠLymfeklier en
Ġcentro dorsaal
Ġbo ost
Ġgecalc ificeerde
P l
P osterieur
h ar
k tie
t Geboortedatum
v g
on verdacht
Ġh odgkin
ĠB ruijn
ĠS I
Ġ12 2
Ġper ifocaal
LO Q
Ġpre OK
Ġsneldiagnostiek Verwezen
ei omy
27 7
oren burg
En igszins
Ġopge merkt
Ġhyperd ens
mb os
ĠWaar voor
Bl oederige
Vet tig
ĠSupervis erend
Bre de
Dors olateraal
Ġav iditeit
exp ander
s lijmvlies
Ġl ump
Ġcrani oventraal
Ġ11 7
Ġmogelijk heden
Ġprocedure s
ri x
Ġpapill omateuze
97 7
86 5
Ġkwab je
Ġde gen
Ġt ong
ro t
Ġop vulling
ĠB ot
ver richt
ĠH istologie
oc k
Ġder maal
ER Z
stru ctuur
25 9
Ġide e
Ġresect ier
a dequate
h orm
ĠH i
bij voorbeeld
Ġintra v
Ġborst prothese
85 9
Ġprothes er
Ġperidu ctale
n abij
la ge
Ġin cl
Ġn iveaus
ĠM il
om vang
id a
Ġmeer der
Ġ8 4
gel open
Ġgew icht
Ġafw achtend
Ġlipoom pje
Ger icht
Ġechogen iteit
ĠOv aal
intra mammaire
Ġpalpab le
Ġpericar dvocht
O L
al waar
ver t
ĠD elft
sch ildwachtklier
Ġmin uut
Na dere
mat ch
96 8
88 4
Ġtransvers um
cyt ologisch
Ġhemorrag isch
Ġadi p
E ch
G ed
O ktober
P rogressief
al niet
Ġvan gen
Con ventionele
ĠA L
201 03
ĠMammografie Mamma
ab ine
Ġtumor grootte
Vraagstelling Technetium
200 01
Ġlymfeklieren Contralaterale
Ġgegevens BRCA
Ġfibro aden
ĠLinks zijdig
Mammacarcinoom T
Ġjaar Verslag
Ġseroom vorming
205 07
Al m
Al daar
Over leg
Ġha e
Ġcosto sternale
Ġoval oide
ikkel ige
Ġvastz ittend
alniet temin
E D
ĠW ide
ap ril
Ġrepresent ativiteit
38 5
35 2
46 3
46 7
44 9
Ġpar atra
Ġv at
ĠL WK
ĠK rap
Ġwel iswaar
Ġcar di
Ġdermat oloog
f eb
Ġ &
Ġaan w
ĠH engelo
05 0
Ġcon stant
Ġ19 5
38 0
ĠMar gins
Ġur ine
I ST
Ġp lak
Ġ7 1
ocht end
25 0
25 3
Ġat electase
97 2
33 2
Ġcentro craniaal
D ie
r itis
Ġt r
end aal
Ġlater oventraal
ĠR ingvormige
Ġscherp er
Ġbre dere
87 8
ĠOngerust heid
Ġhotspot s
recept oren
Ġorg anis
B ijna
F ocus
G lob
V olledige
c entrisch
t is
ma il
ĠIn lichtingen
Vraagstelling I
ĠV is
Ġsch iet
ger schap
Ġcont rolateraal
Mamma bespreking
Ġcortex diameter
Ġverder op
22 2
screening Indicatie
84 3
203 05
An ne
Ġscleros erend
Besnard Typiste
Ġbehandel end
ĠGroen e
ctu eel
ĠEch orijke
Bijkom end
Ġonjuist e
ĠSm orenburg
Ġfibre us
B el
ma art
Ġper operatief
Ġpalp eren
Punctie s
ĠAls nog
Ġzwell inkje
lymf oom
Ġeendui dig
) ?
is e
ic um
ĠH RT
ĠZ e
lijk ens
Ġster ker
ĠAf hankelijk
Ġlever en
usc el
28 3
asc ulair
P artiÃ«le
d ane
Ġp e
ĠL M
Ġst olsel
ju li
ĠMAMMA BIOPT
Ġinge kle
Ġfrag menten
Ġlymfos cintigrafie
ĠHi X
ater aliteit
ĠT NM
ĠO ud
Ġoksel metastasen
06 2
Ġpap il
Ġmid line
mult ipele
Ġvijf de
Ġamp lific
Ġkern diameter
AB C
doch ectomie
Ġgeinter preteerd
C entrale
Ġl yf
Ġk ogel
ĠP ositie
Ġklier parenchym
ĠGe pland
mat ose
Ġzo veel
24 4
26 6
94 6
77 9
Ġlongn odus
Ġsummatie beeld
ĠIr radicaal
did aat
ĠKw am
A spect
A lexander
M ijns
b lijkt
Ġin test
ur ele
Ġg aande
Ġrechts X
Ġmassa atjes
ĠC ar
Ġrechter schouder
ĠR oos
ĠVerslag Planaire
28 0
Ġbloed verd
21 00
Ġ313 6
215 01
Ġverh arde
Prevoo Typiste
ĠCor texdikte
Ġlidoca Ã¯ne
Ġrech st
ffic iele
ĠImpon eert
Ġbloedverd un
m ina
Ġa ure
ol ten
Ġg radi
Ġ( ?)
Ġlymf ogeen
Ġdifferentiaal diagnostisch
Ġnauw keur
ĠMaas stad
Ġgroe ien
Ġorganis erend
ol on
Ġbe slag
Ġdoor heen
kt uur
ĠFran krijk
Ġkn obbels
Ġuitst rijk
w acht
en veen
Ġmicro metastasen
sch ede
em end
Ġ8 7
Ġbiopsie en
17 0
orre sp
Ġwijz end
34 6
Ġ radicaliteit
Ġmamma sparend
ĠP at
ĠL ABC
pel ing
vall en
46 4
Ġmammac ar
ĠVerdi chting
Ġf ac
66 0
Ġcompact er
. .-
D ijk
O liecyste
S cho
T elefonisch
Â ¦
ij dig
Ġh ulp
Ġd ynacad
aar dige
Ġon v
ĠD ols
oc ell
ĠK e
Ġbiopt Indicatie
ĠRe gion
ĠZ GT
Ġpro cent
ĠF ern
cre pantie
voor heen
Ġcontrole opname
Ġmeet fout
cc eptabele
Ġgrens vlak
Ġvert ro
Ġsamen valt
Ġzuiver e
36 1
33 9
imen opauz
Ġsoepel Verslag
ĠMammografieMrisc Risico
Klein ere
het ische
Ġips i
206 00
ĠAfwezig Diffusie
acob s
Kar in
Ġa cute
Ġsp ectrum
Ġblijk ens
Ġlob cis
et ten
it atief
Ġs lijm
if t
Mamma biopt
Ġgesugger eerde
ĠB eleid
ĠW issel
Ġlinker nier
stra at
Ġhorm onaal
86 7
86 8
46 0
47 1
Ġidentific eerbaar
h art
Ġ ima
ĠB RA
Ġf lar
Ġsch eur
11 1
tre kkingen
35 4
Ġgebru iken
Ġbruin ig
Ġparatra cheaal
B i
c idiverende
in volueerd
at yp
ig ing
Ġst able
ik el
ĠBl oederig
Ġlabor ante
Ġuitgangs mammogram
Is ala
H ypermetab
X MG
u kema
ie m
ra a
Ġs ucces
ĠB enn
ĠC orrectie
ĠL E
Ġecho Indicatie
Ġbenigne Indicatie
Ġlinker prothese
12 0
Ġov ariÃ«ctomie
Ġzo zeer
stra Geboortedatum
agnost ische
Ġterug trekken
Ġrespons metingen
205 017
Ġplek jes
mar qu
Gel derse
post operatieve
ĠBoven ij
intens Oedeem
Ġsta ken
Lang zame
rib utie
Ġolig o
S amen
p art
w ordt
Ġz uid
Ġlateraal midden
ĠGe hele
Ġal dus
EL ING
Ġgede genereerd
ĠDia conessen
Ġcentro caudaal
ĠECHOGELE IDE
Ġglaas jes
t ijdens
Ġl eiomy
ĠZ IE
ocht ing
45 1
87 3
47 7
O TC
Ġin gevuld
Ġt afel
94 9
Huid sparende
Ġverst oord
Ġprotheser and
W aterland
n ing
Ġf e
ĠV aag
Ġverdi kkingen
47 2
Ġinz end
Ġip v
Ġcoe cum
Ġb ru
re chtermamma
Ġ1 19
Ġmedi ocraniale
ĠNa der
Ġhematoom pje
ĠInt act
22 3
38 7
Ġkleur loos
ĠMedi ocraniaal
Ġgevoelig heid
gew enst
Asp ecifieke
J uni
P eeters
o Geboortedatum
Ġd arma
Ġz org
Verslag De
ĠT ol
ĠT oevalsbevinding
ist ributie
Re cht
Ġtepel lijn
ĠRe ferentie
19 35
Ġverdicht inkjes
ĠConclusie I
hof f
mede beoordeeld
Ġ214 05
204 07
ĠgeÃ¯n strueerd
ĠKn ol
Ġ215 01
Ġfra cturen
Ġgede marqu
Ġdraad lokalisatie
uij ter
ĠOmvang safname
ĠIrregulair Marge
ĠContral aterale
Ġprost aat
Ġve get
dent ificatie
Ġingele zen
K an
V I
Ġre kening
ĠB ev
ĠRe gressie
ĠAtyp ische
l inkermamma
Ġma xilla
us s
ro od
om ogen
Ġcy cli
ĠO blique
Ġne ar
Ġverk eerde
28 5
ĠPre ventieve
Ġco upe
medi air
ĠAsp ecifiek
odific eerde
Ġm er
Ġw illen
ĠMa mmografische
os c
ĠN IET
Ġsp orad
ug el
Ġhoog stens
Ġafgrensbaar heid
Ġgein dureerd
45 9
44 4
?? ??
Ġfol lic
Ġperitone um
der wijk
Ġhier aan
85 3
Ġbekijk en
56 3
ĠTepel uitvloed
Ġboll etje
J A
t weetal
z t
el and
Ġc oll
oc c
00 2
Ġcont ra
Ġverkalk end
ber en
Ġzw aar
Ġ07 6
ĠAr g
Ġopge werkt
Ġdriehoek ig
Ġmicroscop ische
ĠInge dikte
Ġbestral ings
J aarlijks
P te
S usceptibiliteit
Ġb y
Ġin clusie
ĠG rillig
ut er
Ġ14 3
Ġcont usie
mmer s
Ġup Mammografie
Ġ31 05
Ġbdz Mammografie
Ġmaand ag
204 00
34 0
Ġ314 8
Kr Ã¶ger
drie maal
ĠDec lipse
Ġbijeen gelegen
Vaat kalk
Ġdia zepam
elast ische
ĠMI B
H UIS
f ocus
m ic
Ġ ogen
os clerose
hel mina
ĠWaar bij
Ġmil k
in ame
Ġc atheter
ĠM CL
Ġaf nemen
Ġonder veld
200 00
Ġsubc arinaal
ĠAlm elo
Ġingekle md
OTC OMPRESSIE
g ran
Ġv ul
Ġer f
ĠSub optimaal
ĠVergrotings opname
Ġthym us
c clusie
at rofie
ge sp
Ġw ast
Ġmede deling
Ġschildwachtklier procedure
Ġmammac are
ĠOperatie clip
Ġverkleur de
Kn obbel
B lijkbaar
G ev
G FR
k ker
Ġ iden
ie dt
or ende
st oornis
re present
ĠB en
Ġrechts zijdig
ĠA ust
se Geboortedatum
Ġst ond
ĠGe deeltelijk
Vraagstelling Aanwijzingen
200 04
ĠR iet
De zelfde
Ġan echogene
Ġ18 7
ĠDollRadioloog C
ĠConclusie Na
ĠSSA Indicatie
Ġweer s
ov a
Marker s
Hoog uit
nom o
Ġprost hetische
ĠWal stra
ĠScreen ende
ĠBenn ink
if er
Ġsamen gestelde
Ġou der
ĠRet ractie
x cideerd
on scherp
ĠS cleroserende
ĠN aald
Ġover heen
ĠF oto
vol ume
verdi kte
86 3
Ġindien en
ĠBl ok
Ġkrap pe
Ġchemok uur
Ġuitstulp ing
Ġfe ite
a cc
Ġk wal
ir radicaal
cho ven
ym et
ĠIn volutiebeeld
cc ult
47 8
ĠEx tra
ocy ten
at s
Ġs cre
Ġpun tjes
Ġfib rine
Ġsch atten
Ġcont ouren
Ġruim er
aard oor
geto ond
Ġtra bec
23 7
37 3
95 8
cont our
Ġlu kte
Ġvari atie
ĠLine aire
punct eren
a ma
s ult
Ġver z
Ġna vel
Ġvoor achterwaartse
200 03
Ġgoed aardige
Ġabl atief
Ġrand aankleurende
ili acaal
Ġsatelliet je
28 9
29 8
umul atieve
Ġuitvo eren
Ġor anje
Ġpseud o
ĠAsc al
S lag
Ġmamma augmentatie
ĠL ord
Ġpunctie Status
ul o
Ġdoor verwijzing
Ġmammae Palpabele
Ġlinker mamil
Ġrechter mamil
up pen
Ġachter zijde
Ġ10 3
sen Geboortedatum
ĠVerslag In
ĠBe handeld
Ġlever hilus
Ġdaar buiten
wand calcificaties
ĠUit leg
Ġstudie Indicatie
Retro mammillair
ĠAn na
218 03
218 04
Ġ218 04
76 8
49 0
Sub optimale
ĠSub totaal
Ġ204 06
Ġdrain eert
micro calc
ĠPouw M
Ġstip je
Ġmammapol ikliniek
Mari anne
ĠUitloper s
ĠKu ip
ĠB ethesda
Ġmee geleverde
44 1
Ġges itu
oph oping
Ġstans biopt
gebruik elijk
f ebruari
ĠIn trekking
Ġmast h
Ġm ond
adi um
ĠV S
Ġover grote
Ġlon ga
Ġat ro
ĠGro ei
45 8
77 4
OK SEL
Ġpulm onaal
Ġver vorming
Ġ8 6
ĠAan wijzing
Ġaange dane
ymmetr iserende
ĠVoor lopig
door n
raak ben
56 9
67 9
Ġepider male
c orrecte
Ġge tu
Ġab ce
Ġbest rijk
tumor positief
sn ijvlak
Ġuitbre idt
oster ior
ĠHo ge
mit terend
Ġzwak kere
Ġloodkogel tje
Ġtran sp
ĠTurk ije
Ġgetu ige
: '
C yclus
J anuari
T eerstra
d ijk
m ri
it abine
Ġen e
ĠM o
Ġk inet
ens Geboortedatum
Ġop enen
ver dere
ĠT eerstra
ĠT xN
In dex
In derdaad
Conclusie Matige
Re cente
ĠRe Indicatie
ĠJ oe
Controle Mammografie
Ġaden oca
Ġchemo Indicatie
ĠHeterogeen Tumor
ĠPost therapie
88 6
218 06
203 02
OK T
Gebied je
ĠFU Indicatie
ĠHoo geveen
Vraagstellingpre OK
multifocaal N
Ġdiagnosi Verslag
ĠOs Nucleaire
ĠSte en
ĠEnde Nucleaire
Ġble ef
Ġdarma ctiviteit
ĠA F
Ġinter stit
36 2
46 5
ix ed
lich aam
a ca
b oud
c arcin
de f
ij l
Ġin sp
Ġboven kw
ĠS ur
as ien
eken en
ger elateerd
Ġdors olaterale
Ġber icht
bl oed
ĠKlier tje
Ġwerv els
Ġfrequ ent
s erie
ĠP hyll
Ġuur s
Ġ14 2
af grens
vall end
47 9
66 3
mast opathie
ĠLater ocaudaal
Ġvervet ting
EO ORD
Ġparamedi aan
diafrag maal
Ġpostir radiaire
Ġin neemt
Ġg end
oc ytaire
pel doorn
Ġmedi oventraal
Ġoksel plooi
Ġom standig
ys ma
post operatief
Ġverwijd ing
umm erd
Ġomstandig heden
f unctie
o teerd
ol iep
Ġmamma protheses
Ġr ust
af hankelijk
LO G
ĠEv idente
Ġtoekom st
Rijn state
C ave
H eterogene
V ele
Z over
z Geboortedatum
Ġ1 11
Ġw inter
ĠB le
ĠA ukema
201 01
ĠL inguini
Ġonder been
Ġafwijkingen Ter
ĠVer hoe
Ġlinker schouder
ĠR ad
ĠR KZ
teken en
Ġthorax beeld
Ġdaar boven
CH NET
Ġinter pectorale
204 036
215 07
ĠAr chitectuur
Ġ216 03
Ġ218 06
Ġvarier ende
ucin euze
Oksel klierdissectie
inn ende
Loc oregionaal
SUV Max
oden huis
ĠDun wandige
Ret our
Ġneut rale
Ged uid
ĠFern s
Ġweers zijde
CHNET IUM
b anen
t end
en om
ev entueel
mat ische
ĠAf m
ĠSp ectrum
Ġcalc ific
Ġgetro mbos
EOORD ELING
h eerde
s olitaire
en ig
Ġ- ,
Ma cro
ĠAf gezien
44 8
ĠTE CHNETIUM
Ġgebe uren
Ġomring d
Ġfrag ment
ĠVol doende
" "
V olume
m elk
Ġ14 1
Ġmar g
97 8
ĠBoven dien
Ġmultiloc ulair
Ġgland ulaire
S FOTO
e veneens
e sse
f oci
Ġv raagt
Ġte gelijk
Re inier
08 2
Ġaden o
38 2
Ġbinnen kort
dit is
56 0
wer k
Ġstro male
ardi aal
- .
Ġv ager
ĠD R
Ġst ud
gen oot
Ġweefsel s
ga at
Ġ10 4
Int rac
Ġaanwijs bare
ĠComp act
Ġmis match
idiver end
Ġhersen en
Ġonderhuid s
ransvers aal
F ijne
W ordt
Ġm bq
Ġt ch
ĠG a
Ġlymf oid
201 00
Ġr CR
sch rij
Ġdoor kleur
Vraagstelling injectie
Ma mmografische
radi oloog
del inge
ĠHier over
Ġresp onder
Ġpalp eert
Mult inodulaire
Ġgehad Indicatie
ĠDoor verwijzing
Per sisterende
216 03
dn t
Ġmargins Mammacarcinoom
Contral ateraal
No vember
ĠAden ose
Ġwond je
Vaat calcificaties
ĠCaud olateraal
Ġimmunohistochem ie
ĠBetro kkenheid
VraagstellingMet astasen
ips oft
arenchyma ankleuring
meet baar
Ġsnow storm
p ara
Ġin zien
Ġk le
Ġaf geb
In vasief
Ġduidelijk heid
Ġple om
Ġanat omie
39 1
ĠRester end
Ġbelangr ijk
hi asis
M BQ
c raniolateraal
ĠIn dex
ĠV ijf
ĠV riescoupe
Ġdu odenum
Ġvers us
25 5
ĠEn ig
95 4
ĠVro uwe
ĠRijn land
Ġinfer ior
Ġclaustrof obie
b ijna
s l
u ders
v orden
ĠG al
icht baar
ier ing
ik s
Ġrec ont
Ġaort ab
Ġdoc um
Ġmolec ulaire
ĠCoe vorden
a ur
p jes
el le
Ġd rukken
gr ijp
ĠN ooit
uur de
mer kelijk
Ġgere duceerd
Ġstralen reactie
9 00
Ġop ruim
ĠE ens
ĠE rasmus
os ch
ip ro
ĠDoor groei
44 0
ĠAr imidex
ĠOnduidelijk heid
wan dig
Ġaltern atieve
Ġbran derig
Z eker
ĠG etracht
Ġmm Indicatie
ĠS cintigrafisch
ĠL if
ĠK rijgt
Ġ- >
Ġover st
Ġover all
ĠOn ze
ĠR ijk
ĠOp timaal
han na
08 00
ĠMamma specimen
Ġsegm entectomie
Screening X
ĠToonen H
34 8
Retro spectief
Ġcarcin omen
cN x
Ġ216 08
Ġ00 03
Int act
Ġvl ek
095 03
Ġchron isch
ato ir
init ief
El len
Ġdia conessen
ĠSupervis or
betro uw
ĠIC D
Antonius hove
icol ectomie
imenopauz aal
Ġge g
Ġin steek
it hiasis
Ġaf d
Ġmedi ane
Ġher beoordeeld
38 9
ĠTepel vloed
diff uus
Ġkalksp atjes
L UMC
k linische
n oduli
Ġv enen
Ġaan hechting
Ġu rot
ĠA p
ĠU ICC
od or
16 1
Ġpapill oma
sist entie
38 1
49 2
Ġsoort gelijk
ĠSn ij
echog eleide
Ġuitb ochting
ĠSur iname
Ġurot heel
p alp
Ġp leur
Ġg elijke
sp oel
Ġplaat vormige
05 1
Ġhist i
29 2
98 2
66 5
ĠGesch at
Ġnaev ocell
Ġgevorm d
Ġ-------------------- ----
Ġtoedien en
M L
Ġr ub
be i
be staande
03 2
gest uurde
96 4
85 6
IP EC
Ġlin ia
Ġgradi g
S eroom
b enen
g las
h aalde
l on
Ġa ct
ĠS can
Ġonder bel
ĠIn ter
ast en
Ġech el
olle ga
to se
Ġverk eerd
Ġgein filtreerd
lateraal boven
37 0
Ġuitw endig
215 06
pass ende
Ġpal li
Sep tember
Ġlymfev at
ĠBesch reven
Ġvre emd
Ġsporad isch
E ind
J ann
L inda
S e
S uccesvolle
V asculaire
b odem
p ast
Ġ ĉĉĉ
Ġm ip
Ġs y
ĠB EOORDELING
ĠT ro
ĠO liecysten
ĠK oek
Ġuit zi
ijn ier
stor ing
ief st
Ġsp oed
Ġster otact
Ġgen oteerd
Ġechografie en
Ġchem opro
ĠLooRadioloog C
Ġsubc enti
ral ie
Ġsn eeuwstorm
ĠVergelijk baar
216 08
Ġ216 00
Ġ215 06
ov aal
Ġ217 11
Ġ217 05
Ġ0000 7
Ġparallel le
Ġflow signalen
Di agnostiek
Ġrecept oren
Onduidelijk e
ĠDECLIPS E
Ġhuisartsen poli
Mon ique
Ġeindig end
ĠPS CT
Ġchemopro tocol
di rect
ogra fische
Ġon gebruikelijk
Ġmicro dochectomie
ont steking
ĠI tal
35 3
97 9
r ogra
Ġp il
ob asaal
Ġlong top
ĠOnt vangen
Ġgetro kken
Ġo ma
re den
RA S
ĠA B
em idden
Ġ7 4
ĠUit erst
98 5
Ġvl ekker
ĠFlevo ziekenhuis
ĠDegeneratie ve
Ġnauwkeur ig
Ġc an
Ġaf beelden
ati ve
sk arakteristieken
ĠSt ans
entie el
56 4
56 5
67 0
Ġfistel gang
oper abel
Ġkorst je
Ġhev ige
ĠBRA F
i fie
ge g
og isch
et ting
Ġn icht
end ocriene
ĠL ipoom
ub ulair
Ġpr im
Af hankelijk
55 8
39 3
Ġgelu x
Lymfeklier en
b ar
Ġre p
Ġt elef
ro zol
ĠP r
ĠA kkoord
iet ze
ĠK ro
ec itabine
Ġaxillair Handtekening
ĠR oll
rie k
07 1
Ġsentinelnode procedure
Mamma punctie
scan s
ĠSch a
ĠSch uppen
pl us
216 00
217 11
217 05
Ġmenstruatie cyclus
Mar j
ĠUnifocaal Afmeting
Di agnostisch
Ġklass e
ĠNoord west
Mart ini
own gra
T riple
Ġre e
ĠT P
ran sp
Ġper iv
97 4
s verlies
ol d
ĠL ieve
Ġdi am
03 0
Mamma reductie
gema akt
Ġrectum carcinoom
Ġimplan tatie
Ġlumb ale
Ġnaevocell ularis
F G
en dige
st aat
Ġs ymp
Op pervlakkige
99 4
Ġvast stellen
sub pectoraal
Ġmelkgan gen
odor ant
b rief
c ar
at osis
Ġc ervicale
Ġn ee
Ġs im
ĠIn homogeen
ug al
ĠControle foto
75 9
97 0
Ġstern ale
OR ST
Ġexof ytische
Ġrub riek
I A
S ec
U P
w v
der t
Ġde tect
form eerd
Ġer na
Op eratie
ĠAn ders
53 2
orb erend
Oksel klier
Ġhuidin trekkingen
Pa get
Ġhy d
Bijkom ende
Ġterecht gekomen
m pel
an amnestisch
li dnt
ĠG eldrop
Ġz ussen
ĠT raag
ĠD ynamische
ĠH yper
ĠK le
ĠMammografie DCIS
Ġmammae T
Vraagstelling tumor
Vraagstelling controle
Vraagstelling follow
ĠV gl
lu kje
up Indicatie
Ġgegevens Recidief
ĠJ acobs
ĠLinks Kwadrant
ĠHier binnen
ĠWarnarsRadioloog T
ĠSN Verslag
ere ductie
Ġfamilie Indicatie
ĠHT x
Ġgeindiceerd Indicatie
216 14
Ġ216 14
218 05
orb iditeit
ĠIs o
Ġgenn jecteerd
Ġverst uurd
ĠPatidnt nummer
Vraag stel
Ġbehandel plan
Ġletsel s
enn jectie
ĠAdjuvan te
Ġposttraumat isch
ĠBox sel
Ġtrabec ulatie
la b
Ġlymf banen
ĠGe adviseerd
Ġsch ema
ĠU l
Ġple uraal
76 2
ĠUMC G
Ġpe au
ĠM MR
Ġaan houdende
ier e
Ġal hoewel
Ġradi ol
Ġ7 7
Ġsp iegel
Ġger elateerde
27 5
Ġvolg end
45 2
ID ERZ
Ġgesitu eerd
s u
en der
Ġh yst
ĠB lijkbaar
Ġuit lopend
uit sluiten
96 2
Ġkleur end
hy ro
Ġinflammato ire
Ġbedo eld
Ġcomprim eren
ĠRester ende
W IJ
77 1
Ġverloop t
jodium zaadje
Ġmicron odulair
Ġintrathor acaal
Ġlongembolie en
Ġbloedvaat je
Ġver lie
ĠL ow
Ġecho vrije
ĠF ACS
09 29
Ġper ipro
28 2
Ġfibrose vorming
95 9
66 4
ĠAr tefact
omatos us
Ġges laagde
Ġges uperviseerd
ĠRadi o
ISCH E
---------------- ----------------
Ġ........ ........
ĠChem o
ĠSP OTCOMPRESSIE
Ġperine urale
E ven
G r
L eiderdorp
U E
b op
p ing
Ġb q
Ġt ijds
end ijk
end rik
Ġaf stands
ĠA x
ĠA cceptabele
ĠC ilinder
ĠC yclus
ĠL o
ĠL ong
ĠK ar
ĠV elde
Ġ10 6
Ġduidelijk st
Ġgep oogd
Controle mammografie
ech elon
out Inflow
ĠMammogram Ter
ĠLoverenRadioloog T
Ġverwij s
205 046
Ġessentie le
87 1
ĠAn terieur
47 4
Ġ215 07
Ġ218 05
57 0
Ġ315 5
ĠCor tex
Thorax opnamen
Uitgebreid heid
echoÃ¯ sch
Ġid c
ĠPalp atie
Ġwegge drukt
Ġsynthet ische
Glob ale
ĠAust ralie
V ijf
be handeld
up raclaviculaire
con fig
Ġsept um
ĠPa cemaker
Ġcylinder cellen
Ġrectos igmoid
H aarlem
w ann
ist ente
Ġtepel sparende
Ġdoor st
Ġmass ale
96 5
Ġabces je
IJ DS
IDERZ IJDS
i ologie
an a
55 9
ĠGE EN
ĠComp lexe
Ġfout ief
ĠBE IDERZIJDS
Ġpneumon ie
Ġarch ief
R ode
f agen
ĠB ro
ss elland
sp ro
Ġleeg puncteren
Ġbre iden
Ġgez eten
46 8
Ġrespectievelijk e
licht ing
Ġsateliet haarden
Ġverheven heid
a sel
s on
ro utine
ĠM ee
ĠP laat
ĠO k
Ġ14 5
Ġan eur
Mamma naaldbiopten
Ġalle bei
57 6
Ġpol ikliniek
Fam ilaire
entro caudaal
Ġgranul omen
AL D
Ġgesignale erd
Ġintrathor acale
gelob uleerde
Ġdetect eren
S creendetected
T oevalsbevinding
c laviculaire
u ste
w le
Ġde structie
Ġlinks Echo
Ġlinks Vraagstelling
Ġmassa Aankleuring
ĠH and
Ġ( Â¦
Ġpunctie Echo
ep tie
ĠR u
Ġmastopathie Indicatie
ĠSt rik
Ġinjectie depot
Af genomen
205 025
ĠDoor lopend
Ġinge deu
ac litaxel
215 09
ĠAchter lating
Te gen
uy derland
Ġcp Verslag
Beoor deelbaar
Pameijer Typist
ĠRadi ologische
Lang ste
Ġvervloe ide
HB C
sleutel beeld
Ġvull end
Ġbaan tje
Ġgeconcent reerde
ĠreÃ« el
Alm ere
bop lat
V A
ĠP le
Ġf lex
be per
Ġper it
Ġbeh oe
Ġgra v
Ġhormoon receptoren
. ?
R eexcisie
Ġbij passende
ĠOn c
ĠF ries
Ġrest je
ĠEr g
PA D
Ġpap ier
Ġvetc ellen
gan gen
o h
Ġde odorant
ĠD er
ĠS iliconen
ĠC LL
Ġbiopsie gebied
aad wer
Ġfors er
ĠAd nex
ĠOv ariumcarcinoom
rup tuur
vor ens
Ġpleur itis
S G
d ru
ra ken
ĠB ORST
os met
tex t
Ġged is
clu sterd
Ġgelok ette
97 3
55 4
Ġgran ulatie
Ġkal ib
L e
b ijnier
g asthuis
r cinoom
ge deelte
on kere
ĠB ur
ĠL uk
ogen iciteit
LA T
Ġkan didaat
Ġcontrast aankleuring
ĠAl ler
24 1
Ġken mer
26 5
St udie
ĠComp ositie
Ġecht genoot
Ġzwell inkjes
Aug ustus
C o
T o
Z w
d oven
t riple
v oelt
Ġv ullen
og nom
ol anda
on ke
it ale
aal t
ĠG o
if baar
Conclusie I
ĠL ate
ĠL TR
Ġar t
Vraagstelling ROLL
ĠV lindervormige
ĠR odenhuis
cre end
Ġcraniaal Indicatie
Ġvet rijk
qu el
ĠConclusie Beeld
ech orijke
Ġ31 04
ĠAl dus
Ġpap pil
ĠcT is
205 035
Ġben e
bes proken
94 4
ijer Geboortedatum
mammabiopt Klinische
Ġprojectie beeld
Ġges creend
Ġinconclusief Indicatie
202 05
Ġ311 4
ĠWil lem
Ġinject eren
lo ot
20405 6
ced urele
Ġrecon str
ĠFamilie anamnese
serv atie
Ġfusie beelden
ĉĉĉĉ ĉĉĉĉ
Ġcl umped
Ġimmuun histochem
mamm ilair
Ġverschu ifbaar
Ken nemer
Ġveget aties
gesp iculeerde
ĠBle eker
+ )
Ġ1 01
op isch
ĠIn d
ang entieel
Ġlev els
AL ISATIE
ĠKrap ste
Ġbru ikbaar
occ ult
Ġt uss
Ġpro gesteron
02 1
99 9
Voor stel
lan tatie
24 0
Ġhoe ft
ĠSep araat
Ġobjectiver en
M DO
Ġd aadwer
ĠR es
ĠR OK
ĠOp pervlakkige
ĠNa v
87 0
Ġgast ritis
Ġdivert ic
p rogressie
Ġm ucineuze
Ġc f
ek ken
ĠB art
01 01
Ġlater odorsale
ist er
ĠN iets
lu w
aan gezien
Ġgoed aardig
Ġev olutie
Ġprothese wissel
vol gen
Ġvers choven
57 2
67 8
ĠSub optimale
ĠGlad de
Ġbehor ende
ĠPort ugal
Dia conessenhuis
Ġlonga fwijkingen
y th
or del
ĠVer t
Ġpa raclaviculair
ĠAan grenzend
Ġzw arte
Ġkan ker
Ġinter esse
Ġgrillig er
Ġskelet s
index laesie
Boven dien
ĠHar derwijk
N odus
R ingvormige
g oudmarker
l ood
y Geboortedatum
st a
st rik
der half
di um
Ġbe wegen
Ver ander
Ver kalk
Ġg eleken
ĠP et
ent idle
ĠE mmen
Ġboven benen
ĠS cintigrafische
ĠMammografie BRCA
Ġbij gevoegd
Ġpath ognom
Ġtumor positieve
Ma ximaal
Ġafwijkingen Bevindingen
ĠV eer
ĠVer me
Ġtoe gankelijk
Ġinf raclav
Ġcor es
Ġretro mammaire
ĠVerslag Voorafgaand
to v
Ġ09 00
ri ve
ĠSt aat
Ġsneldiagnostiek PatiÃ«nt
Ġ31 08
Ġlob ulatie
ĠMet abool
Ge gevens
34 2
Ġcarcin oid
216 05
215 02
Ġ216 05
Ġ00 04
Ġ215 02
Ġdcis Indicatie
Ġhoe sten
Ġgebruik elijke
Ġmoeder haard
rima rk
++ +
uil tje
ĠWaar van
Ġcilindercel metaplasie
elast isch
Verdi chting
ĠBrink e
Hoger op
Ġspel den
Ġkinet iek
Ġechel ons
p ectatief
Ġ11 4
Ġcel beeld
ĠHuid biopt
ĠBeoor deelbaarheid
KEN HUIS
Ġree ele
E K
re cent
Ġma il
ĠIn volutie
Ġklein cellig
Ġverv roeg
De venter
Ġ11 0
Ġsubc apsulair
Ġvro uwen
ĠDu ctaal
Ġben igniteit
34 9
S E
Ġb iedt
Ġin de
Ġs u
Ġbij gevoegde
Ġla b
ep itheel
IS H
Ġ10 7
ĠSp ecimen
85 1
66 2
ov arium
Ġscho uders
ĠHeer enveen
Ġverkleur d
Ġkwal itatief
yth eem
o te
Ġc r
ek ent
aal delijk
Ġaan liggend
Ġonder arm
ĠI MA
olg d
ĠWinter s
98 4
55 3
ĠDoor n
86 0
Ġret entie
89 3
56 1
93 2
Ġacc umul
Ġbruin e
ĠNA ALD
enom een
P S
V ocht
el la
ge puncteerd
et axel
ra y
Ġp ral
Ġin st
Ġk r
ĠG eeft
ĠD icht
ĠOn zekerheid
PA PBI
Af deling
34 1
95 2
Ġondersch atting
Ġsept atie
Sp iraal
uscel reactie
. </
J L
R andnormale
b ody
g id
m iraal
n b
di k
Ġd na
ver vaardigd
ĠT ietze
Ġmassa Non
ec k
Ġr ennjectie
ĠIn clusief
her ceptin
ĠF ib
Ġachter rand
Ġverspreid t
han git
Ġch ir
Ġch ond
ĠWarnarsRadioloog B
Ġrand normaal
ĠConclusie Twee
Ġpre scan
Ġva kan
Ġparenchyma le
Be handeling
Ġsneldiagnostiek Tweede
Ġablatie ve
Ġ31 06
ĠJodiumbron nen
sma Geboortedatum
Ġpart idle
46 2
Ġ215 09
Ġ218 03
FU Mammografie
202 02
096 01
Ġcosta e
099 03
098 04
ĠMrisc Onveranderd
Ġwit h
Ġdesm oid
Ġbeenmer ga
ymp hangit
Ġanast rozol
Ġuitzi ende
Ġsubcenti metrische
quel ine
Ġpathognom onisch
Ġvakan tie
ymphangit is
b lad
c ing
Ġc all
ol o
Ġin operabel
ĠM orfologisch
ĠD ubbel
Ġecho plaat
ĠU terus
gro ter
Ġanal ys
Gro ei
Ġstrik t
sub cutane
obie le
Ġmelkgan getjes
Ġfiss ura
I R
b la
n ia
Ġbe wijs
van ging
Ġne us
Ġder gelijk
Ġkun t
Ġlong metastase
88 0
76 7
Ġcentro mediaal
Ġintern ist
Ġgetro ffen
Ġmulticyste us
Ġisch ium
Ġoverge pro
L BK
ra ject
on zeker
Ġk raakbeen
Ġrechter flank
ĠU w
75 1
84 9
issel d
Ġgebe ur
Ġoverzicht elijk
ĠGelob uleerde
ĠBeg in
L D
r s
u rac
at rix
Ġin di
Ġs ymmetrie
ĠS alvage
as ies
he up
ik a
oid ie
Ġlever afwijkingen
ood heid
org d
37 1
Ġret rogra
Ġgem odificeerde
Sub cutaan
lat atie
Loc atie
Ġgene zen
el aar
Ġo estrogeen
Ġop genomen
ur den
du bieus
art a
Ġverv alt
Ġfibro om
77 2
57 4
Ġax ilair
ĠAANVUL LE
Ġvervloe iing
Ġaller gie
Ġlumb aal
Ġhyperv ascularisatie
Hoe wel
ĠLE VER
Ġverlie p
8 00
C ur
F NA
O cclusie
R X
V age
a il
i mmer
Ġp yl
it s
ag onaal
op een
Ġst orende
Ġ4 Â½
ter preteerd
Ġar chite
Ġmammografie Zie
Ġgegevens Bewezen
ĠLoo Dr
Na uwe
ĠPET CT
inter n
inter mediair
ĠAf standsmetastasen
Ġprothese Indicatie
Ġjaar Indicatie
screening Ter
Ġtyp ering
Ġ214 14
Daar om
cler otische
Ġingroei end
zij ligging
Ġdynam isch
Ġbere iken
Comp lexe
Ple iomorfe
Ġgevascularis eerd
Ġsucces vol
Ġiden it
ĠVerslagIn jectie
ĠKoek oek
Ġspelden knop
j anuari
Ġt angentieel
ĠK lachten
Ġverdacht s
Ġ11 6
Ġinter medi
ĠEn d
Ġgedetecte erde
v ette
ĠD elf
ath ie
Ġpun tje
of ibro
99 2
ert ijd
16 0
ĠpT isN
Ġtransvers us
d eld
v le
Ġs li
Ver k
lin de
Ġ19 74
cintigra m
215 04
76 4
ĠVerk regen
Ġfel le
Ġaortab oog
. ----
I vm
V a
h oofd
r alis
ander s
Ġvers le
oma st
ĠpT is
Ġintramusc ulair
Ġkalib er
A sc
H art
L o
R ichting
al g
Ġc le
Ġk raakben
Ġop lopend
ĠB ruin
Ġaf beeld
ĠP eters
ĠH oeveel
ken nelijk
Ġel der
10 01
ĠPA C
Ġtra umat
27 4
Ġdus danig
ĠMe et
lang s
B leek
D elft
s low
t te
Ġde uk
Ġh boc
Ġt axol
Ġaan bieden
Ġg isteren
ĠH u
Ġ( '
ĠC t
ĠC WZ
Ġbeiderzijds Ter
Ġecho kop
Ġtepel Indicatie
van af
Ġkalk melk
Op names
ob air
ax iaal
mmer ing
Ġwe et
ĠWarnarsRadioloog C
imp ende
ĠConclusie Het
Ġ07 7
Ġ31 12
ĠLoverenRadioloog B
Mult icentrische
berg Geboortedatum
Ġfamilieanamnese Indicatie
Ġafw ij
Ġess entidle
CP a
44 3
216 09
215 13
47 6
Ġcel groep
Ġ216 09
Ġ215 13
ormalis eerde
ov ic
Ġgem eld
Ġarter idle
ĠFa v
Ġant ic
ĠBl oe
Ġopsp uiten
ĠJodiummarker s
098 01
ĠSoykan A
Ġmeege daan
toen ame
Ġstip jes
Ġoncop l
Ġimmunohistochem isch
Ġlokalis eert
Hui dig
ifer ens
Ġbestrijk t
Ġdoorkleur t
G em
ĠE igen
raal de
Ġ7 8
Ġopz icht
MA RI
Ġafgeb roken
H ilversum
f y
Ġ Cont
Ġin w
Ġn aal
ĠG ek
Ġaf f
ĠR outine
Ġpre existent
26 1
cel lige
Ġzij ligging
ple iomorfe
Represent atief
Ġdoorge geven
Ġdel le
ĠDes gewenst
lymfeklier en
betrouw baar
F raumeni
an alyse
de c
de kt
Ġin vol
ro mb
ĠO ccult
as en
ier cing
Ġplaat ste
he im
ĠR and
ĠRE C
26 0
215 03
Ġges laagd
Ġvroeg er
Ġopge treden
Ġventro craniaal
gra fisch
Ġfac et
e ss
m s
z o
ing ing
Ġmet alen
Ġon ge
un del
Ġte voren
adi ering
ĠL aat
ĠF raumeni
Ġ14 4
heid shalve
Ġan am
Am putatie
Ġdaar onder
27 6
Ġro ute
67 4
ĠHorm oon
urac ao
H of
ch er
ĠM elanoom
op nieuw
ĠH ad
ot h
Ġklier pakket
ĠW erd
Ġrechter lies
Ġpa get
ep teerd
Ġintra pectoraal
oel de
Ġloc alis
ĠNog maals
rol ob
fic ient
ĠGebied je
ssel meer
ĠLast ige
Ġaneur ysma
2 2001
; -
D es
Y TO
e Geboortedatum
f ysiologisch
i i
w erd
Ġ ĉĉ
Ġn oord
Ġt hyro
Ġs uros
ĠM w
Ġmamma ografie
Ġrechts Vraagstelling
il obaire
Verslag Onder
ĠH aar
ĠH aan
ĠH ydro
In trekking
Conclusie Eerste
ĠK ern
Ġst raat
sch eid
igne d
Ġmarker Verslag
Ġover gegaan
Ġpost punctie
ies can
Ġ16 7
ĠLooRadioloog S
Ġ31 03
wal ificeerd
ĠLi Indicatie
ou de
Ġ214 12
Ġrib bon
35 6
ĠgeÃ¯n jecteerd
216 06
215 15
66 9
Ġ216 06
Ġ215 12
Ġ215 15
ĠBo uw
Ġmenstruatie datum
hel aas
Teertstra Typist
214 14
Ġgebruik te
099 02
Ġsuper vis
Ġlact iferens
Linker axilla
ĠIrregulair Intern
ĠVerslagPro begeleide
multi N
Ġmicroc al
ĠgeÃ¯ s
flu erende
Jo hanna
Overleg d
Ġingedeu kte
ĠBart els
ĠFav orable
YTO LOG
B ilaterale
ol p
Ġaan liggende
Ġg asthuis
id ie
Ġmicro invasie
ron ef
inf lamma
Ġadv iseren
Ġ1 12
Ġdoor laat
ull er
ĠVoor zover
Ġant rum
Ġlucht b
Ġbi ologie
Ġgewicht sverlies
b reng
m ens
s ing
el open
Ġm ig
ĠG rie
ĠL os
ĠZ es
Ġ10 5
osit as
Ġvolg elopen
Ġoor deel
Ġvand aan
inf o
gem engd
Ġflar d
T w
Ġdoor b
Ġinf ect
ip atroon
Ġricht lijn
verkalk te
idu ele
59 0
Ġvit aal
Ġontwikkel ing
z ia
ss can
Ġbij v
ĠN odus
ast inale
Ġhuid adnex
Ġ14 8
Ġger echt
ĠSN s
86 2
Ġontstekings reactie
Ġfiss uur
Ġamplific atie
ĠLuk as
Ġgerecht vaardigd
D ynamiek
P etra
V os
or ange
Ġw enste
Ġop w
ĠB ob
op nemende
Ġboven in
ĠS to
ĠS igned
ĠL inden
ĠL inn
): -
Ġuit gaand
Ġpunctie Verwijzing
Ġecho Echo
Ġonder breking
Ġmammografie Verslag
ĠRe ikend
ont usie
ĠZ uwe
Ġmicrokalk je
19 33
Ġch ole
Ġcon sistentie
ĠConclusie Onderzoek
Be wegingsartefacten
Ġsegment resectie
Ġ31 01
ĠcT isN
ĠGro ep
Af wijkende
ĠSch re
werp ig
Ġvetc ontusie
Ġkleur ende
Ġuitsnijkamer Ter
Ġ215 03
217 09
Ġvergroot te
Pro tocollair
Ġ219 03
Ġgek walificeerd
Mar ia
Ġtegenaan gelegen
Ġ207 01
ĠKnobbel tje
Ġperfus iescan
ĠNie uwen
Ġoptie s
acc umulatie
Ġgelux eerd
Ġl ytisch
chogra feerd
ĠIn terne
ĠOn regelmatig
ev el
sne den
Ġaden omen
ac iteit
ov entrale
sub claviculair
Ġern stig
Ġsh ow
ronef rose
" .
c raniale
Ġ ee
Ġt hyre
Ġmet ast
ic us
ief ase
uctect asien
omat ose
ĠEn gel
66 6
ĠPro tocollair
ĠRuim e
Tepel vloed
rig erende
Ġcall us
U rine
i atie
Ġma m
Ġin gesteld
Ġlymf ocyten
Ġvoor zover
rk eerde
ĠZ ichtbaar
ru stig
Ġborst been
Ġbre der
98 6
96 9
Ġverster kt
Ġfibre uze
ĠHal f
Ġobjectiver ing
Tot aal
fy lact
YTOLOG ISCHE
P D
d rain
v ier
Ġl ees
om o
ĠA c
Ġaankleuring skarakteristieken
ĠMamma tumor
Ġva ak
Hier omheen
216 15
eroom cyste
54 1
Ġcribr iform
Ġopruim reactie
Ġretrogra de
l or
Ġl itt
Ġb ang
Ġge we
Ġre activiteit
Ġin nemende
Ġver plaatsing
aar de
Ġk laar
ĠB or
Ġf enomeen
201 05
200 05
Ġfibro matose
Ġhyp ot
lic atie
Ġvacuum biopt
Ġfijn er
Ġsmal ler
ĠOnscherp e
lij st
lang zaam
Ġdermat itis
Ġgedeform eerd
Ġvis ke
leb itis
B A
D ubbel
G endraagster
J olanda
L ijkt
M ir
f avorable
m st
w ens
z ius
st re
Ġin plannen
Ġin compleet
Ġt omos
us Geboortedatum
ĠB on
es Geboortedatum
Ġf oll
ĠA rk
sp iraal
Ġboven rij
ist h
ĠS VP
Ġca ps
ĠR uijter
Ġcortex onder
Ġ18 8
ĠWe ster
Ġ07 9
Ġtra pe
Uit erst
Ġlip omateus
Ġsamen vallend
Ġdun wandig
Ġstudie Verslag
Ġstudie verband
Ġmutatie s
215 12
Ġ215 04
Ġknobbel tjes
Ġ217 09
Ġtracer uptake
Ġ219 02
Ġopge sp
Sub pectoraal
Ġuterus my
Ġspoor tjes
095 02
ĠMon delinge
Ġpan el
ĠWessels R
ĠTRA M
gevoel ige
Ġsateliet haard
ĠDruk pijnlijk
Ġent iteit
Ġimplant aat
Cut ane
boplat in
Ġtrape zius
i ditis
Ġc lin
ĠD aardoor
get ast
oli ose
Ġvorm ig
ĠOnder linge
Ġgebruik elijk
wezig heid
Ġtussentijds e
e o
s impele
ing roei
Ġlinker flank
Ġrechter adnex
ob iliteit
Ġrest microcalcificaties
ĠAn t
ĠOnder liggend
Ġco mmunic
Ġontlast ende
par aten
C D
J e
a e
v ic
voor al
16 2
88 9
anis ius
Ġvul va
wann oom
H F
c ite
s arcoom
Ġf o
Ġst rengen
uit gang
Ġfoc aliteit
Ġals of
Ġer w
Ġ11 3
Ġwe igert
98 8
Ġdes ondanks
77 3
ola dex
59 2
Ġoncop lastisch
ĠVa ster
M aart
Q ua
k linisch
Ġv als
Ġb ov
ek s
ig erd
04 0
04 2
ger ing
ĠAan gegeven
ber s
ĠAf spraak
Ġ19 79
lop en
Ġpla asten
cN o
Ġres orberend
bl ijven
ĠPro thesen
096 03
Crani o
ĠPalp atoir
ĠMacro calcificatie
Ġerf elijk
Ġaccumul aties
Ġgewe igerd
Ġviske us
- '
A ard
B erg
F oto
H oo
J ose
J ong
V ijftal
p ijp
p ora
in volutiebeeld
ma tie
et oename
Ġp en
aar en
oor lijke
Ġs witch
Ver grotings
ĠD rachten
ot ogra
sp ikkelige
Ġonderzoek Schildwachtklier
ĠS onke
Ġuit gesteld
Ġca Indicatie
Vraagstelling beoordeelbaarheid
Vraagstelling recidief
Vraagstelling technetium
Ġpro beren
Ġeerder beschreven
ĠAf wijkend
Ġ18 3
Controle opname
edi kel
ker s
Ġun iforme
205 0
ĠPost radiatie
35 1
ĠMR i
Ġbehandeld Indicatie
Ġ313 7
33 1
Ġ216 15
ĠPro jectie
unct ate
097 01
097 02
Ġgra fie
ĠTepel intrekking
Ġpapillomat a
Ġlongn odi
Ġcom orbiditeit
fecte erd
Ġein delijk
Bol vormige
Ġfot opeen
Ġstij ve
Ġbew uste
Ġboteiland jes
Ġgedemarqu eerde
Ġpalli atieve
Vraagstel linge
ĠDelf os
Ġopgesp oord
Hoo geveen
l engte
Ġhoog gradige
Ġze ven
Ġbene den
Asc ites
+ /
ĠA t
sch ill
ab et
Ġtumor excisie
ĠF amili
Ġlip osarcoom
98 1
55 1
vlak ken
67 2
ĠWil helmina
Ġ-------------------- -
Ġass oci
Ġstereotax is
ĠItal ie
ge hele
Ġt i
ĠS TI
ap pen
Ġer ytheem
Ġontstek ingen
89 0
Ġgroe ipatroon
ĠVERGROTINGSOPNAM E
Z ijn
le man
ver der
ele gen
ĠC MF
ĠO r
ĠK or
sch atting
Ġal vorens
Ġpa ste
Ġser r
Ġnaald punt
28 1
Ġmid claviculair
mast opathisch
pap illoom
kle p
ĠSep arate
Ġconsolid aties
Ġhoogst waarschijnlijk
osc opie
D et
t omen
Ġ *
er land
Ġc opy
Ġt zt
Ġe ier
ĠN GS
Ġdaar uit
ĠMogelijk e
ĠOver all
Ġsterk ere
Ġechoarm ere
Ġlong haard
Ġpart ikels
36 0
Ġmamm og
scop isch
ĠVERGROTING SFOTO
A RT
B osch
C h
J ac
M g
M ann
O OR
V lindervormige
c entrum
f u
in Geboortedatum
ge dicteerd
ar ig
ol eerd
Ġn ot
it iet
Ġk aak
ĠH an
ĠH ele
In ge
In vasie
Conclusie Het
ĠC p
ĠK uij
Ġlateraal Indicatie
Ġmammae In
Ġmammografie In
Ġlinker kant
Ġgegevens Multifocaal
09 202
ĠAan vraag
eb el
Ġklieren Conclusie
ex terne
ĠZwartRadioloog C
Ġheden middag
205 015
Ġinwas fase
grenz ingen
218 02
Ġ218 02
203 06
76 5
Mar ie
Ġadnex cyste
Ġ206 04
onc eptie
Ġgra fisch
Ġtekening Indicatie
20404 5
20406 5
Ġgef otogra
Ġmenopauz aal
Ġperfus iefase
Ġsubstractie beelden
ĠCoop ers
Ġcap ecitabine
even age
Region ale
Ġgedis loc
Ġsu bare
Ġcortexonder breking
Ma ag
gro om
Ġbest ond
Ġmacro fagen
Ġtra m
ĠComp ressie
Ġhem icolectomie
Ġlinia ire
lig t
ob acter
Ġ19 78
Ġeven wel
Ġdra gerschap
no vember
minima le
ĠRad boud
ĠFib re
m ucineus
Ġ ic
ge deeltelijk
Ġb oog
Ġaf neemt
ste inde
ast richt
Ġtumor volume
ĠDi verse
Ġgepro b
ĠZIE KENHUIS
N X
al st
Ġl and
Ġh oudt
Ġz ogen
wijz end
ander e
gen e
Ġklein tjes
ĠF l
Ġintra mma
Ġmoe st
Ġmid dell
94 0
Ġcel arme
76 3
pass en
ĠPara sternale
E VEN
M an
N r
m on
Ġw ing
ĠB R
ok k
ob espreking
ug las
Ġhyp ert
Ġwaarneem bare
pro jectie
ui ven
88 3
ĠAr tefacten
218 01
ĠJuist e
ĠBre da
Ġther ap
Ġmond bodem
Ġhyst ologisch
I r
N mic
V roeg
Z us
e ek
h kv
w ijf
Ġ q
Ġl iefst
Ġp ow
on Geboortedatum
Ġin gevoegd
Ġen orm
Ġs yst
ĠB V
ĠB III
ĠG olen
ĠP evenage
ĠT is
ĠT axol
un ifocale
erd ense
Ġmammae Inlichtingen
Ġmammografie Second
Ma as
ĠR ij
ĠR ing
ĠR oo
Ġmicrokalk jes
ĠF ang
Ġsp ring
Ġer tegen
19 27
huis Geboortedatum
Ġsub totaal
Ġli VG
ca ve
ĠVerslag Onder
Ġafge drukt
Ġhe chting
ĠBe urden
Ġ31 07
irurg ie
Ġvind baar
Ġweer gegeven
205 038
uik er
Ġcyst jes
95 1
Ġuitw ast
219 02
uy ter
Ġhuidplooi ing
zet ting
hr ist
Ġac quisitie
ĠVerslagSt atische
Wil lem
hyper intens
ba ch
Ġspleet vormig
Ġsess ie
Ġintrav asale
Recht zijdig
gid ay
Ġantic onceptie
ĠFang giday
p la
ge heel
ct uatie
ur ul
ĠIn jectie
eg el
her haling
Ġtoe v
jecte erde
39 2
ĠEx pectatief
M S
Ġuit erste
Ġlever segment
sn ij
Ġlong laesie
Ġnecro tis
56 7
59 1
ĠLitteken gebied
Ġlijn en
Ġcoreb iopten
ĠHorm onale
Ġkenmer kende
Ġovergepro jecteerd
b z
Ġl arynx
Ġin c
ijz er
as us
ĠV AN
Ġhier om
Ġhier binnen
ger inge
Ġverw erkt
27 2
sma teriaal
Ġbot meta
Ġuitgangs waarde
Ġmed ul
Ġhypoecho geen
ĠMan telveld
orresp onder
m t
n oe
Ġver vanging
ĠM ijn
if catie
ĠS lag
ĠL MLO
ĠZ oladex
ĠBe halve
Ġvaat jes
Ġherh aaldelijk
vrij wel
Ġmy oom
Ġontstekings beeld
Ġgereconstru eerd
Ġhy groom
ĠVast leggen
Ġhae matoom
Ġaure ola
breng st
Ġmiddell ijn
D ep
K alk
M ei
o a
al i
Ġma tje
ic obacter
op ening
ĠS vp
Re ster
ĠC umulatieve
Ġst ichting
wez ige
Aan getoonde
bij menging
ĠSch we
ĠPunctie s
Ġhals klier
age erd
76 1
Ġlucht config
aug ustus
Ġsteat ose
Ġhepat ica
ĠDis seminatie
Ġmat glas
orr ige
ĠMicro calcificatie
Ġhoek ige
ĠBetro f
Ġvlekker ige
ransp lantatie
Ġzogen aam
B eg
H orizontaal
I dentificatie
P et
T j
W er
W it
c ell
k uren
w eer
z wollen
Ġ ater
Ġ ....
ma at
Ġv g
ge beeld
ge bieden
ij Geboortedatum
Ġc at
is c
Ġp ool
Ġd onkere
mm ol
ĠG lob
Ġrechts boven
ĠD ongen
Ġlymf en
In brengen
ster eotaxie
ĠS w
ĠC anisius
ĠMammografie Familie
ĠMammografie GRM
-- >
Ġmammae Bekend
Ġrechter schildklier
ĠZ ee
Ġpro ef
ĠR oe
Ġster iele
Ġgegevens Groot
Ġzo la
Ġ18 0
Ġplaatsen Verslag
Ġomvang s
Ġmateriaal Indicatie
Ġinter val
ĠPost procedureel
Ġ313 9
Ġ00 01
Ġ218 01
Ġscintigra fisch
219 03
219 13
Ġ219 13
An ita
Ġscho on
ĠSpaarne ziekenhuis
ĠSub tiele
ĠHe ij
ĠInf ormatie
Ġor ale
ĠLaesie s
Ġ207 03
klein de
098 00
Ġmaag wand
Tepel intrekking
ĠPouw K
eiden e
Later ocaudaal
ĠVeen stra
ĠDis crepantie
Ġtomogra m
rathor acaal
Ġspleet vormige
Ġlym ph
ĠreÃ« xcisie
nanocoll oÃ¯d
Ġfotopen ie
ĠArg os
Ġgranulatie weefsel
ĠgeÃ¯s oleerde
ĠArk ies
T UE
Ġt um
ater n
radi ologisch
Ġ10 9
Ġbeh oren
obbel ig
Ġbemoeilijk te
Ġflu ctuatie
Ġhyd ronefrose
TUE EL
Ġ iet
Ġb aar
ĠM is
ic al
ĠIn tern
03 1
29 0
Ġopge zette
ĠEx acte
ĠSTEREOTACTISCH E
Ġregel matig
fylact ische
p artiele
re cht
Ġc al
Ġt ij
ĠD ystrofische
Ġar teri
ĠV olst
Ġsch rij
hier uit
ĠInt rac
ĠEn schede
Mar g
ph en
Para sternale
Ġaller g
Ġfront aal
Ġresectier anden
I MA
h aar
k l
t ru
Ġv ing
ent erend
ĠD cis
ĠO PNAM
Ġdi latatie
Ġst r
uit gebreid
Ġvet te
ĠDi agnostisch
Ġspotcompressie opnames
int el
ĠSp oor
89 1
84 0
Ġonregelmatig heid
Ġuitgangs foto
Ġdifferentiaal diagnose
Ġwoensdag middag
ĠRel atie
ĠBeg innende
other apeut
def ect
Ġanalys eren
ĠSTI R
B Z
d ense
Ġl eid
st ok
Ġin dic
Ġt rekt
Ġk lopt
ĠG ran
ĠP o
ĠA ctiviteit
ĠA peldoorn
Ġst adiÃ«ring
ut inecontrole
ĠOn belaste
Ġto onden
07 0
Ġsub diafragmaal
Ġgesp ec
verdi kkingen
Ġdiep ste
Ġgec orrige
cor e
Ġlijn tje
ĠBre slow
Ġgeacc epteerd
sep t
Ġ........ ....
IC RA
Ġwarm te
Ġonderhuid se
Ġtons il
Ġscre enen
vle ugel
B eleid
G est
G etracht
M en
O blique
P oging
P rimaire
V en
W eg
Ġ iv
Ġv ouw
at t
at or
og eleid
on vormige
Ġin j
Ġn atuur
Ġrechts Status
ĠD am
ĠE mmering
Conclusie Vooralsnog
ste atose
ĠMammografie Familiaire
Ġst aande
ab usievelijk
Vraagstelling T
ĠV ijftal
ĠF N
IS can
of lebitis
sten en
Ġsub stantie
voor geschiedenis
Ġpositie s
Ġ22 001
Ġaange zette
Ġbegeleid ing
Ġup X
ĠSt elt
Ġ31 02
Voor lopige
punctie Status
Ge deeltelijk
205 027
Un favourable
204 046
Ġfibrose Indicatie
94 2
Ġ00 02
Ġtom ogeleide
itein de
mammabiopt Uit
219 07
Ġmammac rcinoom
ĠTe un
ĠMammografieMrisc Screening
ĠIV F
ĠSub tiel
Ġlo ze
ĠMar k
Ġ312 3
ĠAd j
Ġ205 03
beg repen
snel diagnostiek
ĠHel dere
ĠHa ver
ĠBELLIN IScan
ixed Oedeem
werk ster
Ġact in
ĠCilinder cel
asel ine
Ġbehoe ft
Ġsupervis erend
Ġfoll ouw
pijp jes
K E
Ġl agen
ter s
Ġint ermamma
Ġsub totale
tie ve
Ġleegge p
Ġaanvraag formulier
kan aal
ĠLitteken vorming
neg atieve
Ġchond ro
Ġechoplaat jes
b asaal
Ġw ijd
ven iele
ond yl
Ġdors o
ĠVoor keur
Ġverschill end
ĠOksel klieren
ĠDis crete
Ġra mus
G raad
Ġaan vo
ĠS lank
ĠI B
Ġgen et
Ġvet kwab
lip oom
Ġversch eidene
Ġstandaard procedure
Loc alisatie
aur iculair
Ġflex ura
c ap
c entrale
d le
Ġp ort
Ġn al
Ġw et
ĠM CH
Ġtepel rand
onder dag
Ġpro ficient
ĠR ee
Ġher beoordelen
Ġneo ad
Ġstru ktuur
Ġbevestig de
Ġkw ant
ĠNeo adjuvante
Ġgecon cludeerd
Ġdraad geleide
vergelijk baar
ĠCaud omediaal
Ġvervorm de
Ġmarg inaal
Ġnecrotis ering
H ar
L ymf
P athologie
T oont
Ġc leopatra
Ġaan passen
Ġvoor bij
ĠC uracao
ĠV lak
of arynx
Ġgroot sten
99 02
Ġdit maal
Ġ18 4
Ġpre v
Ġnaald vormige
Ġmidden onder
77 0
Ġcorresponder ende
ĠLymfeklier tje
oer mond
juist e
Ġflu ctu
Ġverwar ring
Ġdaadwer kelijk
- >
D istributie
E lisabeth
V ast
h uij
k y
een komen
Ġp edikel
Ġver laagd
ink el
ĠM uller
Ġk aart
Ġk inder
Ġk uiltje
ĠB ran
ĠB ou
sel aar
ĠD CS
ĠH eterogene
ĠE de
Conclusie Unilateraal
Ġboven ij
ĠS tre
Re gel
ĠL AO
ĠMammografie Matig
gr il
Ġlinkermamma Mammografie
Ġlinker onderkwadrant
ont jes
Ġarchitectuur ver
Ġok d
em est
ĠR a
uit loper
Ġom gaande
adenoom pje
ĠSt ar
Ġwand verkalkingen
Ġmid segment
Ġuitsnijkamer Bevindingen
218 12
Ġgendraagster Indicatie
ĠPro be
Ġ219 07
ouw er
ĠPl ateau
Ġvolum ereductie
Ġ311 6
Ġonc olp
Ġga Indicatie
Ġaankleuringscur ves
ĠGegroep eerd
olen aar
Ret ractie
ĠCH irurgie
ĠCoop er
Toen emende
ĠAlber t
Ġdegen ereerde
ĠPhyll oides
ĠAANVULLE ND
Ġintermedi aire
Ġafbeeld ingen
Ġzola dex
c riteria
us es
ĠB VO
Ġr er
pro ble
Ġlever haarden
Ġweer haak
-------- ----
de d
Ġbe grenzingen
Ġk lacht
ens cho
sp iegel
ĠIn brengen
up tu
Ġhe ft
gro en
gro eid
IO P
Ġspot opname
tra heerde
ocie erd
76 9
ĠSub cutane
ĠTepel vocht
Ġvervroeg d
B uiten
K ING
b ale
s uspect
st een
Ġma at
Ġw ang
Ġs uccesvolle
ĠP D
ĠAan geboden
ĠOver wegend
ĠMult iple
96 1
85 2
Ġmy omatosus
ransvers ale
Ġgeprob eerd
IOP SIE
B la
L P
c ervicaal
Ġ isth
in dicatie
Ġd onderdag
ijk ingen
Ġon gew
Ġop brengst
Ġz ag
Ġ3 09
ĠC lip
Ġonver meld
Ġel ke
Ġrec idiverend
ĠOver liggende
Ġopge zet
Ġimplant aten
Ġlees baar
Ġwet ensch
l ingen
n stige
ol lab
on ische
us h
ot horax
un ktie
Ġ15 0
ĠControle mammografie
Ġbloed bijmenging
34 3
218 08
Ġbevat tende
Ġspier laag
Ġkapsel ruptuur
Ġili aca
Ġoper eren
Ġwig vormige
ĠSling eland
Ġplak jes
ĠBev indt
, -
A ctueel
E erst
H uisarts
` .
b roek
s creen
et erd
Ġma l
is se
Ġre Bevindingen
Ġh ang
li st
Ġd aarachter
ic eerd
om e
Ġaf h
ĠH uidexcisie
ĠMammografie Bekend
ĠMammografie Sparende
Ġj ong
Ġal ien
Ġtumor locatie
Ġar tr
Ġafwijkingen Conclusie
Ġster nu
Ġgegevens Links
Ġgegevens Palpabele
sk lachten
Ġcortex verbreding
rand end
Controle X
Ġnon mass
Ġenhancement Tumor
mass ief
Ġap paraat
Ġmacro verkalking
enti Ã«le
Af spraak
Ġfijn spikkelige
Hier naast
Screening Ter
97 03
Ġdis locatie
ner s
VraagstellingSN P
216 02
217 01
217 02
Ġ217 01
Ġ217 02
Ġ218 08
co il
Ġkarakter isatie
Ġmri Indicatie
Ġvolum etoename
av iditeit
Ġ311 5
Ġ211 00
Ġ204 05
ĠHuid intrekking
Ar tefacten
scho ten
Ġpet it
ĠCrani o
Bl ijft
ka zia
ĠDruk verband
ĠHomogeen Tumor
Ġonderquadrant en
Gec ompliceerde
ĠKra mer
leeg zuigen
Ġmicrocyst ische
ĠDo uglas
ĠMil de
Ġbloedverdun ners
Ġinterstit ium
schrij d
Ġhypot hyre
Jac queline
Ġschrij ven
Ġartr itis
B C
L I
U terus
ĠB ilaterale
ig heid
ĠS e
Ġecho verslag
Ġwijz e
lo ze
diep e
Ġgeres orb
Ġect opisch
Ġprogesteron receptor
Ġindi v
t ur
Ġd uctectasien
ster kte
ĠC hirurg
ĠO edeem
ap h
ex istente
Ġverm oed
Ġbest raalde
26 2
St ans
75 2
Ġlong tumor
88 2
ĠSec und
ĠSegm ent
Ġmy el
Ġmicroscop isch
ĠCaud ale
chirurg ie
Ġhemorrag ische
Ġgespec ificeerd
Ġwetensch ap
ge k
ĠT emidden
Ġvoor malig
Ġcor rigerende
Ġmult ifoc
ĠOnder scheid
osition ering
ĠRest afwijkingen
Ġrechtslateraal boven
Ġoverweeg t
lar iteit
IG O
Ġprostaat carcinoom
h ode
Ġm uc
ra m
Ġk ruin
ver wij
In ter
ul s
ĠW aal
Ġverander t
Ġ19 75
yste us
55 2
Ġmeld ing
Ġti ental
) )
E Ã©n
O V
U l
f de
i Ã«
l y
o z
z ijds
ge deeld
st ase
ar tefact
Ġp u
it zer
Ġmamma punctie
ver meld
ĠC ro
Ġuit gest
ĠV olum
99 1
Ġverkalk inkjes
Ġ19 6
ĠRetro mammillair
Ġcur ven
Ġbobbel tjes
centr ische
stabie le
ĠECHOGELE ID
Ġperipro st
Ġgebeur d
D en
H en
R oos
T umark
V or
a j
d am
j r
j arig
m orgen
p oging
Ġl Indicatie
Ġl ymphangitis
Ġo es
ing ap
Ġc lidnt
on n
Ġw arme
ĠB urg
Ver t
Ġaan pal
ig reerd
ver k
ĠP aclitaxel
ĠD EN
Conclusie Voor
ĠC YTOLOGISCHE
ĠL u
ĠL etrozol
Ġmicro satelliet
gen er
Ġj ull
ĠIn groei
Ġweefsel pijpjes
Ġrechter kant
Ġradi ot
ĠR ooij
ich em
Ġfibro cysteus
ĠVerslag Opnamen
Ġvrij dag
Ġchemotherapie Verslag
gro tendeels
13 11
ĠDi agnose
Ġsneldiagnostiek Sinds
punctie Niet
Ġtussen in
Ġlaag st
FDG F
ĠLoverenRadioloog C
vestig d
Ġi hkv
86 1
Ġlymfebaan tjes
yt he
Met abool
216 01
Ġonderscheid baar
Ġ216 01
Ġ216 02
217 00
217 06
Nx Mx
ĠUn ilateraal
Ġ217 00
An s
kamp Geboortedatum
Ġdec lipse
Ġ311 3
Nieuwe gein
Mar ion
Ġcur v
Ġ209 13
Ġbil obair
Ġ207 02
Ġmaag carcinoom
ade md
ĠSoykan C
OP NAM
ĠDan ielle
Ev entuele
thet isch
Ġpopcorn achtige
Ġrestklier tjes
Ġscintigrafie Uitvoering
Region aal
ĠGem ixedOedeem
Ġabce dering
Ġcan cer
ĠPr ins
Ġverwijs brief
Ġnal aten
Ġisth mus
ingap ore
Ġjull ie
T he
Ġt ien
ĠC ir
pel d
Ġtumor vrij
lu x
hoog uit
Ġlever haard
oort gelijke
Ġhem it
ĠHel icobacter
aort ale
ĠDes ondanks
ĠBel gie
Ġgefotogra feerd
eek sel
B uik
Ġ RA
Ġb ifocaal
Ġm ol
Ġp urul
ol ithiasis
on voldoende
Ġg aand
Ġsch ijn
Ġgema kkelijk
na v
Ġ19 77
tocol laire
Ġokselklier tje
tumor ale
75 8
Ġbloe dige
stoornis sen
Ġzogenaam de
B oer
c opathie
Ġm ens
ct asie
ss ale
Ġz ittend
ĠMa astricht
pel as
ap en
ce uze
af stand
Ġnodu lariteit
yst olithiasis
Ġinh omogen
ysi pelas
95 3
ox apen
Ġdoorst ij
Ġinvol ut
ĠGrie ken
H al
L ong
b ijz
f rag
re actieve
di x
ran te
ĠD a
Ġsp anning
Ġhe cht
Ġmee gestuurd
ĠUit gesproken
Ġopvall ender
pl ooien
infectie us
47 3
43 2
ll y
Ġscreenings mammogram
achterwaar ts
Ġclaustrof ob
Ġadip ositas
Ġgend ra
Ġhisti ocytaire
ĠVolst rekt
" ,
W eke
a i
k arakteristieken
o mmunic
ch y
Ġeen zijdige
ĠB P
ĠB rug
Ġvoor gesteld
ĠL AT
ĠVer kleining
ĠI p
Ġhuid laesies
her halen
Ġsp in
Ġsp eeksel
Ġer uit
uis man
na uwelijks
Ġbeeldvorm ende
Ġ19 73
Ġexcisie preparaat
Ġmede gedeeld
Al rijne
86 9
ĠAn al
Ġstern otomie
Ġha ast
Ġmamm obespreking
ĠTechn ische
-) (
Ex tra
oei zaam
betro f
Ġkraakben ige
Ġhypert ro
L ast
O fficiele
P at
W ill
b ine
f initieve
m gr
w o
ma rie
Ġc osmet
Ġin pas
Ġt intel
it us
le boog
Ġaf gelegen
op or
ds uiker
Ġf ell
ĠA I
and acht
Conclusie Na
ĠO liecyst
ĠMammografie Mastectomie
RI VE
ĠW ijk
met risch
Vraagstelling G
On regelmatige
ĠZ n
Ġel leboog
ĠR andnormale
ron kel
Aan bevolen
08 204
08 203
ip per
99 03
IE valuatie
Ġcon text
Ġ21 007
ĠAf w
Ġrand verkalkingen
Ġpre ok
ĠBruiningRadioloog C
mer kelijke
ri dium
Ġ07 8
Voor af
ĠLoverenRadioloog S
Ġinter mitterend
205 005
ĠgeÃ¯n filtreerd
ĠAn derhalf
216 07
ĠVegt Nucleaire
Ġ216 07
Ġgec ollab
Ġ217 06
Ġ218 12
Ġoedeem vorming
wer ken
219 00
219 04
219 06
En ig
Ġ219 00
Ġ219 06
ĠOksel klierdissectie
Nog maals
gerek te
Ġuitst raling
094 02
20404 7
20406 4
Ġmed ische
Ġ-------------------- --
Ġdichter bij
chirurg ische
Ġgeploo ide
ĠSatelliet laesie
Ġcystewand jes
Ġhuidkalk jes
Ġsternoc leid
Ġwacht lijst
ĠBELLIN IEvaluatie
Hui dige
Ġventr olaterale
ĠRegion aal
ovaal vormig
To ch
Ġgeresorb eerd
Ġinpas bare
D EN
w oord
Ġb ent
Ġb anen
Ġna s
ĠO or
sch ors
ĠV olg
Ġbron chus
kom end
ys eem
pl oo
hy l
Ġtrans it
?? ?
Ġposition eren
Ġdia conessenhuis
Ġafd rukken
orresponder end
P ipelle
c lavicula
li k
Ġon betrouwbaar
Ġaf getast
Ġst ent
Ġlymfeklier vergroting
ĠR iv
do et
Ġsubc apsulaire
pro fiel
Ġborst tumor
kom ende
Ġwer k
!! !!
ieren land
UMC U
musc ulatuur
ĠToe stand
Ġmanif e
G ooi
di agn
ĠM er
Ġz egt
ĠW IDE
Ġged iss
ĠPre c
nem ing
inf ra
klein cellig
Ġplaatsel ijke
infiltr erend
Ġsubmandib ulair
Bron ovo
Ġtij delijk
b oom
Ġa dem
Ġ1 02
Ġt we
Ġop n
Ġklier b
Ġklier gebied
sp inaal
ĠO L
dig heid
Ġint ro
Ġ7 9
ob ulaire
Ġto on
Ġas diameter
Ġborst vergroting
Ġlong hilus
aag d
Ġskelet metastasering
219 05
Ġman dib
ĠMedi o
Ġventro caudale
Ġnier celcarcinoom
Ġtrip ple
Ġhyperecho ische
onscherp te
Ġtransp ort
Ġvreemd lichaam
l os
p oel
Ġ dere
een maal
ĠP as
Ġecho controle
rac lavic
Ġcomp l
ei lig
Ġlaag gelegen
Ġprojecte erde
Ġsiliconen materiaal
Ġjodiumza ad
cut is
lo ad
Lang s
Ġmy omen
Bl oederig
ĠGec ompliceerde
Ġglaas je
Ġparac ardiaal
ĠEpitheel proliferatie
oep ele
Ġeier stok
B everwijk
C hrist
E lly
a spire
f oll
s ymmetrisch
an Geboortedatum
el bine
or elbine
Ġl inguini
og ere
Ġb undel
der Geboortedatum
Ġk o
Ġmamma amputatie
Ġmamma ogram
ĠG eer
end in
Verslag mammogram
ĠD ot
ĠD ekker
ĠH MC
ot ax
In homogene
ĠS usceptibiliteit
ste in
ĠMammografie Rechts
ĠW ier
ĠEcho arm
Ġst orm
Ġst rak
Ġmedi c
elling he
ter Geboortedatum
Vraagstelling re
Vraagstelling bij
Vraagstelling Sentinel
ĠVer dw
ĠZ and
ĠZ uyderland
ĠI j
ĠI kazia
ep en
06 04
Ġsitu Indicatie
Ġrest collectie
Ġli Ter
ĠHier mee
comp ositie
ĠWesterveld Hoogachtend
Ġsneldiagnostiek Klinische
Ġsneldiagnostiek Mammogram
Ġactie ver
Ġversch ijn
Af metingen
ĠMann Dr
205 016
Ġgesch ieden
Ġrisico Indicatie
Ġhistologie Verslag
215 08
Ġ215 14
217 12
Ġ217 12
Ġdruk gevoelige
Ġgedifferentie erde
219 12
thor acaal
Ġ219 12
Ġ219 05
An gel
Sub pectorale
Ġgelu kte
Ġ206 03
Ġfeit elijk
Ġaanvankelijk e
Ġmic or
igm oÃ¯d
Ġstro ok
OP D
Ġtromb oflebitis
ĠBDZ Onderzoeksgegevens
ĠHui dig
linker axilla
ĠSm ellinghe
igert eller
nanocoll ond
ĠCur ie
Ġpartij tjes
Ġbeweeg t
Ġtest is
Ġinzend ing
ĠAnna ziekenhuis
wijf eld
G ra
S B
m ed
Ġh angen
ige xcisie
ĠGro f
Ġmel anoc
Ġoverzicht s
Ġmaxilla ris
Ġsubare olair
h s
p t
st oken
Ġ( "
Ġper operatieve
sma cel
ilicon e
Met astase
fra ctuur
abet es
m oid
v inden
Ġv oet
Ġin ductie
Ġh ij
Ġaan do
ib it
ier espons
Ġlymfeklier pakket
Ġopz ij
Ġpre paraten
Ġgem engde
57 1
diep te
Ġcelgroep en
Ġleeggep uncteerde
ĠGrieken land
T oe
a spect
b is
w ijde
li ke
ĠM RA
ĠB ijna
ĠS LA
gev ulde
Ġom vat
ĠAf gesproken
ĠDaar entegen
lokalisatie s
Ġden kt
46 1
57 9
cost aal
Ad nex
Ġpaar s
cide erde
Ġspre idend
Ġlag ere
ĠDun ne
Ġepithel ial
Ġtegelijk ertijd
ĠSLA Z
O ud
P ol
b t
i z
i atief
Ġo ost
Ġs oft
ĠH epat
Ġf il
Ġklier metastasering
ĠC ollega
ĠL at
Ġr ol
ĠN anocolloid
ĠDe el
ĠDe formatie
uit er
of ag
Ġster eo
ron den
Ġafge wacht
97 1
Ġabces holte
Ġvl gs
mid dell
Ġth romb
ĠLoc ally
MA RGINS
Ġdonker bruin
Ġstij ging
Ġgere ageerd
IK KE
Ġmit ralis
Ġfibrine draden
Ġmasth opathie
2 2004
D ag
G eldrop
P au
R ia
V lotte
W aar
b org
f orse
k ins
Ġ cht
Ġ itt
er sGeboortedatum
st reng
ra am
Ġ2 2004
Ġrecht e
ĠB orderline
ĠG oud
ĠG FR
ss o
Ġrechts Echo
Ġaf tekenen
ĠT immer
ĠD orsale
ĠH L
Conclusie Unilaterale
ĠMa akt
ĠS olitair
Ġuur Indicatie
ve x
ĠMammografie MRISC
ĠMammografie HBOC
os a
Ġplaat sten
Ġmammae Second
Ġmammae BRCA
ĠVer volg
Ġrechter lever
Ġpost chemo
ger ichte
09 102
19 34
Ġsol ied
99 01
Ġcon ne
Mamma prothesen
Ġchemotherapie Vraagstelling
ĠSt am
Ġbes list
Ġ31 00
Ġokselklier resectie
punctie Second
Ġml o
Ġzal f
Ġradiologie Drs
Ġro epen
Ġess entiÃ«le
216 11
215 00
215 16
Ġ216 11
84 8
Ġ215 16
217 07
217 13
ĠOnder water
Ġ217 07
Ġ218 07
An dere
Ġzwanger e
Ġ211 14
Mar ja
214 12
Ġ213 03
Glad de
Ġ212 07
ĠSoykan J
Ġplomp ere
ĠOv aalvormige
ĠAankleuring scur
Ġbult jes
lang zame
Ġ203 01
Ġsecur marker
ĠHegemanRadioloog A
Ev ident
ĠDes alniettemin
ĠBol vormige
Ġaankleurings fase
Ġtransson iteit
Car ol
ĠKon ing
cir ca
Ġenorm e
B een
e do
en ch
ol oge
Ġw ait
Ġs ag
Ġafwijk inge
ĠL OB
Ġdoor braak
Ġder mis
Ġaden oc
ula res
gra fie
overeenkom stige
Ġcom edo
angio invasie
Ġcribr iforme
Ġmanif est
b ran
Ġde form
be grensd
Ġ14 9
Ġbel ichting
ech ogeniciteit
ĠWel licht
Ġphyll oide
aanvull ing
Ġther apeutische
Ġendometri ump
Ġlaatst genoemde
Ġintest inale
Ġiet wat
Ġmelanoc ytaire
H C
p ende
w ond
is on
Ġp lastisch
Ġh oort
Ġw ater
ĠH R
gev end
ib rogland
Ġla cterend
ter ende
Ġtot o
du b
uit gebreide
ĠJ e
Ġhyp ogene
ĠTo ont
Ġtra che
okt ober
represent atief
Ġpleom orf
Se qu
O l
Z iekenhuis
b ot
m ot
or aal
ĠM oeizame
ĠO ssaal
). (
ut ane
Ġdoor gankelijk
Ġmin st
Ġob stru
Ġep ig
84 2
56 2
48 1
Ġman ip
Ġste un
Ġschijf je
Ġstud ies
egel ring
Ġgediss ocieerd
B dz
h ie
u eerde
Ġl eg
Ġde k
Ġge ste
ĠP art
ven en
Ġte samen
Ġj onger
ĠGe involueerd
th y
mmet astasen
AM IL
Mamma naaldbiopt
pre ken
Ġspiraal marker
Ġbuiten zijde
Ġlastig er
Ġstreep je
Ġtub ul
Ġman ier
098 03
Ġrechterboven arm
Ġtaa ie
Ġlif t
ĠUitgangs foto
omet rium
Ġgrav ida
lor ide
9 202
G ek
S uz
i end
l ange
m evrouw
r er
s up
s uccesvolle
en hancement
al ie
Ġl ing
Ġm so
is p
Ġbe oog
Ġs on
ic ip
Ver doving
Verslag MRI
ĠT FE
ĠT WK
ĠH D
ĠH endrik
Ġf ast
sp ecifieke
Ġafwijk inkje
Ġ3 125
ĠL oeve
ĠMammografie Sterk
ĠMRI Verslag
ĠN U
Vraagstelling metastasen
ĠI om
ĠI ps
aan w
Ġlymfklieren Conclusie
09 203
09 101
Ġan a
Ġvervaardigd Geen
Ġtomosynthese Geen
ĠVerslag Peri
extremiteit Status
Ġverb eterd
14 66
Ġwij dere
Ġterug ge
Ġterug geroepen
Ġklierschijf rand
Ġ07 3
Ġsneldiagnostiek Overname
Ġad juv
Ġinjectie s
ĠOver eenkomen
Ġ214 101
Ġstudie protocol
Post procedureel
Ġpla asting
esp ectievelijk
35 9
21 01
215 14
Lood kogel
Ġ215 08
218 07
Ġ217 13
ĠVro ege
Ġ311 9
str id
Ġ213 08
099 01
099 00
Ġ206 02
20404 3
Ġlact erende
Ġradiologen overleg
Besch reven
Ġjeuk ende
Caud omediaal
ctu ele
ĠGev orderde
crani ocaudale
omet ast
Omvang safname
Hypermetab ool
Ġsy mm
Ġsim pel
Ġmig ratie
matie k
Ġtherap ierespons
Ġpow er
ommunic eerd
aspire erd
A F
p ort
in odulair
ma p
Ġa a
der tijd
is h
ar ia
ĠG ynaecomastie
Ġz egelring
oc yt
Ġpun tie
ib are
ĠVer storing
astas eerde
ĠHier onder
mer g
Ġdef initief
Ġvloe ibare
Ġtop klier
inus cuul
Ġurotheel celcarcinoom
F S
h en
la an
Ġin nemend
ct us
Ġs ne
Ġop werken
Ġ( =
ap lastisch
voor ste
Ġdors obasaal
Ġgel ige
Ġhoe st
Ġspec ificeren
B ot
V agina
t rac
z us
Ġo l
on itis
Ġbe eldt
Ġs lap
Ġs anguinolent
Ġg y
ĠT op
Ġf lat
ĠC alcificatie
Ġr en
Ġtumor noduli
Ġer ysipelas
ĠJ aar
Ġvet eiland
Ġwe in
Ġwe ig
to matische
Ġuitge zocht
Ġsec ret
76 0
riet erige
Ġcort ic
ĠDie per
ĠLig t
r ich
ĠT I
ĠD oet
ĠH IPEC
ĠS J
ĠW ES
Ġonder kant
ab y
ĠV AB
Ġlymfklier dissectie
Ġcaud odorsaal
Ġpara spinaal
13 08
ak ke
pen dix
Ġdysp noe
ĠIN JECTIE
Ġaanvra gende
ĠNeg atief
h ad
Ġn iks
Ġmet as
Ġop lopende
ĠE GFR
ĠA leman
ster ectomie
os u
ĠN ET
ĠAf wijkende
ĠEen malig
ass poel
ĠOver leg
Ġro utinecontrole
ĠPer ifeer
216 13
Ġcel rijke
Ġgedrain eerde
Ġinfectie uze
Ġmelk achtige
Ġmic rolob
ĠLaag gradig
fiel d
Ġpneum othorax
Asp iratie
Ġpneumon itis
cur ettage
Ġcardi ale
schill ende
atern ale
B ou
C IN
C BA
E EN
M ulder
V ro
b oer
c uspect
l ogisch
t oegenomen
w ijn
y d
Ġ ...
in y
Ġv h
ra ets
Ġge scande
Ġge igerteller
Ġre Mammografie
Ġn emende
ro de
Ġ2 2005
Ġ2 2003
ic laviculaire
Ġmamma Echo
Ġz en
Ġz iek
Ġz omer
Ġlinks In
Ġlinks Op
ĠP unt
ent je
ĠH orst
In eke
oe id
ĠC OPD
Radi ologen
ire cte
ĠW le
as ymmetrie
Ġst x
Ġdoor lopende
Ġmammae Controle
he ij
Ġtumor Verslag
Vraagstelling Sentinelnode
Ġafwijkingen MRI
Ġtwee jaarlijkse
Ġcyste complex
ĠR uyter
08 202
ex ie
Ġger etra
Ġafge zegd
Controle foto
min uten
LA ST
ĠMamma carc
Ġpathologie Verslag
ĠX mg
Ġaange prik
Ġ08 00
ĠPol s
Ġinjectie plaatsen
Ġpijnlijk er
Ġcyclus gerelateerd
Ġvaat clips
ĠTo v
ĠLBQ Indicatie
Ġwand en
205 008
205 058
Ġbloed glucosegehalte
Post procedure
ĠMult icentrische
mee ster
ĠPre sent
Ġafw Verslag
Ġuitwass en
Ġ216 13
217 14
Ġ217 03
Ġ217 14
Ġbot laesies
Ġsept ale
Ġconflu eren
Ġ219 04
Ġscho t
Ġmargins T
cor onaal
Mar gr
Ġ204 02
097 03
Ġ205 04
Ġdrain eerbare
094 03
093 03
ĠLinker borst
Ġaflijn baar
Ġepidermis cyste
ĠBE LAST
Ġ3134 27
ĠKo ele
Ġgast ro
aara an
Ġvag elijk
ĠHuizing M
activ eerd
ĠLig gende
collega e
Ġdien overeenkomstige
ĠHypermetab ool
afgrens bare
Ġsterotact isch
Gr ens
SG I
dru kking
Det ail
Ġgedisloc eerd
Ġater osclerose
ĠFN H
Ġindiv iduele
dsuiker gehalte
Ġbeoog de
ĠSJ G
N P
o oom
gev al
99 7
Ġ17 5
Ġsc oliose
Ġtrans missie
mangi oom
lar icum
Ġlum en
Ġfo ssa
Ġalien um
y e
re ig
ĠV orderende
aan wezig
Ġto x
min stens
verdi chting
ĠHuid markering
Ġrecon stru
Ġoestrogeen receptor
Ġtraumat ische
Ġmanife ste
u aal
w or
Ġb ull
Ġbe zien
Ġs am
Ġop ening
Ġmicro bi
Ġger uptu
od ulus
Ġterug gekomen
Her haalde
17 1
tepel zijde
ĠWel ke
Ġza ken
Ġmaag resectie
ider mis
ĠCut ane
ĠDuctectasie en
ĠEven min
Ġdoorlaat baarheid
Ġserr ated
C WZ
m entin
p athie
Ġre ag
Ġw oord
Ġg ol
Con sult
Ġkn ik
Sp ect
Ġfra ct
ure erd
Ġbil ateraliteit
Ġle zen
und us
Ġconcre ment
feb r
Ġpapil oom
Ġclaustrofob isch
ĠOL IGO
smacel mastitis
Ġepig ast
I H
K roger
O D
v oel
ma m
Ġp ijl
ĠT elefonisch
Ġte en
and aard
ĠO u
Ġmicro cyste
ier s
Ġover gangen
th eroomcyste
Ġzijn er
ca v
kom st
Ġloc aliseren
29 1
Ġges ub
mult ifocale
Ġax ilaire
Ġmamm carcinoom
ĠAd ditioneel
Ġacht tal
hist ologie
Ġmicropap illaire
ĠThorax wand
ĠCel arm
bijz ijnde
2 2008
2 2005
2 2003
B et
F ioole
H eer
M eppel
N mi
S tre
S imone
S alvage
S vp
W hole
e ist
l ymfadenopathie
t ransplantatie
x a
ge metastaseerd
Ġb aseline
Ġm w
Ġm ooi
Ġp CR
Ġge activeerd
Ġw kn
Ġd bz
Ġs ynthese
Ġon middell
cho va
ĠP t
ingen Verslag
Ġmassa s
ven bevindingen
un den
Ġvoor dat
Ġboven gedeelte
ĠL ie
ĠK ooij
ĠMammografie Patidnt
Ġbij passend
Ġdi f
ut aan
Ġbiopt Echo
Ġmammae Verwijzing
Vraagstelling palpabel
Vraagstelling wle
eg a
ĠR esponse
du cte
ĠAan getoonde
Ġli Bevindingen
Ġchem oth
Ġuitwas gebied
ctiv atie
ĠDi agnostiek
Ġwer kt
ker k
ker Geboortedatum
Ġexcisie Indicatie
Ġtussen liggend
Ġbdz X
Screening MRI
Ġscan nen
205 004
illi metrische
98 03
maker s
ĠKr impende
215 05
agitt ale
89 2
Ġgec ommuniceerd
Ġ215 00
217 03
ĠUn i
ormalis ering
me ijer
Ġ219 09
Ġhard c
Ġresidu eel
ĠBrouwer Nucleaire
Ġ211 01
Ġ204 01
Ġcp Echo
095 01
095 00
Ġonru stige
famili ar
Ġ205 02
Comp act
Ġmama ca
Ġhem i
Ġhem od
ĠRegel Conclusie
snel le
lang ste
ĠTwist maker
neo adj
ĠBaar sNucleair
Micro calc
Ġkie st
Dis seminatie
Ġmeld de
Ġtrochanter massief
ĠHypermetab ole
Ġcoron a
Ġzorg t
olo ze
Verk rijgen
ĠKuij pers
ĠGlob aal
ĠLoeve zijn
P unktie
Ġbe grijp
ide erd
Ġdoor lichting
CR EEN
ĠOnderzoek en
Ġex on
Ġpatient en
ĠHer haald
Ġmicrocalc if
ĠOm gevend
elk aar
Ġker atose
horm onale
CREEN ING
c up
k kel
w eef
an ce
st eld
Ġs qu
ss els
op atisch
Ġf loride
Ġte veel
Ġ- )
ĠVer anderd
Ġcomp art
ĠMamma print
Ġinh ibit
66 1
aure olaire
kk ende
Ġoste ol
C la
c i
c lassificatie
Ġ !
Ġz gn
Ġlinker lies
ion ale
Ġ14 7
Ġsle chter
bre idend
Ġgest oten
49 1
202 1
Ġneuro fibro
Ġmes ot
Ġvoort gaande
Ġtuss enscho
H istologie
n odulair
Ġ RI
ge dra
it z
Ġop aciteit
ĠK erk
lu g
ĠOn regelmatige
ow ies
Ġnaast gelegen
25 2
kw am
ulm onaal
Ġext ens
entro mediaal
Ġcompart im
owies o
C p
Z ou
l iek
an de
ro e
Ġs oepele
ĠB asaal
Ġe mf
Ġaf vo
ĠC o
ĠC lips
ĠO ri
Ġonder in
Ġtumor load
ĠV aste
uw de
yn droom
Aan wijzing
Ġfibro s
voor gaand
Ġneg ative
Ġthoraxwand resectie
Ġben inge
88 1
litteken weefsel
Ġinit iatief
Ġend ocriene
sub straat
093 01
Ġhiertegen aan
Ġ-------------------- ---
Ġklass ieke
ĠGev olgd
Ġide m
Ġmislu kte
Ġverl oren
lok aal
Ġschilf ering
dr ietal
Ġposttraumat ische
Ġintest inaal
Knobbel tje
ĠNAALD BIOPT
ĠEnd opro
ĠGek omen
ĠSchwe itzer
ĠOPNAM E
Ġmens es
ĠLAT ERA
% +,
A strid
B lijkens
E mmen
H il
L ig
L uc
S kelet
T isN
V eld
W eer
Z estal
Z IG
h ouwer
in spuiten
el Geboortedatum
al on
et ie
et ale
der ende
Ġn acht
Ġw assen
Ġw aarachter
Ġd acht
Ġ2 2008
ĠG elegen
Ġg an
Ġrechts Bevindingen
ver pleegkun
op etale
ĠT j
ĠH il
ĠH em
In homogeen
Con fluerende
cl one
Ġte kens
Re ductie
ĠK oo
ĠMammografie Cysteuze
Ġdi agonaal
ĠW ens
Ġst ag
ĠGe dicteerd
Ġmammae Pijn
ĠVer heij
On gerust
Ġrechter thorax
th uis
verstor ingen
Ġok sle
Ġachter blijven
Ġgegevens recidief
06 1
ĠBOB Indicatie
Ġsentinelnode Handtekening
Ġ13 15
ĠLooRadioloog B
Ġborst Indicatie
Ġfibroadenoom Indicatie
Ġva der
Ġterug komen
rip pel
ĠMatig Bekende
ou ma
Ġ214 075
Ġ214 077
oster ieure
Ġpart ner
ĠgegevenscT isN
47 0
ĠROLL Verslag
Ġgem igreerd
Ġ217 08
ĠFibro cysteuze
ĠHodgkin Indicatie
219 11
219 09
219 14
FU X
Ġ219 14
An na
Door lopend
ĠSub pectoraal
Ġ213 12
097 00
099 04
Ges laagde
Ġ205 06
ĠScho uten
Ġlijn tjes
ĠST ART
Rechter axilla
Ġkl ontjes
ĠCh T
Ġsubtractie beelden
olec ystolithiasis
Ġcar boplatin
Ġvetlob jes
Pa cemaker
Ġoste opor
Ġdra den
rechter axilla
Ġrontgen lokalisatie
Ġligam ent
Ġ094 02
Ġbew ust
Ġkopie dn
Car la
Satelliet laesie
ĠSling erland
ĠVis ion
Anne marie
ĠGa mma
Ġbeenmerga ctivatie
Ġmammog r
Gest art
Vert icaal
Ġradiot racer
Ġaangeprik te
Ġ rap
ge s
ab iliteit
Ġpr int
ĠDaar voor
Ġdicht heid
LOK ALISATIE
kapsel d
Ġspre ken
gressie ve
WIJ ZIG
C LA
M orbus
Ġ ),
en burg
at otische
Ġb ro
Ġm obiliteit
Ġw igexcisie
Ġk euze
Ġaf ter
ster eot
ĠS h
ĠC WK
ĠL engte
Ġuit druk
qu or
Ġsubc laviculaire
Ġont vang
enti us
Ġversch een
Ġvert on
Ġpol y
Ġlap ar
ĠEven wel
ĠFibre us
R and
g ingen
h t
el ig
Ġon belaste
Ġk el
ĠA mer
ĠV el
ĠZ elfde
dig d
ex c
Ġwaarschijnlijk heid
entie le
bel asting
associe erd
ĠToen emend
bor ing
Ġhoe ver
Ġrecont ructie
ĠREC IST
Ġheft ige
. ---
M OQ
d urende
l ere
p ressie
ma akt
an cy
Ġh inder
Ġop nemen
ee ch
ver sie
sch er
Ġdoor sneden
Ġbev olking
zien lijke
af spraak
Ġju veniele
gebied je
Ġlich en
collectie s
lap s
Huid stans
ager ings
Ġretromamm illaire
Ġblaas carcinoom
Ġnier cyste
ĠAug mentatie
Ġbewegings onscherpte
West fries
Ġmesenter ium
Ġmammacar inoom
D us
Z es
f er
h m
h oorn
p aar
w are
Ġv r
Ġv on
Ġt ent
ct um
ĠL am
ok aliseerd
spre k
ron ische
Ġgelob t
oop t
pre pectoraal
98 01
21 05
Ġgeb roken
Ġverkla ar
84 1
218 15
inf ect
Ġor aal
Ġ212 11
best raald
ha martoom
Ġbez orgd
Ġmastop atie
Ġec i
neo adjuvant
Ex terne
Ġspont ane
Cath arina
Ġperitone ale
Ġeindig t
ĠEpitheel atrofie
Bel gie
ĠBP SO
2 201
E igen
N micro
S on
S olitair
a ff
d oppler
k raam
s li
v reden
y o
Ġv w
Ġo ep
Ġa ctuele
Ġw ijkingen
ro o
Ġ2 201
Ġlinks boven
ĠP lukje
ĠT ruin
ctie ve
ĠK re
ĠK arta
ĠW ijn
ier end
Ġlymfeklier metastasering
Ġvergelijking smateriaal
Ġdoor gaan
Ġmammae Indicatie
Vraagstelling zie
Vraagstelling St
ĠVer st
ĠOn rust
ĠZ it
ĠR od
Ġer ythe
Ġgegevens Bilateraal
ĠOp en
ev eld
Ġch ipsoft
Ġch eck
Ġli Mammografie
Ġbijz ijn
Ġbeh oorlijke
Ġwe ekend
Ġbesch adi
Ġchemotherapie Evaluatie
Ġsnel beoordeling
ĠConclusie Sentinel
Ġged ra
Ġged xcideerd
lan teerd
Ġbre in
Ġlaag cervicaal
Uit sluiten
Ġheden ochtend
Gro f
ĠSch eper
ĠFran ken
97 02
Ġ314 18
Ġsec unden
ijer s
Ġkey images
Ġ313 79
Ġsiliconen prothesen
Ġ218 15
Ġ219 11
Ġontbre kende
ĠBl om
Huid markering
ĠMultifocaal Afmeting
ĠHe uvel
Ġ312 4
Ġ212 05
Ġ212 13
Ġ208 03
ĠVaat wandcalcificaties
ĠXMG Indicatie
Ġverminder ing
uij t
ĠvariÃ« rende
Ġsyn ov
ĠEl ker
Ġdoorge ademd
Ġexpander s
apeut isch
ĠSint rom
argete chografie
Vaat wandcalcificaties
Ġdetecte ert
Ġheup prothese
lobulair carcinoom
Ġtoedien locatie
Ġvarid rende
Ġsternoc laviculair
ĠHuizing K
Ġtalgklier tje
ĠTom ogeleide
Ġfotopen e
Hypermetab ole
Ġmer ken
ĠKuip er
owngra ded
Ġimmuunhistochem isch
ĠVerme ulen
Ġopw ek
Rester end
Ġgecorrige erde
ĠRee el
Ġconne ctie
ĠKarta chova
d orsale
f s
in ie
Ġl og
Ġp sa
Ġpun ktie
ĠUit sluitend
Ġokselklier tjes
necro tische
Oksel schildwachtklier
medi astinaal
Ġmy x
Ġgeis oleerd
Ġonv olledige
Ġrer esectie
/ /
R el
t ijdig
v olledige
Ġa gressieve
Ġge imp
Ġd oel
ĠE lisabeth
Ġdensiteit s
waar dige
27 0
27 9
Ġgedi ff
aart oe
Ġexter na
Ġexc uses
laag gradig
Ġgra d
Ġcalc if
gewricht en
ĠVerkalk te
Ġker nen
Ġonderbel ichte
Ġactin ische
B ra
f em
m ing
m elanoom
u iteinde
ĠB IOPSIE
ne ar
gen oemd
ĠOn rustig
Ġ10 8
Ġterug vinden
An dreas
Ġgra m
ĠKennemer gasthuis
ĠGevoel ig
idie ven
Ġcommunic atie
Ġwein ige
Ġweig erde
N U
o ir
p os
v atting
w rat
or etisch
ra den
te zamen
Ġge amp
Ġver if
Ġd ur
Ġs l
Ġmamma pathologie
ig o
ĠC ore
ĠC ervix
Ġpun cte
Ġdi abetes
ut phen
Ġzichtbaar heid
Ġpa kk
Ġgen ummerd
Ġ17 4
ER D
Ġprothese plaatsing
ĠVoor namelijk
Ġresectie preparaat
odu le
Ġkapsel verkalkingen
Ġcol laps
ĠAlle s
Ġle asies
cer erend
activ atie
ĠVa cuum
atyp ische
Ġgetrombos eerde
Ġpyl ori
Ġendometriump oliep
ĠTI RM
A den
T E
c un
g de
l ek
Ġge bre
Ġge sprek
Ġh erp
Ġtumor localisatie
ĠR oermond
ĠF ijn
Ġer voor
orst atus
Ġbeg int
Ġkor ta
St rik
ĠMult ifocaliteit
Ġuitgang sscan
Ges ch
Ġrecon st
Ġzh s
ĠWissel ende
ĠTECHNETIUM INJECTIE
Ġzen uw
Ġgesub traheerde
D ynamische
K e
N ic
P ositie
S yl
d ynamiek
j ens
n s
s ructie
v and
al ing
at ic
ge sie
ge prikt
ol ds
Ġre Ter
Ġre uscelreactie
Ġh oud
ink els
Ġw ax
Ġbe sluit
Ġd uc
derz ijds
Ġk uit
Ġmamma Uit
om slagplooi
ĠP ut
ĠE F
ĠE c
un ne
ĠA andacht
ĠS al
ĠS kelet
ĠO fficiele
ĠK am
ĠMammografie Risico
sch ul
gen ummerd
Ġmammae Evaluatie
Ġal zijdige
Ġmammografie Sinds
Ġmammografie Verwezen
Ġmammografie Zwelling
Vraagstelling t
Vraagstelling Zie
ĠVer kleinde
ĠR ol
Ġasp ire
form ine
ger Geboortedatum
Op vragen
Ġgegevens St
Ġgegevens SO
ĠAan getoond
Ġgroot se
Ġher stel
Mamma sneldiagnostiek
Ġ18 9
Ġob tur
ĠConclusie Geen
Ġachtergrond kleuring
Ġlever venen
ĠBruiningRadioloog B
ĠControle opname
Ġsneldiagnostiek Bewezen
Ġ06 4
Ġap ocrien
Ġovaal ronde
ĠUit gevoerd
ĠAl tijd
Ġbehandeling Indicatie
atidn ten
Ge clusterde
Ge involueerd
Ġchemo T
Ġmo do
ĠPost ma
98 02
Ġocc ip
Ġmulticentr iciteit
Ġbuik probe
Pre operatieve
Ġ215 05
ĠKoopmanschap Dr
ĠMammapoli Mammografie
Ġ204 029
Ġ213 01
Beoor delen
Ne ar
Ġvolumever schil
Ġmaag darm
ĠFU P
Ġ206 00
Ġ206 05
ĠAd miraal
066 9
ĠBeoor delen
Ġasc al
ĠRechter borst
Ov ariumcarcinoom
ĠCrani ocaudale
El s
ĠMicro calc
Response valuatie
Ġlymfos cintigrafische
Ġstereotax tisch
Ġwacht tijd
ĠTH RIVE
Ductectasie Ã«n
VraagstellingMet astasering
Ġbelangr ijke
ĠVerhoe ven
Studie Indicatie
Ġstraat je
Vergrotings opname
Ġarteri Ã«le
Ġstr x
ĠHaver kamp
Ġperiprost atisch
Ġinvolut ief
Ġintro ductie
Ġsoft ware
Ġson ografische
Ġana esthesie
ĠPresent atie
Ġbull s
Ġfract ioneel
Ġgedra aid
C ONCLUSIE
p rimair
ĠE p
Ġafw issel
Ġcol itis
inf iltraat
Ġste mb
Ġlocalisatie s
ĠCla rk
Ġhang t
ench yma
ar ct
Ġp y
Ġd ys
ee d
ĠD IKKE
ĠW FG
Ġst rekt
Ġher nia
iom orf
ĠAl hoewel
Ġaut o
Ġlong arts
aam d
scop ische
Ġgecon fig
ĠOnt steking
ille us
Ġling ula
Ġuitdruk kelijk
T ON
d osis
en k
li kel
are ola
form eerde
Ġsch ill
Ġne iging
OGRA M
Ġmacro metastasen
Ġskelet scan
ĠCyste vocht
fic aties
Ġexp an
ĠBorst voeding
vor ige
Ġgetrombos eerd
Ġcallus vorming
ibrogland ulair
R K
er ings
en kel
Ġl een
Ġp s
Ġp hyl
le erd
ĠP artiÃ«le
alc iforme
ĠD M
ĠL ip
ĠK apsel
ecte erd
Ġar ray
ĠVer volgen
Ġhier achter
LA IR
men stru
Ġsmal lere
Ġbuiten kwadrant
Ġspeci ale
83 2
ĠBOV EN
ĠFl oxapen
ĠAmer ika
enchyma le
Ġgeconfig ureerd
Ġexpan sie
B o
D oet
P al
c lass
l ekkage
ge zamen
Ġs owieso
le ment
op pervlak
ĠH t
Ġst ations
ĠRe cidiverende
ĠZ MC
aan voel
Ġhuid verdikkingen
ik er
Ġsch uin
Ġgen etisch
Ġom laag
Ġpara mamillair
Ġ17 6
Ġgew isseld
Ġog ensch
Mult iple
werp ige
Ġdetail opnames
verslag legging
Ġrustig er
ka ak
Ruim e
Ġsymp tomen
B ev
B orderline
E vel
F amili
F AMIL
H engelo
M omenteel
M oeizame
S as
W anneer
o us
p et
u en
z ins
en oc
in ck
ge clusterde
ij ssen
Ġge ink
ol oos
Ġver eist
Ġw ar
Ġbe wijzend
Ġen thes
Ġ2 2007
Ġon begrepen
ĠB ode
Ġmamma t
ĠG oo
Ġlinks verslag
fie le
Ġrechts Mammogram
ĠH ul
ĠH orizontaal
Ġ( !)
Con glomeraat
ĠA kk
Conclusie Indruk
ster s
ĠL amer
ĠL ager
ĠK G
ĠK ol
ĠK oster
ĠK orsten
Radioloog P
Ġdi g
Ġverdacht Indicatie
ide ctomie
os en
Ġtepel Verslag
Ġdoor sch
Ġmammae Zie
Ġmammae Follow
Ġmammae Patidnt
ĠV ele
ĠV entrocaudaal
ders Geboortedatum
Ġpro cedurele
are m
Ġoksel Indicatie
ĠF ab
ke Geboortedatum
Op merkelijk
19 32
ev us
99 00
operatie clips
eb iopt
Ġ21 006
Ġzo on
ĠZwartRadioloog B
Ġgeplaat s
ĠLangeRadioloog T
Ġont slagen
Ġcontrast serie
ĠSt able
Ġun iform
Ġad h
ech orijk
over name
Ġ06 9
Ġap pendix
Ġ31 09
Voor zover
vl oe
Ġgein formeerd
view s
Screening s
Ġ214 036
ĠSch uur
Ġgeaspire erde
Ġpalpatie Verslag
96 03
Ġ314 76
ĠgeÃ¯n fecteerde
ĠAn g
Ġ313 54
Ġuitsnijkamer Mammografie
217 08
issel ijk
fferentie erd
219 01
Ġ219 01
Ġlat Indicatie
90 01
Ġopge p
ĠWarnars Dr
Ġhalf jaarlijkse
loo ster
Mar ijke
ĠHe ijden
Ġ207 05
ĠCor nel
Ġ212 02
Ġ205 05
Comp ressie
Di cterend
Medi ocentraal
Juist e
Rest tumor
Ġcar bo
Ġsateliet laesie
esoph age
ĠMin uscule
ĠCon ventionele
ĠBol ronde
Ġforma at
Ġwervelcor pora
Ġ097 02
Ġwig vormig
Gen ormaliseerde
Ġhumerus kop
Ġtuboovariectomie Indicatie
ĠTom o
Vers lage
Segment ale
Min stens
ĠGroene wegen
ĠRegion ale
Ġrechtermamil la
ĠVerhoe f
Ġdocum ent
ĠLif e
Ġtelef oon
Ġart rose
ĠVert icale
ĠSto ut
OPNAM E
ĠIps ilateraal
Ġmicrolob ulaties
Detail opnames
ouma rol
enoc oumarol
p ie
ĠS CREENING
ĠL anger
ste de
ĠW eke
ev t
Ġont ploo
uma b
Ġacht ig
ĠAden osis
Ġcar otis
Ġhy sterectomie
ĠResectie vlakken
kn ie
Ġoes ofag
" )
B r
s upra
at otisch
Ġmamma naaldbiopten
Ġlymf aden
Ġtumor omvang
Ġpa pel
aan vankelijk
Ġhe chtingen
ker n
Ġrevisie verslag
Ġafw acht
ant rum
lit tekening
spier en
Ġgal stenen
ĠPro tocollaire
Ġet iologie
erg ens
ĠEx tern
Ġkl on
Ġlangdur ige
Ġdivertic ulitis
inflamma to
Ġluchtb ell
W eefsel
en ige
in chem
der end
Ġd ater
Ġaan doende
ĠS pot
ĠIn homogene
Ġmulti pel
Ġfemur kop
Ġcell ulitis
Ġtong basis
Ġbaar moeder
Ġphylloide stumor
z ende
de cember
st adium
Ġh ab
Ġw gs
Ġz and
ĠT ekenen
ĠE VEN
oe gen
sp raken
Ġvoor grond
ĠS ingapore
ont aan
ĠZ iekenhuizen
Ġ19 2
Ġmee gestuurde
ri o
Ġvoel bare
Ġbeper kingen
Ġzij digheid
Ġonderzocht e
Ġkl omp
Ġgeex cideerde
ĠHal verwege
Ġsess iel
ĠVen lo
Ġaff erent
Ġmam mma
Ġhab itus
2 2007
C arcinoom
R P
b ilateraal
b lijkbaar
l oge
n es
ra cinoom
Ġin volu
ĠM ICRA
ĠS lijmvlies
ĠC NB
Ġst uren
Ġ201 01
ĠVer b
Ġrechter heup
Ġhuid plooien
Ġachter liggende
geb onden
ĠRechts zijdig
ĠPA O
Ġintra hepatische
Ġcomp licatie
Ġ17 8
Ġir ridium
ĠEen malige
Ġwer kelijke
Ġloc o
Ġple ister
meter s
96 01
hand el
ormalis eerd
Ġhard heid
mult icentrische
Ġvar ieren
ĠOm liggend
iloc ulaire
Ġproject erende
PT C
RE VISIE
traumat isch
Ġverwar ren
Ġnoe men
Ġinzend ingen
ifie erd
Cur i
ĠCro hn
Ġtoon baar
osu ctie
Ġkorta dem
9 100
B ouw
B akker
C pa
E chogra
P tz
R oel
S neek
S oortgelijke
Z GT
b an
m or
m oet
s cre
t ransversaal
t omo
v asculaire
z it
Ġ **
an ca
Ġl d
Ġo z
Ġo lie
Ġb randend
ol ipoom
Ġre ep
ĠM el
ĠM omenteel
Ġon gema
ĠB ekent
Ver vette
Ġaan ton
Ġz achter
cho ten
op te
ad uaal
Verslag Het
ĠH uij
Ġna bestraald
un n
Conclusie Status
ĠMa c
ĠS lot
ĠMammografie HBC
ĠMammografie Amputatie
ĠMammografie Nr
Ġmicro k
ĠW out
Ġonder delen
Ġonder kw
Ġmammae Familiair
Vraagstelling bdz
Ġlinker zijligging
wijzig d
Ġoksel Verslag
Ġlymfadenopathie BIRADS
Ġinf uus
Ġer ger
ow sk
Ġgegevens Rechts
Ġgegevens IDC
09 103
ĠAan wezigheid
08 200
08 102
Ġcon ditie
Ġoperatie holte
tre kkend
SN P
Ġrecidief Indicatie
ĠZw an
eker s
ĠAf beelding
Ġwe gen
Ġex emest
ĠDollRadioloog B
Ġsubc entimeter
gro ve
ĠConclusie Localisatie
13 04
13 05
Ġnod ulen
Ġsneldiagnostiek In
Ġreductie Indicatie
man sGeboortedatum
waar uit
ĠCA H
hof Geboortedatum
Ġlip osuctie
Ġvert aalt
50 01
205 006
205 049
Ġspotcompressie opnamen
chemo Mammacarcinoom
98 04
Ġpart icip
Ġskelet haarden
Ġsilicon omen
Ġoverwe gingen
Ġhorm onen
ĠPer imenopauzaal
95 03
familie anamnese
afwijkingen Mammografie
Ġspic ulaties
ĠHo uten
ov aGeboortedatum
Ġ218 00
amp le
Ġrood bruin
Sp oor
80 01
ĠMe ij
ĠMe ulen
Ġ211 08
ĠWilliamsRadioloog V
Ġlo q
096 02
aa ij
Ġ207 00
line aire
ĠNeo adjuvant
Ġ205 01
Ġplomp le
loc aties
093 00
093 02
089 01
089 03
Ġ203 04
ĠDec lips
GE WIJZIG
neo adjuvante
mn d
ĠHar lingen
Ġadenopathie Ã«n
ĠLobulair carcinoom
Ġadv is
Ġgedistrib ueerde
kn own
** *
Ġmetaal artefacten
Ġinfer o
Ġuitb un
ser ies
Ġ3138 55
Ġbevind end
Ġuitpuil ing
Ġresectier and
Bi anca
Ġnaal den
Ġlitt ken
Ġnatuur lijk
ĠTeun issen
Ġintermamma ir
ĠDCS I
Ġmal positie
Ġsternu mmetastase
Vor ige
The a
Will y
ĠDot arem
Suz anne
trac lip
Ġmicrobi ologie
Ġhardc opy
Son ja
ĠAkk ooi
Ġ** ***
f ragmente
v aten
la c
Ġin stellen
Ġ( ?).
ĠK un
ĠK NO
ep hal
Ġsch wannoom
lan t
Ġvorm en
Ġconclusie ve
Thorax wand
Ġinza kking
Ġmes enchymale
Ġverru ceuze
Ġfollic ulair
gran ul
T P
Ġa g
Ġf ir
Ġf alciforme
ĠS j
gen mutatie
ĠOn s
Ġverander en
Ġgemet astaseerde
Ġsignaal verlies
net to
ĠCrani ocentraal
Ġect asie
Va cuum
ĠSecund air
ĠRiv ierenland
Ġverton end
M er
v entrale
Ġm ili
re ken
on esie
ĠM obiele
sel en
ĠP al
Ġf or
Ġklier meta
ste d
Ġpro mot
ĠF link
Ġachter waar
Ġsp uit
ĠU SA
ĠEn dometrium
pl at
Ġverh aal
Ġstral ig
ĠLymf oom
ĠLa ur
lesie s
Ġsternoc laviculaire
Ġbloedvaat jes
diagn osi
Ġhoever re
R es
d os
v aat
re ikend
ra ctuur
Ġvoor ber
Ġbij dra
ĠN ier
ĠN ucleaire
Ġdoor gang
Ġrec idieven
Ġbijzonder heid
trem e
Ġterug getrokken
clu derend
Ġaut ologe
Ġintens ief
Ġmammatumor en
Per ifeer
Ġbot boring
67 1
bepal ingen
Ġhyperv asculaire
ĠWissel end
represent atieve
Ġinhomogen iteit
Ġepigast rio
fem ur
Ġleen t
Ġzand loper
e chografische
t i
u v
y cl
Ġvan de
Ġc il
Ġge ver
ic atie
ĠG R
ig t
ĠP unctaat
Ġklier resten
ĠS il
ĠS oms
ĠK op
ĠK ru
Ġr mamma
Ġmedi al
Ġal zijdig
Ġtumor focus
Ġar cus
Ġachter wege
ĠAan bevolen
08 03
Ġir r
ĠBe atrix
Ġged uwd
ĠVoor heen
ĠHart man
ĠOost en
rib ben
ĠUitgangs mammogram
Ġontwikkel de
Ġ202 02
Ġbra chy
Ġfol luw
Ġatro fische
Ġerw tje
Bla asspoel
Ġklierb uizen
Ġmandib ula
Ġmitralis klep
Ġreag erend
Ġpy el
Ġgever ifieerd
B orst
E st
G ekende
J acob
K ra
L eeuw
M irena
P ot
R oodheid
U den
f r
h Geboortedatum
j h
j am
s ingen
s etting
u kk
ge drukt
Ġl evens
Ġm isselijk
is Geboortedatum
is ering
la ring
Ġin situ
Ġmet formine
ogra fisch
Ġs alp
ĠM olenaar
le md
ĠB em
ĠB SGI
Ver doven
ur se
ĠD onker
ĠH en
Ġna c
sp annen
ĠS mal
Re cidiverende
ĠC PA
ĠK lin
ĠK aren
se ma
Ġuit loop
Ġbeiderzijds Bevindingen
Ġpunctie Second
Ġst agerings
Ġter min
Ġdoor lopen
Ġmammae Links
Ġmammae Sinds
Vraagstelling st
ĠV o
Ġlinker os
ru ij
Ġel Geboortedatum
Ġverricht Conclusie
ĠR im
art rose
her ken
ĠF ysiologisch
ĠF OL
Ġpost pro
Ġgegevens Palpabel
09 100
Ġlitteken retractie
ĠAf gelopen
Ġzo juist
entr ische
Ġ17 3
Ġ19 3
Ġonscherp er
Ġbron Verslag
Ġaange past
Ġaden oid
Ġspiraal vormig
Ġgevonden Indicatie
Ġbdz s
ĠCA D
DC S
Ġbreast s
Af beelding
Ġcontral at
205 001
205 066
ĠSch ut
Ġhals klierdissectie
ijen huis
Ster vormige
recidief Verslag
Ġref lux
pl anning
ĠII Indicatie
Ġhyper thy
ey er
216 12
lis singen
Ġ216 12
vers Geboortedatum
218 00
218 14
ĠUn favourable
Ġ218 14
Ġmorf ine
zijdig heid
Ġhelder geel
ĠNe der
Vergelijk bare
ĠSub pectorale
Beoor deeld
studie Indicatie
Ġbere ik
Ġverst opt
Ġamp ut
Comp lex
Ġmis kraam
Is odense
Rechter oksel
Cor tex
Wil ma
Litteken weefsel
Ġstre ek
Ġ096 01
Ġvolledigheid shalve
Ġoliecyst es
ĠZij l
Ġoncop last
Ġgranuloom pje
ĠKo uwen
Ġtoekom stig
Ġlym klier
lymfklier en
technetium injectie
Vers alg
Ġgevascularis eerde
Ġintramusc ulaire
Ġmamam ca
Ġtons illen
ĠAx iaal
Verander ingen
ĠAnt ibiot
Ġarchitectuurver st
Roos endaal
ĠAnal gesie
Ġtintel ingen
Ġgecollab eerde
otax ie
Carol ine
Gek ozen
Vro ege
Margr iet
Ġsqu ame
ĠElker liek
Rel atief
Ġmaagdarm pakket
Ġklon ter
Ġaanton ing
t pv
w oor
in al
ĠB i
Ġmult il
itt ard
ĠSkin sparing
54 2
Ġduid end
mmun is
cyst ische
Ġec ze
Ġsubmandib ularis
Ġarchite ct
h eterogeen
l umpectomie
Ġ y
Ġb h
Ġver littekening
ur ing
RA CLA
ĠD raad
Ġverdi ent
jectie f
Ġinfiltr aten
per ig
Du ctaal
Ġbeschrij ven
Ġoesophag itis
ardi ale
ĠVERGROTINGSOPNAM EN
ĠSnij randen
ĠOnc oplastische
Ġgelokette erd
Ġthromb us
Ġonmiddell ijk
RACLA V
E US
M orfologisch
S ymmetriserende
i ro
s ich
t iserende
ar ter
Ġh o
it an
Ġklier sch
Ġis oe
ĠL in
ĠDe bris
Ġpro p
ger e
Ġten zij
13 17
Ġborst klier
Ġdat a
Ġstreng vormig
ĠRest calcificaties
Bl ok
Ġfrag mentatie
Ġbacter iele
Ġnoe mens
blok je
afgrens baar
Ġrap port
Ġreep jes
A li
L os
i ant
z y
st ation
Ġma la
Ġt amelijk
Ġk ap
om isch
il la
ĠP IK
ĠT ubulair
Ġvoor zijde
Ġlymfeklier dissectie
Ġtumor typ
ĠV eg
[...]
