{"<s>":0,"<pad>":1,"</s>":2,"<unk>":3,"<mask>":4,"!":5,"\"":6,"#":7,"$":8,"%":9,"&":10,"'":11,"(":12,")":13,"*":14,"+":15,",":16,"-":17,".":18,"/":19,"0":20,"1":21,"2":22,"3":23,"4":24,"5":25,"6":26,"7":27,"8":28,"9":29,":":30,";":31,"<":32,"=":33,">":34,"?":35,"@":36,"A":37,"B":38,"C":39,"D":40,"E":41,"F":42,"G":43,"H":44,"I":45,"J":46,"K":47,"L":48,"M":49,"N":50,"O":51,"P":52,"Q":53,"R":54,"S":55,"T":56,"U":57,"V":58,"W":59,"X":60,"Y":61,"Z":62,"[":63,"\\":64,"]":65,"^":66,"_":67,"`":68,"a":69,"b":70,"c":71,"d":72,"e":73,"f":74,"g":75,"h":76,"i":77,"j":78,"k":79,"l":80,"m":81,"n":82,"o":83,"p":84,"q":85,"r":86,"s":87,"t":88,"u":89,"v":90,"w":91,"x":92,"y":93,"z":94,"{":95,"|":96,"}":97,"~":98,"¡":99,"¢":100,"£":101,"¤":102,"¥":103,"¦":104,"§":105,"¨":106,"©":107,"ª":108,"«":109,"¬":110,"®":111,"¯":112,"°":113,"±":114,"²":115,"³":116,"´":117,"µ":118,"¶":119,"·":120,"¸":121,"¹":122,"º":123,"»":124,"¼":125,"½":126,"¾":127,"¿":128,"À":129,"Á":130,"Â":131,"Ã":132,"Ä":133,"Å":134,"Æ":135,"Ç":136,"È":137,"É":138,"Ê":139,"Ë":140,"Ì":141,"Í":142,"Î":143,"Ï":144,"Ð":145,"Ñ":146,"Ò":147,"Ó":148,"Ô":149,"Õ":150,"Ö":151,"×":152,"Ø":153,"Ù":154,"Ú":155,"Û":156,"Ü":157,"Ý":158,"Þ":159,"ß":160,"à":161,"á":162,"â":163,"ã":164,"ä":165,"å":166,"æ":167,"ç":168,"è":169,"é":170,"ê":171,"ë":172,"ì":173,"í":174,"î":175,"ï":176,"ð":177,"ñ":178,"ò":179,"ó":180,"ô":181,"õ":182,"ö":183,"÷":184,"ø":185,"ù":186,"ú":187,"û":188,"ü":189,"ý":190,"þ":191,"ÿ":192,"Ā":193,"ā":194,"Ă":195,"ă":196,"Ą":197,"ą":198,"Ć":199,"ć":200,"Ĉ":201,"ĉ":202,"Ċ":203,"ċ":204,"Č":205,"č":206,"Ď":207,"ď":208,"Đ":209,"đ":210,"Ē":211,"ē":212,"Ĕ":213,"ĕ":214,"Ė":215,"ė":216,"Ę":217,"ę":218,"Ě":219,"ě":220,"Ĝ":221,"ĝ":222,"Ğ":223,"ğ":224,"Ġ":225,"ġ":226,"Ģ":227,"ģ":228,"Ĥ":229,"ĥ":230,"Ħ":231,"ħ":232,"Ĩ":233,"ĩ":234,"Ī":235,"ī":236,"Ĭ":237,"ĭ":238,"Į":239,"į":240,"İ":241,"ı":242,"Ĳ":243,"ĳ":244,"Ĵ":245,"ĵ":246,"Ķ":247,"ķ":248,"ĸ":249,"Ĺ":250,"ĺ":251,"Ļ":252,"ļ":253,"Ľ":254,"ľ":255,"Ŀ":256,"ŀ":257,"Ł":258,"ł":259,"Ń":260,"er":261,"en":262,"in":263,"ch":264,"ma":265,"ie":266,"an":267,"Ġv":268,"el":269,"de":270,"al":271,"at":272,"ge":273,"or":274,"ij":275,"Ġl":276,"og":277,"Ġo":278,"Ġb":279,"et":280,"cht":281,"st":282,"Ġm":283,"re":284,"Ġma":285,"ing":286,"Ġa":287,"ra":288,"Ġvan":289,"der":290,"Ġc":291,"is":292,"la":293,"ar":294,"Ġde":295,"te":296,"een":297,"di":298,"Ġp":299,"Ġge":300,"Ġ1":301,"ol":302,"on":303,"Ġre":304,"Ġin":305,"Ġver":306,"Ġn":307,"mma":308,"Ġh":309,"li":310,"ek":311,"ink":312,"Ġt":313,"Ġw":314,"it":315,"Ġbe":316,"Ġmet":317,"Ġd":318,"ogra":319,"ijk":320,"atie":321,"us":322,"aar":323,"Ġlink":324,"ct":325,"oor":326,"ro":327,"Ġen":328,"mm":329,"Ġs":330,"Ġ2":331,"Ġrecht":332,"Ġeen":333,"ĠM":334,"isch":335,"ic":336,"le":337,"derz":338,"aal":339,"Ġon":340,"Ġk":341,"ens":342,"Ġop":343,"ee":344,"lier":345,"ĠB":346,"Ver":347,"mmogra":348,"čĊ":349,"ur":350,"Ġmamma":351,"om":352,"Ġe":353,"ĠG":354,"ss":355,"Ġaan":356,"end":357,"Ġz":358,"Ġg":359,"Ġlinks":360,"Ġhet":361,"id":362,"fie":363,"acht":364,"Ġrechts":365,"oog":366,"ig":367,"01":368,"lag":369,"RA":370,"slag":371,"ver":372,"Ġgeen":373,"il":374,"ische":375,"ir":376,"ele":377,"oek":378,"cho":379,"sel":380,"Ġaf":381,"ag":382,"if":383,"op":384,"ale":385,"ad":386,"RAD":387,"RADS":388,"IRADS":389,"ater":390,"Verslag":391,"ĠP":392,"Ġu":393,"ingen":394,"ĠT":395,"ite":396,"ssa":397,"ific":398,"eer":399,"ent":400,"ificatie":401,"eef":402,"ran":403,"am":404,"baar":405,"mmografie":406,"alc":407,"es":408,"Ġmassa":409,"alcificatie":410,"derzoek":411,"ĠD":412,"eefsel":413,"ds":414,"um":415,"lair":416,"elijk":417,"ĠH":418,"mamma":419,"ven":420,"ym":421,"Ġf":422,"Ġna":423,"alcificaties":424,"ctie":425,"Ġlater":426,"olog":427,"ot":428,"ĠE":429,"ymf":430,"Ġ(":431,"Ġlymf":432,"In":433,"oe":434,"Con":435,"ĠBIRADS":436,"cl":437,"ĠGeen":438,"ermamma":439,"ijds":440,"Ġklier":441,"iderz":442,"iderzijds":443,"iteit":444,"un":445,"icht":446,"ĠA":447,"clus":448,"sp":449,"Ġte":450,"ende":451,"xil":452,"Ġvoor":453,"and":454,"oven":455,"ijz":456,"clusie":457,"201":458,"Ġis":459,"den":460,"Conclusie":461,"ne":462,"wijk":463,"Ġmm":464,"Ġboven":465,"ist":466,"Ġcm":467,"ĠMa":468,"Ġonderzoek":469,"Ġafwijk":470,"ina":471,"ath":472,"weefsel":473,"ster":474,"wijz":475,"dacht":476,"Ġcy":477,"Ġ3":478,"Ġverg":479,"ĠS":480,"adi":481,"rant":482,"adrant":483,"oloog":484,"oom":485,"wadrant":486,"rk":487,"Re":488,"ĠC":489,"ĠO":490,"agina":491,"ĠPagina":492,"Radi":493,"iet":494,"Ġaxil":495,"ĠL":496,"gev":497,"Ġcalcificaties":498,"ologische":499,"Ġwor":500,"achtend":501,"oogachtend":502,"Ġdens":503,"kwadrant":504,"Ġof":505,"ste":506,"dt":507,"Ġklierweefsel":508,"oc":509,"):":510,"mmogram":511,"yp":512,"we":513,"deel":514,"bie":515,"leur":516,"Ġbeoor":517,"ĠK":518,"atus":519,"00":520,"kleur":521,"Ġuur":522,"ve":523,"icro":524,"Radioloog":525,"se":526,"chogra":527,"ĠMammografie":528,"Ġme":529,"Ġmicro":530,"lin":531,"lig":532,"iop":533,"ĠHoogachtend":534,"Ġpun":535,"ulair":536,"alk":537,"ok":538,"orm":539,"rker":540,"Ġuit":541,"Ġwaar":542,"ec":543,"pel":544,"ken":545,"Ġbeoordeel":546,"Ġbij":547,"ib":548,"Ġla":549,"Ġr":550,"Ġmammogram":551,"RI":552,"laat":553,"--":554,"Ġlateraal":555,"Ġaankleur":556,"ire":557,"Ġwordt":558,"ell":559,"Ġbeiderzijds":560,"Ġdi":561,"Ġpunctie":562,"Ġmalig":563,"ul":564,"Ġbeoordeelbaar":565,"Ġvergelijk":566,"nam":567,"ĠW":568,"Ġverdacht":569,"linische":570,"esie":571,"as":572,"ypist":573,"ĠEcho":574,"Ġfib":575,"Geen":576,"uid":577,"Ġgebie":578,"Ġst":579,").":580,"ier":581,"Ġmedi":582,"ĠTypist":583,"ijn":584,"ide":585,"cin":586,"ander":587,"gr":588,"Ġlaterale":589,"isie":590,"ut":591,"eld":592,"Ġlinkermamma":593,"raag":594,"os":595,"Ġbovenkwadrant":596,"arcin":597,"Ġbiop":598,"sch":599,"Ġrechtermamma":600,"niteit":601,"gen":602,"umor":603,"je":604,"igne":605,"Ġecho":606,"Ġgro":607,"arcinoom":608,"lein":609,"eklier":610,"Ġlaesie":611,"Ġ0":612,"enigne":613,"oed":614,"klier":615,"kele":616,"Ġtepel":617,"ĠMRI":618,"Ġonder":619,"Ġter":620,"Ġmaligniteit":621,"gevens":622,"Ġniet":623,"Ġpath":624,"ĠN":625,"elling":626,"Ġlymfeklier":627,"raal":628,"Ġvergelijking":629,"Ġverdachte":630,"ab":631,"Ġj":632,"erd":633,"ĠGe":634,"Ġaanwijz":635,"ige":636,"ĠIn":637,"visie":638,"uur":639,"Ġbenigne":640,"Ġplaat":641,"Ġklein":642,"eiderzijds":643,"Ġafwijking":644,"orma":645,"Echo":646,"ast":647,"grens":648,"dic":649,"Ġaxilla":650,"Ġdoor":651,"Ġ201":652,"Ġ4":653,"Ġ-":654,"usp":655,"entraal":656,"rog":657,"ien":658,"alp":659,"land":660,"kalk":661,"Ġgebied":662,"wee":663,"Ġbiopt":664,"Ġmammae":665,"Ġsusp":666,"calcificaties":667,"BIRADS":668,"Ġenkele":669,"he":670,"Ġweefsel":671,"Ġca":672,"met":673,"ecte":674,"Ġx":675,"ter":676,"rogland":677,"Ġfibrogland":678,"Ġal":679,"ĠKlinische":680,"alpab":681,"ect":682,"tatus":683,"Ġtumor":684,"ze":685,"Ġar":686,"dicatie":687,"stelling":688,"Ġtot":689,"Ġmammografie":690,"ctuur":691,"raagstelling":692,"Ġmarker":693,"spre":694,"wez":695,"Ġzicht":696,"ĠRe":697,"ud":698,"Vraagstelling":699,"chter":700,"Ma":701,"carcinoom":702,"Ġafwijkingen":703,"Ġaanwijzingen":704,"ĠV":705,"Ġfibroglandulair":706,"eken":707,"Ġopnam":708,"aden":709,"eg":710,"Ġ6":711,"rani":712,"Ġsuspecte":713,"chts":714,"Ġmicrocalcificaties":715,"chografie":716,"Ġover":717,"Ġzichtbaar":718,"radi":719,"lu":720,"ĠVer":721,"Ġ5":722,"ST":723,"On":724,"onder":725,"Ġlinker":726,"tologische":727,"van":728,"inks":729,"ont":730,"Ġtwee":731,"ders":732,"chite":733,"eerd":734,"chitectuur":735,"ĠOn":736,"alpabele":737,"ĉĉ":738,"Ġonver":739,"Ġaankleuring":740,"ĠMST":741,"Ġrechter":742,"Ġradi":743,"eleken":744,"Ġarchitectuur":745,"ost":746,"stor":747,"king":748,"ese":749,"vorm":750,"del":751,"Ġeer":752,"wijzig":753,"ati":754,"gewijzig":755,"ĠDe":756,"Ġaxillair":757,"ima":758,"fisch":759,"th":760,"Ġmeer":761,"eratie":762,"Ġlymfklier":763,"Ġpathologische":764,"ap":765,"Ġcrani":766,"verstor":767,"Ġplaatse":768,"Ġcentraal":769,"Ġkleine":770,"oll":771,"opath":772,"Ġno":773,"ond":774,"arm":775,"ĠZ":776,"Ġarchitectuurverstor":777,"200":778,"Âł":779,"ru":780,"be":781,"Ġel":782,"Ġpro":783,"spreid":784,"ĠI":785,"opathie":786,"Ġcyste":787,"ening":788,"odi":789,"anderd":790,"Ġbev":791,"Ġok":792,"richt":793,"Ġeerder":794,"up":795,"ĠGegevens":796,"eter":797,"Ġpa":798,"aan":799,"gewijzigd":800,"these":801,"em":802,"ep":803,"CR":804,"Ġmediaal":805,"chografisch":806,"Ġhuid":807,"Ġwerd":808,"Ġverricht":809,"Ġstatus":810,"02":811,"Ġdensiteit":812,"Indicatie":813,"uw":814,"Ġhier":815,"Ġpalpabele":816,"are":817,"ĠR":818,"oo":819,"Ġech":820,"Ġmammacarcinoom":821,"Ġelders":822,"geen":823,"alis":824,"du":825,"Ġcytologische":826,"ĠDr":827,"art":828,"Ġ12":829,"Ġook":830,"ekende":831,"ull":832,"12":833,"Beiderzijds":834,"lijk":835,"con":836,"Status":837,"Ġasp":838,"Ġgoed":839,"Ġnog":840,"her":841,"Ġ200":842,"entin":843,"Ġbeeld":844,"Ġarchitectuurverstoring":845,"entinel":846,"ĠACR":847,"apie":848,"Ġoksel":849,"ief":850,"vull":851,"odium":852,"meting":853,"herapie":854,"atum":855,"Ġmicrokalk":856,"ole":857,"ologisch":858,"luster":859,"erp":860,"wezen":861,"adenopathie":862,"Ġlymfeklieren":863,"im":864,"Ġlymfadenopathie":865,"omen":866,"Ġmin":867,"Ġsentinel":868,"uit":869,"Ġcluster":870,"ga":871,"ĠTer":872,"Ġzijn":873,"dig":874,"Ġint":875,"ĠF":876,"Ġfoc":877,"datum":878,"form":879,"Ġtoe":880,"IS":881,"arme":882,"Ġachter":883,"Ġbegrens":884,"Ġ10":885,"zien":886,"ors":887,"ult":888,"ik":889,"Ġaspect":890,"Ġkalk":891,"ich":892,"Ġals":893,"ogeen":894,"Ġopname":895,"bare":896,"geleken":897,"Ġgele":898,"Ġmediale":899,"Ġ9":900,"omp":901,"olle":902,"Ġsch":903,"role":904,"Ter":905,"lav":906,"Ġ7":907,"of":908,"Ġsp":909,"ormaal":910,"Ġverdi":911,"Ġinf":912,"Ġafgrens":913,"lavic":914,"----":915,"ion":916,"Ġ14":917,"laire":918,"heid":919,"Ġverv":920,"Ġer":921,"Echografie":922,"Ġpost":923,"Ġonderkwadrant":924,"hal":925,"ateraal":926,"Ġster":927,"uis":928,"03":929,"xima":930,"Ġzonder":931,"ke":932,"De":933,"sten":934,"Ġafmeting":935,"act":936,"Ġbevin":937,"Links":938,"04":939,"11":940,"ĠBeiderzijds":941,"erend":942,"Ġonverdacht":943,"teken":944,"Ġjodium":945,"ger":946,"marker":947,"uidelijk":948,"Op":949,"etro":950,"ub":951,"05":952,"Ġcor":953,"osit":954,"Rechts":955,"yn":956,"Ġnie":957,"deling":958,"Ġcont":959,"ron":960,"vormige":961,"Onderzoek":962,"itu":963,"Ġverspreid":964,"Ġechografisch":965,"Ġzich":966,"ow":967,"Ġgegevens":968,"Ġlymfklieren":969,"Ġ15":970,"ob":971,"rie":972,"atient":973,"ijnlijk":974,"Mammografie":975,"Ġ8":976,"09":977,"laviculair":978,"Ġto":979,"ĠOp":980,"ogelijk":981,"dere":982,"19":983,"ĠAan":984,"ode":985,"06":986,"Aan":987,"jes":988,"iv":989,"ten":990,"Ġten":991,"omos":992,"ynthese":993,"omosynthese":994,"Ġan":995,"erde":996,"Ġmaxima":997,"Ġsitu":998,"Ġbegrensde":999,"ĠJ":1000,"Ġ+":1001,"Ġbiopten":1002,"Ġ11":1003,"han":1004,"eot":1005,"ft":1006,"cre":1007,"CIS":1008,"bij":1009,"ologie":1010,"08":1011,"Ġgroot":1012,"Ġcraniaal":1013,"mmet":1014,"Ġwel":1015,"Ġrest":1016,"Ġrec":1017,"Ġongewijzigd":1018,"sie":1019,"arma":1020,"ymmet":1021,"armacon":1022,"ofarmacon":1023,"itteken":1024,"ev":1025,"OB":1026,"07":1027,"Ġgezien":1028,"Ġpass":1029,"Ġduidelijk":1030,"otherapie":1031,"Ġvervaar":1032,"Revisie":1033,"Ġaankleurende":1034,"ip":1035,"olg":1036,"ug":1037,"Ġgen":1038,"ameter":1039,"Ġcaud":1040,"uc":1041,"alisatie":1042,"Ġlitteken":1043,"Ġaxillaire":1044,"Ġgema":1045,"Ġdeze":1046,"Ġvervaardig":1047,"10":1048,"AM":1049,"kte":1050,"Klinische":1051,"ET":1052,"uwe":1053,"huis":1054,"Ġsol":1055,"idief":1056,"ang":1057,"99":1058,"Ġsub":1059,"AMM":1060,"Ġmult":1061,"Ġvervaardigd":1062,"Ġfibro":1063,"Ġworden":1064,"Ġcysten":1065,"Ġbewezen":1066,"ĠBOB":1067,"Ġnaar":1068,"Ġch":1069,"operatie":1070,"2014":1071,"ff":1072,"Ġwat":1073,"IE":1074,"geb":1075,"halve":1076,"Ġgep":1077,"Ġricht":1078,"Ġab":1079,"eb":1080,"ĠStatus":1081,"ĠMAMM":1082,"Ġdiameter":1083,"tig":1084,"tie":1085,"ĠDCIS":1086,"Ġnormaal":1087,"Ġafgrensbare":1088,"'s":1089,"ĠLinks":1090,"creening":1091,"Ġechografie":1092,"Ġcon":1093,"Ġvet":1094,"Ġoperatie":1095,"Ġzeer":1096,"Ġgelegen":1097,"Ġas":1098,"Ġbekende":1099,"ate":1100,"Ġov":1101,"name":1102,"Ġverkalk":1103,"Ġdensiteiten":1104,"Ġher":1105,"Ġaanwez":1106,"ieken":1107,"etre":1108,"diening":1109,"Ġnu":1110,"veranderd":1111,"cm":1112,"ĠLoo":1113,"rij":1114,"CT":1115,"ĠRevisie":1116,"Ġonveranderd":1117,"Ġne":1118,"ia":1119,"ce":1120,"tre":1121,"ĠRechts":1122,"Ġmogelijk":1123,"voor":1124,"Ġom":1125,"schijnlijk":1126,"sne":1127,"snede":1128,"orie":1129,"axil":1130,"Ġdors":1131,"ateg":1132,"ategorie":1133,"eotact":1134,"iekenhuis":1135,"Ġdit":1136,"SN":1137,"Ġli":1138,"Ġ21":1139,"Ġdan":1140,"Ġclusters":1141,"ekend":1142,"ositie":1143,"ame":1144,"sen":1145,"eerde":1146,"qu":1147,"Ġaanvull":1148,"Ġaanwezig":1149,"Ġretro":1150,"Mw":1151,"geveer":1152,"Ġrecidief":1153,"node":1154,"Ġder":1155,"Ġnieuwe":1156,"ule":1157,"uper":1158,"Ġdoorsnede":1159,"eleid":1160,"nar":1161,"ĠZw":1162,"Ġklieren":1163,"rac":1164,"lip":1165,"Ġopnamen":1166,"Ġper":1167,"Na":1168,"was":1169,"ax":1170,"air":1171,"Ġgev":1172,"Ġsentinelnode":1173,"Ġbetre":1174,"Ġneo":1175,"Ġongeveer":1176,"Ġgebieden":1177,"nel":1178,"ber":1179,"vra":1180,"ies":1181,"ĠZwart":1182,"get":1183,"ĠVergeleken":1184,"orst":1185,"aren":1186,"Ġdie":1187,"sRadioloog":1188,"Ġabl":1189,"ifoc":1190,"nu":1191,"Mamma":1192,"mmer":1193,"na":1194,"ulaire":1195,"heden":1196,"ichte":1197,"Ġbijz":1198,"Ġbijzonder":1199,"dige":1200,"Ġtomosynthese":1201,"Ġvergeleken":1202,"Ġsolide":1203,"LE":1204,"Ġverslag":1205,"Ġbijzonderheden":1206,"aire":1207,"ĠPET":1208,"adenoom":1209,"vrager":1210,"astas":1211,"eker":1212,"Ġpassend":1213,"inter":1214,"Ġlaesies":1215,"ogen":1216,"ĠCT":1217,"ex":1218,"stern":1219,"nummer":1220,"ĠPA":1221,"Ġger":1222,"aande":1223,"Ġlok":1224,"Ġ13":1225,"actie":1226,"Ġcaudaal":1227,"gaand":1228,"Ġheter":1229,"olateraal":1230,"Ġbevindt":1231,"olgens":1232,"Ġcolle":1233,"ĠWLE":1234,"Ġbeh":1235,"Ġchem":1236,"dro":1237,"Ġmatig":1238,"oorte":1239,"sdatum":1240,"oortedatum":1241,"ĠMB":1242,"Ġ16":1243,"lips":1244,"Ġpara":1245,"Ġvergro":1246,"onderzoek":1247,"Ġnode":1248,"kt":1249,"ĠHier":1250,"ormatie":1251,"2016":1252,"genomen":1253,"ĠWinter":1254,"2017":1255,"Ġradioloog":1256,"ormale":1257,"Ġverkalkingen":1258,"Ġgemark":1259,"mat":1260,"ange":1261,"beoor":1262,"Ġcollega":1263,"ente":1264,"iets":1265,"Ġander":1266,"uleerde":1267,"GRA":1268,"Super":1269,"Ġev":1270,"Ġscherp":1271,"ydro":1272,"ca":1273,"ĠAf":1274,"ĠOnderzoek":1275,"koek":1276,"oekkoek":1277,"operatieve":1278,"Ġiets":1279,"Ġinformatie":1280,"astasen":1281,"Ġdiff":1282,"Ã«":1283,"Ġwaarschijnlijk":1284,"sk":1285,"Ġpl":1286,"arnar":1287,"ĠU":1288,"ase":1289,"hans":1290,"Ġintra":1291,"Ġdorsaal":1292,"ril":1293,"iente":1294,"Ġcomp":1295,"ĠWarnar":1296,"Ġstereotact":1297,"uze":1298,"OGRA":1299,"ĠVerslag":1300,"ĠMBq":1301,"ulier":1302,"ucle":1303,"ju":1304,"ĠKoekkoek":1305,"Ġbetreft":1306,"dv":1307,"tex":1308,"trem":1309,"Ġverander":1310,"Bij":1311,"Ġmeerdere":1312,"tremiteit":1313,"Ġ20":1314,"skun":1315,"reg":1316,"Ġwe":1317,"teri":1318,"eeskun":1319,"Ġtoediening":1320,"Ġgemarkeerd":1321,"af":1322,"Ġzo":1323,"Ġex":1324,"Ġ25":1325,"extremiteit":1326,"entr":1327,"arench":1328,"2018":1329,"Ġgel":1330,"Ġwaarvoor":1331,"za":1332,"tje":1333,"mil":1334,"kking":1335,"dvies":1336,"Ġbeeldvorm":1337,"evens":1338,"Ġcortex":1339,"Ġonderzoeken":1340,"juvan":1341,"ĠDoll":1342,"Ġdu":1343,"Ġbeide":1344,"Ġ17":1345,"Ġhydro":1346,"Ġpositie":1347,"Ġverdicht":1348,"ĠIndicatie":1349,"FIE":1350,"ĠWarnarsRadioloog":1351,"Ġuitwas":1352,"Ġhyp":1353,"axilla":1354,"Ġechter":1355,"Ġzw":1356,"ER":1357,"Ġcarcinoom":1358,"anoc":1359,"Ġbiopsie":1360,"aat":1361,"eel":1362,"anocoll":1363,"Ġasymmet":1364,"Ġtweede":1365,"Ġvrij":1366,"ĠLange":1367,"2015":1368,"Ġparastern":1369,"rand":1370,"cte":1371,"Ġ18":1372,"ĠNa":1373,"Goed":1374,"Ġ19":1375,"ĠMAMMOGRA":1376,"ollow":1377,"ĠSN":1378,"oede":1379,"DG":1380,"ijde":1381,"inion":1382,"econd":1383,"Cont":1384,"Ġbesch":1385,"Ġopinion":1386,"eterogeen":1387,"ector":1388,"ari":1389,"ĠZwartRadioloog":1390,"delijk":1391,"Ġparench":1392,".:":1393,"orijk":1394,"raclaviculair":1395,"ctiv":1396,"eem":1397,"isu":1398,"Ġconform":1399,"ust":1400,"Ġpatient":1401,"ĠEr":1402,"uten":1403,"sonderzoek":1404,"Ġpathologisch":1405,"imp":1406,"biop":1407,"Ġechorijk":1408,"Ġsle":1409,"Supervisie":1410,"comp":1411,"Ġopz":1412,"boven":1413,"Ġminuten":1414,"aterale":1415,"ytologische":1416,"ipele":1417,"Ġverb":1418,"lad":1419,"Ġheterogeen":1420,"Ġopzichte":1421,"Ġafge":1422,"ĠWe":1423,"Ġcalcificatie":1424,"lop":1425,"Ġhist":1426,"Ġgroep":1427,"agn":1428,"Ġvoorgaand":1429,"eeft":1430,"Ġveranderingen":1431,"Ġhydromarker":1432,"ĠLooRadioloog":1433,"Ġmaximale":1434,"adjuvan":1435,"Ġ22":1436,"hor":1437,"2019":1438,"Controle":1439,"Ġrichtingen":1440,"Ġob":1441,"Ġir":1442,"dw":1443,"MRI":1444,"els":1445,"Ġwaarbij":1446,"stra":1447,"gebre":1448,"ucleair":1449,"do":1450,"Ġvergrote":1451,"ĠDollRadioloog":1452,"eeskundige":1453,"Ġchemotherapie":1454,"ĠMAMMOGRAFIE":1455,"fe":1456,"Ġpostoperatieve":1457,"Ġaanwijzing":1458,"Ġwas":1459,"oid":1460,"Hoogachtend":1461,"Ġovale":1462,"bron":1463,"jectie":1464,"iek":1465,"ruin":1466,"Ġcraniolateraal":1467,"clips":1468,"gest":1469,"neem":1470,"Ġhe":1471,"Ġrand":1472,"scherp":1473,"arende":1474,"Ġmaar":1475,"Ġdrie":1476,"Ġwelke":1477,"adje":1478,"Ġwaarneem":1479,"020":1480,"olking":1481,"Ġcontrole":1482,"Ġmast":1483,"Ġzien":1484,"Ġwaarneembaar":1485,"olkingsonderzoek":1486,"ocht":1487,"Ġzwelling":1488,"Ġsubc":1489,"ĠCC":1490,"Ġ,":1491,"Ġglad":1492,"2013":1493,"Ġactiv":1494,"atio":1495,"oris":1496,"Ġcategorie":1497,"nkele":1498,"utoris":1499,"inig":1500,"Ġsnel":1501,"Ġgrootste":1502,"denking":1503,"LO":1504,"horax":1505,"ogene":1506,"Er":1507,"Ġoud":1508,"Ġprothese":1509,"ĠOok":1510,"Ġactiviteit":1511,"ress":1512,"Ã«n":1513,"min":1514,"gro":1515,"raad":1516,".-":1517,"luit":1518,"erv":1519,"Ġgeplaat":1520,"cem":1521,"Ġradiofarmacon":1522,"atiente":1523,"Radiofarmacon":1524,"anocolloid":1525,"lak":1526,"beeld":1527,"Ġhoog":1528,"opname":1529,"inge":1530,"to":1531,"LA":1532,"leg":1533,"dingen":1534,"Ġmaximaal":1535,"ĠHet":1536,"Ġablatio":1537,"cterend":1538,"Ġsubcut":1539,"Ġ/":1540,"Ġthorax":1541,"ĠVER":1542,"ruining":1543,"Vergeleken":1544,"Ġname":1545,"staande":1546,"Heterogeen":1547,"Ġgesp":1548,"Ġbevolkingsonderzoek":1549,"2012":1550,"Ġtoont":1551,"ere":1552,"SLA":1553,"que":1554,"grond":1555,"Ġirreg":1556,"iculeerde":1557,"SLAG":1558,"sterd":1559,"adjuvante":1560,"Ġbel":1561,"15":1562,"ĠConclusie":1563,"ĠVERSLAG":1564,"osis":1565,"Ġverband":1566,"Ġfocale":1567,"ijd":1568,"xillair":1569,"Ġonscherp":1570,"lic":1571,"vol":1572,"Ġoperatieclips":1573,"dure":1574,"ĠNu":1575,"cisie":1576,"lique":1577,"uim":1578,"isualisatie":1579,"Ġzeker":1580,"ever":1581,"mamil":1582,"Ġhiervan":1583,"agnost":1584,"Ġtherapie":1585,"14":1586,"Ġmee":1587,"cedure":1588,"als":1589,"Ġachtergrond":1590,"..":1591,"hoog":1592,"ĠMamma":1593,"ĠTevens":1594,"Ġmaligne":1595,"Ġoblique":1596,"ĠBruining":1597,"Ġvia":1598,"13":1599,"Ġfocus":1600,"125":1601,"Ġnet":1602,"Ġscreening":1603,"pro":1604,"Ġmultipele":1605,"Ġdr":1606,"egm":1607,"eens":1608,"mammografie":1609,"Ġrond":1610,"Ġreactie":1611,"veneens":1612,"onde":1613,"Ġandere":1614,"Ġlijk":1615,"Ġruim":1616,"Ġduidelijke":1617,"edi":1618,"ijf":1619,"Ġweinig":1620,"ressie":1621,"Ġpathologie":1622,"ĠOngewijzigd":1623,"Ġgrove":1624,"nanocolloid":1625,"atief":1626,"spreide":1627,"ĠX":1628,"ĠMLO":1629,"Ġsup":1630,"aten":1631,"kleuring":1632,"Ġintramamma":1633,"II":1634,"Ġduct":1635,"Patient":1636,"ĠDeze":1637,"Ġuitgebre":1638,"lders":1639,"asie":1640,"iddel":1641,"ĠOnveranderd":1642,"sluit":1643,"Ġgeh":1644,"Ġheeft":1645,"Ġgraad":1646,"tal":1647,"nen":1648,"oli":1649,"Ġborst":1650,"Ġasymmetrie":1651,"eds":1652,"onen":1653,"Ġ09":1654,"Ġaanvullende":1655,"Ġverk":1656,"Ġgrote":1657,"ductie":1658,"Ġpre":1659,"Ġderhalve":1660,"bied":1661,"ĠBe":1662,"IO":1663,"stand":1664,"ĉĉĉ":1665,"Ġ----":1666,"loper":1667,"sc":1668,"Ġkom":1669,"elf":1670,"unctie":1671,"Aanvull":1672,"Ġged":1673,"formulier":1674,"Am":1675,"Ġkan":1676,"mber":1677,"veld":1678,"linisch":1679,"Ġ23":1680,"Ġreeds":1681,"Ġprocedure":1682,"Ġwij":1683,"ĠZiekenhuis":1684,"ĠBij":1685,"Ġuitloper":1686,"2011":1687,"),":1688,"sterdam":1689,"Ġlever":1690,"Ġfibroadenoom":1691,"zaadje":1692,"Ġovereen":1693,"ĠFDG":1694,"Ġdat":1695,"ili":1696,"Ġju":1697,"Ġradiotherapie":1698,"omie":1699,"Ġfam":1700,"Ġplaats":1701,"eert":1702,"Ġverdikte":1703,"IOS":1704,"ĠDi":1705,"Ġmetastasen":1706,"astase":1707,"Ġechog":1708,"achte":1709,"wist":1710,"AIOS":1711,"Dr":1712,"Ġnon":1713,"od":1714,"Ġsegm":1715,"ĠLangeRadioloog":1716,"Ġont":1717,"Ġbeeldvormend":1718,"Onveranderd":1719,"Ġgespiculeerde":1720,"ĠVerder":1721,"Ġgeplaatst":1722,"Verspreid":1723,"Ġdaar":1724,"Ġbeg":1725,"onden":1726,"Geb":1727,"stig":1728,"Aanvrager":1729,"ĉĉĉĉĉ":1730,"Ġonderstaande":1731,"Amsterdam":1732,"weet":1733,"Ġverrichtten":1734,"ĠonderzoekNa":1735,"Patientnummer":1736,"BSN":1737,"ĠGeachte":1738,"Onderzoeksdatum":1739,"Geboortedatum":1740,"ĠonderzoekNaam":1741,"raina":1742,"Ġbekend":1743,"rainage":1744,"weetal":1745,"Ġ30":1746,"ging":1747,"uatie":1748,"Ġparasternaal":1749,"stru":1750,"ildw":1751,"ildwacht":1752,"rast":1753,"heel":1754,"ildwachtklier":1755,"Ġcyt":1756,"Ġretromamil":1757,"Zie":1758,"Ġ24":1759,"Ġnodu":1760,"Ġverdichtingen":1761,"Ġverdenking":1762,"Ġeveneens":1763,"order":1764,"uus":1765,"Ġva":1766,"Ġgelob":1767,"Ġechoarme":1768,"ert":1769,"oel":1770,"ilie":1771,"Ġmeest":1772,"Ġthans":1773,"Ġeerdere":1774,"Ġnod":1775,"ĠMBqKlinische":1776,"Ġlijkt":1777,"Ġvanuit":1778,"eleide":1779,"Ġbevindingen":1780,"Bekende":1781,"Ġjodiumzaadje":1782,"Ġterug":1783,"Ġarchitectuurverstoringen":1784,"ifocale":1785,"atig":1786,"yst":1787,"Ġmammaca":1788,"massa":1789,"wand":1790,"ine":1791,"Ġafgrensbaar":1792,"sterveld":1793,"rel":1794,"schijf":1795,"CH":1796,"poli":1797,"Ġgril":1798,"terior":1799,"atell":1800,"atelliet":1801,"Ġklierschijf":1802,"rat":1803,"beoordeling":1804,"cro":1805,"Ġanterior":1806,"kel":1807,"Ġ2019":1808,"Tc":1809,"Ġ.":1810,"oeve":1811,"Ġsep":1812,"Ġlateraalboven":1813,"ĠDicterend":1814,"Ġbron":1815,"Sch":1816,":-":1817,"Ġdiffus":1818,"Ġplaatsen":1819,"Ġbelast":1820,"gebied":1821,"iddels":1822,"complic":1823,"apel":1824,"Ġresp":1825,"yma":1826,"aud":1827,"ratumor":1828,"ĠEen":1829,"Ġhierin":1830,"kom":1831,"Ġaange":1832,"2010":1833,"2004":1834,"Ġwaarvan":1835,"Ġtwist":1836,"Ġ08":1837,"Ġmarkering":1838,"Ġvocht":1839,"Ġ28":1840,"Ġparenchyma":1841,"Ġsatelliet":1842,"apeling":1843,"Ġber":1844,"leen":1845,"ymmetr":1846,"Ġenige":1847,"Ġgeneeskundige":1848,"Ġrichting":1849,"ĠGoed":1850,"Ġherken":1851,"ede":1852,"18":1853,"ĠSecond":1854,"ĠLee":1855,"ediaal":1856,"sluitend":1857,"Ġbegeleid":1858,"Ġaanvullend":1859,"Ġ2018":1860,"agnostiek":1861,"ĠBruiningRadioloog":1862,"au":1863,"Ġcontrast":1864,"Ġhemat":1865,"Ġoverige":1866,"Ġafstand":1867,"atiÃ«n":1868,"ĠWesterveld":1869,"Ġweg":1870,"wel":1871,"ons":1872,"Ġpector":1873,"Ġgeringe":1874,"Ġaankleurend":1875,"delen":1876,"ystro":1877,"Ġ27":1878,"arget":1879,"oop":1880,"aarne":1881,"olair":1882,"Ġkwadrant":1883,"utoriserend":1884,"Ġstereotactisch":1885,"ann":1886,"Ġbol":1887,"Ġ26":1888,"Ġhypo":1889,"Ġverhoog":1890,"Schildwachtklier":1891,"tjes":1892,"Ġlokale":1893,"lige":1894,"Ġkomt":1895,"ĠRT":1896,"reven":1897,"uwen":1898,"Ġretromamillair":1899,"cy":1900,"Ġlinkeraxilla":1901,"Ġgenomen":1902,"ifocaal":1903,"Ġgegro":1904,"cess":1905,"clu":1906,"elon":1907,"Advies":1908,"Nucleair":1909,"Ġ2016":1910,"Mammogram":1911,"2009":1912,"alpabel":1913,"Ġnieuw":1914,"Ġechelon":1915,"Ġtumormassa":1916,"ense":1917,"Ġbeoordelen":1918,"utatie":1919,"ood":1920,"Ġschors":1921,"Ġbeoordeelbaarheid":1922,"Ġcysteuze":1923,"Ġziekenhuis":1924,"Ġdeels":1925,"gecomplic":1926,"Ġtweetal":1927,"gang":1928,"Ġpatiente":1929,"Ġwer":1930,"IN":1931,"wijkingen":1932,"ctomie":1933,"akt":1934,"Ġvers":1935,"2020":1936,"Ġjodiumbron":1937,"ĠPol":1938,"mer":1939,"Ġcut":1940,"Ġminder":1941,"Ġdystro":1942,"ĠonderzoekRadiofarmacon":1943,"Ġlang":1944,"perv":1945,"Ġvin":1946,"Ġhematoom":1947,"Ġechorijke":1948,"ker":1949,"val":1950,"Ġ2017":1951,"ĠEnkele":1952,"Ġwerden":1953,"Ġstru":1954,"iclaviculair":1955,"Ġmastopathie":1956,"Verder":1957,"impele":1958,"Ġpunct":1959,"Ġgoede":1960,"Het":1961,"Ġtonen":1962,"Ġtoegenomen":1963,"Ġpectoralis":1964,"Ġup":1965,"elden":1966,"Ġgeclu":1967,"Ġmammapoli":1968,"pervlak":1969,"Ġneoadjuvante":1970,"Mammacarcinoom":1971,"Ġbegrensd":1972,"Ġgegroep":1973,"aald":1974,"Dosis":1975,"Ġronde":1976,"Ġexcisie":1977,"Ġslecht":1978,"Ġ50":1979,"ri":1980,"hoek":1981,"Be":1982,"Ġ29":1983,"pervlakk":1984,"Her":1985,"Ġstereotactische":1986,"Ġnormale":1987,"Ġveel":1988,"ĠVoor":1989,"hancem":1990,"ccess":1991,"hancement":1992,"ĠControle":1993,"Ġ07":1994,"Ġvolle":1995,"Conform":1996,"ving":1997,"Ġlate":1998,"Ġgeheel":1999,"Ġaanto":2000,"Ġenhancement":2001,"ijne":2002,"mass":2003,"Ġaantoon":2004,"beoordeel":2005,"ĠCategorie":2006,"ose":2007,"Ġkor":2008,"inds":2009,"rik":2010,"uncte":2011,"ĠLeeuwen":2012,"Ġverm":2013,"ĠSt":2014,"ĠGeb":2015,"oud":2016,"Ġverspreide":2017,"Ġloc":2018,"Ġsimpele":2019,"Ġnodus":2020,"PA":2021,"KI":2022,"Ġfamilie":2023,"ĠNKI":2024,"lot":2025,"ĠAanvrager":2026,"ccession":2027,"Ġlig":2028,"ccessionnummer":2029,"ĠAfdeling":2030,"ĠOnderzoeksdatum":2031,"ĠGeboortedatum":2032,"ĠLeeuwenhoek":2033,"ĠAccessionnummer":2034,"Ġfijne":2035,"ĠBSN":2036,"ui":2037,"Ġorder":2038,"iklinisch":2039,"Ġovereenkom":2040,"ĠPoliklinisch":2041,"Ġwegens":2042,"Ġtegen":2043,"laterale":2044,"urg":2045,"Ġjaar":2046,"Ġgroepjes":2047,"hier":2048,"Ġzijde":2049,"Ġventraal":2050,"verdi":2051,"diagnostiek":2052,"Ġhoogte":2053,"Ġ2015":2054,"Ġberust":2055,"entrum":2056,"Ġ04":2057,"Ġbeschik":2058,"---":2059,"ĠMAMMA":2060,"Ġtoen":2061,"Ġverhoogde":2062,"Ġalleen":2063,"Ġgehele":2064,"Ġpijn":2065,"Ġdense":2066,"nese":2067,"Ġdiep":2068,"ĠOK":2069,"Ġontst":2070,"Ġbeschreven":2071,"Ġoppervlakk":2072,"Ġsneldiagnostiek":2073,"stectomie":2074,"amnese":2075,"ĠDit":2076,"anu":2077,"plaat":2078,"Ġcytologie":2079,"ĠEchografisch":2080,"ane":2081,"Echografisch":2082,"pre":2083,"aard":2084,"Ġevid":2085,"Ġaden":2086,"fische":2087,"Ġbehand":2088,"ĠVerspreid":2089,"Ġherkenbaar":2090,"rect":2091,"ĠUrk":2092,"ocaud":2093,"Ġun":2094,"ositief":2095,"Ġbl":2096,"ieuw":2097,"Ġvisualisatie":2098,"Ġad":2099,"vang":2100,"Ġnodulaire":2101,"Ongewijzigd":2102,"Ġgebiedje":2103,"Ġdrainage":2104,"ĠElders":2105,"Ġminima":2106,"verdikking":2107,"Ġwaaruit":2108,"Ġfoci":2109,"Ġdiffuus":2110,"Ġverder":2111,"Herbeoordeling":2112,"wege":2113,"iraal":2114,"Ġpalpabel":2115,"Zeer":2116,"areolair":2117,"eng":2118,"Ġredelijk":2119,"Ġtijd":2120,"sparende":2121,"owel":2122,"ech":2123,".,":2124,"ei":2125,"2008":2126,"oedelijk":2127,"over":2128,"oeg":2129,"uncteerd":2130,"Ġsuspect":2131,"Ġmastectomie":2132,"Ġ06":2133,"Ġhistologisch":2134,"ĠEZ":2135,"Ġgeduid":2136,"ligg":2137,"ĠEZIS":2138,"Ġgrillige":2139,"kken":2140,"ĠBekende":2141,"Ġneg":2142,"anuari":2143,"Ġaug":2144,"Ġkorte":2145,"Ġcutis":2146,"Ġirregulaire":2147,"Ġbest":2148,"Ġablatie":2149,"Ġmaart":2150,"structie":2151,"umma":2152,"ijkom":2153,"Ġinv":2154,"Ġafgebeeld":2155,"sterde":2156,"Ġsegment":2157,"Ġvolgens":2158,"Ġmoe":2159,"Ġap":2160,"Ġmetastase":2161,"Ġokt":2162,"Ġrechteraxilla":2163,"raniaal":2164,"Ġimp":2165,"borst":2166,"uni":2167,"Ġpericlaviculair":2168,"Ġgeclusterde":2169,"!!":2170,"ĠAutoriserend":2171,"nanocolloidDosis":2172,"pot":2173,"dz":2174,"ECT":2175,"Ġ03":2176,"odiumma":2177,"Ġmei":2178,"odiummarker":2179,"Ġlood":2180,"one":2181,"Ġuitgebreide":2182,"Ġjanuari":2183,"Ġgr":2184,"Ġovaal":2185,"istologisch":2186,"volgens":2187,"teriaal":2188,"eeg":2189,"orfe":2190,"vide":2191,"Ġ05":2192,"constructie":2193,"erende":2194,"entie":2195,"elfde":2196,"Ġthoraxwand":2197,"Ġonverdachte":2198,"Ġsparende":2199,"Ġlokalisatie":2200,"Ġlicht":2201,"ĠJodium":2202,"Ġperi":2203,"Ġvolledig":2204,"Ġechol":2205,"Ġgegroepeerde":2206,"PECT":2207,"Ġtoch":2208,"ussen":2209,"Ġgemaakt":2210,"amen":2211,"zoek":2212,"ral":2213,"uurd":2214,"Ġbehoeve":2215,"Ġplaatsing":2216,"tect":2217,"dien":2218,"gel":2219,"Ġmiddels":2220,"eren":2221,"Ġinfraclaviculair":2222,"plaats":2223,"Ġdag":2224,"gecompliceerde":2225,"Ġam":2226,"Ġimpon":2227,"Ġmammasparende":2228,"Ġrespons":2229,"Ġ02":2230,"pector":2231,"Ġomvang":2232,"minste":2233,"dikte":2234,"16":2235,"erhalve":2236,"uctect":2237,"ak":2238,"Ġpunctate":2239,"ĠUrkRadioloog":2240,"gi":2241,"ĠUit":2242,"CHO":2243,"maal":2244,"operatief":2245,"Axillair":2246,"Ġjuni":2247,"Matig":2248,"Ġleeg":2249,"Ġreactieve":2250,"Ġpassen":2251,"roken":2252,"Ġstructuur":2253,"uctectasie":2254,"ober":2255,"ilijk":2256,"naast":2257,"doving":2258,"gestuurd":2259,"omat":2260,"chog":2261,"Ġbes":2262,"Ġrevisie":2263,"Ġ31":2264,"atische":2265,"eertstra":2266,"Ġbijkom":2267,"Follow":2268,"verdacht":2269,"metastasen":2270,"klierweefsel":2271,"Ġverdoving":2272,"bre":2273,"Ġdepot":2274,"toc":2275,"itaire":2276,"Ġreductie":2277,"vens":2278,"17":2279,"Ġalhier":2280,"Ġinjectie":2281,"Ġple":2282,"tocol":2283,"Ġnegatief":2284,"Ġaantoonbaar":2285,"Ġokselklier":2286,"wal":2287,"regen":2288,"Ġpr":2289,"Ġmateriaal":2290,"Ġreconstructie":2291,"Ġecholo":2292,"Ġsupraclaviculair":2293,"ĠAxillair":2294,"gewijzigde":2295,"Ġsymmetr":2296,"Ġductectasie":2297,"Ġcode":2298,"Ġspiraal":2299,"Ġoktober":2300,"Ġfeb":2301,"irurg":2302,"legging":2303,"Nu":2304,"ori":2305,"oksel":2306,"ings":2307,"Ġtevens":2308,"Ġ2007":2309,"Ġparenchym":2310,"olum":2311,"Voor":2312,"ĠCytologische":2313,"ira":2314,"Ġ01":2315,"out":2316,"Ġjuli":2317,"ed":2318,"lan":2319,"racht":2320,"oediening":2321,"sproken":2322,"andra":2323,"ĠAanvull":2324,"Ġverzoek":2325,"ruari":2326,"ĠSandra":2327,"Ġnaast":2328,"iveen":2329,"gaande":2330,"Ġintramammaire":2331,"2007":2332,"Ġlaat":2333,"Ġeval":2334,"biopte":2335,"2006":2336,"Ġzekerheid":2337,"git":2338,"Ġline":2339,"Ġverkregen":2340,"Ġmammogra":2341,"Ġapril":2342,"ill":2343,"punctie":2344,"Ġintramammair":2345,"ĠPalpabele":2346,"ĠHieruit":2347,"Ġgebiopte":2348,"uren":2349,"zelfde":2350,"cytologische":2351,"Ġ---":2352,"Ġechogeleide":2353,"ratumoraal":2354,"Ġser":2355,"Ġdirect":2356,"ĠpatiÃ«n":2357,"ara":2358,"okalisatie":2359,"Dit":2360,"iding":2361,"Ġdigit":2362,"Ġ2009":2363,"Ġ2008":2364,"196":2365,"ontrole":2366,"ĠLi":2367,"fwijkingen":2368,"ACR":2369,"cu":2370,"ĠNormaal":2371,"ys":2372,"Ġbeeldvorming":2373,"ĠInt":2374,"vo":2375,"Een":2376,"Ġhistologische":2377,"Ġvanaf":2378,"ĠViveen":2379,"Ġprotocol":2380,"vember":2381,"Ġvro":2382,"sent":2383,"ietal":2384,"Aanvullende":2385,"Ġ199":2386,"Ġfebruari":2387,"Ġirregulair":2388,"ris":2389,"Ġmacro":2390,"est":2391,"20":2392,"Ġverdichting":2393,"Ġdigitaal":2394,"Ġform":2395,"lacht":2396,"tumor":2397,"aliseerd":2398,"Ġgepuncteerd":2399,"Ġblijk":2400,"Ġformulier":2401,"Ġevaluatie":2402,"ĠZie":2403,"tember":2404,"Ġlymfekliertje":2405,"Ġjodiummarker":2406,"Ġaanv":2407,"iom":2408,"lachten":2409,"eling":2410,"ĠAfmeting":2411,"Ġverw":2412,"putatie":2413,"Ġteken":2414,"Ġradio":2415,"nelde":2416,"Ġinh":2417,"ĠDerhalve":2418,"Ġsubstra":2419,"Ġtenminste":2420,"Ġhuidverdikking":2421,"Ġbre":2422,"Ġvermoedelijk":2423,"Ġnovember":2424,"overen":2425,"zen":2426,"ass":2427,"Ġtussen":2428,"markering":2429,"eotax":2430,"aankleuring":2431,"oops":2432,"utie":2433,"Ġactie":2434,"ĠDD":2435,"Ġzover":2436,"Ġparasternale":2437,"rake":2438,"Ġbeelden":2439,"Ġvrijwel":2440,"Ġsubstraat":2441,"Ġ2006":2442,"Ġkun":2443,"ĠTeertstra":2444,"ĠAl":2445,"axillair":2446,"geven":2447,"Ġvoorgaande":2448,"Ġsprake":2449,"Ġmeet":2450,"lie":2451,"Ġelk":2452,"Ġ2013":2453,"Ġseptember":2454,"echogene":2455,"Ġvergelijkend":2456,"kor":2457,"Ġeerste":2458,"derom":2459,"shalve":2460,"Ġversnelde":2461,"Ġdystrofe":2462,"Ġ2010":2463,"Ġbolvormige":2464,"Ġbegeleidende":2465,"stapeling":2466,"eotaxie":2467,"Ġkunnen":2468,"Ġ2014":2469,"Ġ2020":2470,"Ġ2012":2471,"ĠBekend":2472,"Ġpijnlijk":2473,"Ġbijkomende":2474,"aduw":2475,"Enkele":2476,"derd":2477,"uisart":2478,"tepel":2479,"Ġspot":2480,"cember":2481,"injectie":2482,"Ġcyclus":2483,"Ġafgenomen":2484,"ysi":2485,"actieve":2486,"Ġpleiom":2487,"eci":2488,"ertens":2489,"Ġdecember":2490,"PET":2491,"Ġcorre":2492,"ĠBeeld":2493,"irads":2494,"CA":2495,"liggende":2496,"Ġecholoze":2497,"Ġductaal":2498,"Ġsolitaire":2499,"Ġkleinere":2500,"Ġspiraalvormige":2501,"ces":2502,"Ġechogeleid":2503,"imone":2504,"Ġmass":2505,"Ġverslaglegging":2506,"aste":2507,"Ġparenchymafwijkingen":2508,"Ġgevonden":2509,"Ġevidente":2510,"Ġ2005":2511,"Ġelkaar":2512,"ĠSimone":2513,"ĠMaertens":2514,"vall":2515,"ĠLoveren":2516,"echo":2517,"Ġvaat":2518,"Normale":2519,"Ġbed":2520,"door":2521,"Ġvanwege":2522,"Ġjuist":2523,"ereerd":2524,"Ġlaag":2525,"ĠGen":2526,"Ġbehandeling":2527,"Ġchirurg":2528,"olume":2529,"uggest":2530,"Ġprima":2531,"Ook":2532,"zijde":2533,"RM":2534,"SA":2535,"Ġfocaal":2536,"ĠBenigne":2537,"ĠDaar":2538,"ĠTo":2539,"rictie":2540,"getro":2541,"ĠMogelijk":2542,"ĠSPECT":2543,"iff":2544,"Ġtijdens":2545,"usc":2546,"ruk":2547,"Ġverdeling":2548,"Ġgelobuleerde":2549,"walificatie":2550,"tef":2551,"Ġtekenen":2552,"ege":2553,"gevo":2554,"tefact":2555,"Ġ2011":2556,"leine":2557,"Ġgeleide":2558,"Palpabele":2559,"Ġkeer":2560,"igen":2561,"Ġlob":2562,"Ġsubcutis":2563,"entu":2564,"2005":2565,"Ġoppervlakkig":2566,"liecy":2567,"MG":2568,"Ġbdz":2569,"reductie":2570,"ustus":2571,"195":2572,"Ġbeschikbaar":2573,"anning":2574,"Ġmarkers":2575,"ins":2576,"Ġgroepje":2577,"Ġreactief":2578,"Ġmoeilijk":2579,"ĠMammogram":2580,"entrale":2581,"volutie":2582,"Ġslechts":2583,"Ġuitgevo":2584,"Ġuitgebreid":2585,"Ġzou":2586,"Ġtarget":2587,"ĠCP":2588,"Â·":2589,"Ġmede":2590,"vis":2591,"Ġtwistmarker":2592,"scan":2593,"Ġzowel":2594,"Ġfollow":2595,"engte":2596,"Ġdezelfde":2597,"FDG":2598,"gele":2599,"kend":2600,"ering":2601,"Ġlow":2602,"Ġtotale":2603,"gebracht":2604,"ĠLoverenRadioloog":2605,"Ġ--------":2606,"VL":2607,"meter":2608,"Ġdrietal":2609,"asis":2610,"man":2611,"tige":2612,"gelaten":2613,"Ġvast":2614,"loten":2615,"vl":2616,"ĠECHO":2617,"korrel":2618,"raagt":2619,"idn":2620,"uggestie":2621,"Ġlengte":2622,"Ġachtergelaten":2623,"ĠNucleair":2624,"Ġuitgevoerd":2625,"ĠGeneeskundige":2626,"ĠSSA":2627,"Ġminimale":2628,"Ġaugustus":2629,"utoriseerd":2630,"autoriseerd":2631,"ĠScreening":2632,"waar":2633,"ilt":2634,"orse":2635,"compressie":2636,"25":2637,"Ġintense":2638,"Ġdubie":2639,"Ġmultifocaal":2640,"geto":2641,"ĠGoede":2642,"ĠAansluitend":2643,"Ġbedraagt":2644,"ĠMet":2645,"ĠGRM":2646,"Ġasymmetr":2647,"ĠLB":2648,"Ġgroter":2649,"Ġaantal":2650,"ivm":2651,"CL":2652,"Ġblijkt":2653,"gelijk":2654,"Ġsinds":2655,"Ġlich":2656,"elde":2657,"Ġdiffuse":2658,"Ġvroege":2659,"Elders":2660,"Ġmammareductie":2661,"ĠCA":2662,"ĠJodiumbron":2663,"Bekend":2664,"Ġoliecy":2665,"Ġvacu":2666,"pectoraal":2667,"uisarts":2668,"Ġgrootte":2669,"aas":2670,"uiten":2671,"Ġcorrel":2672,"Ġinter":2673,"Ġgeor":2674,"Tomosynthese":2675,"Ġvind":2676,"Ġplanning":2677,"Lateraal":2678,"Ġafname":2679,"Ġaut":2680,"Ġivm":2681,"getrokken":2682,"laesie":2683,"itis":2684,"Ġverdikking":2685,"genereerd":2686,"Ġoverleg":2687,"Ġstatische":2688,"calcificatie":2689,"ĠSter":2690,"ĠRE":2691,"RCA":2692,"Ġachterl":2693,"Ġfase":2694,"ĠOver":2695,"Ġaangeto":2696,"enen":2697,"biopt":2698,"present":2699,"Ġlon":2700,"anamnese":2701,"Ġalle":2702,"Ġclaviculair":2703,"Ġvor":2704,"Ġuitge":2705,"ĠMammacarcinoom":2706,"Ġml":2707,"Ġopnames":2708,"Ġpositief":2709,"omatisch":2710,"Ġgegenereerd":2711,"Ġautomatisch":2712,"ectie":2713,"nieuw":2714,"Ġwaarin":2715,"ocaudaal":2716,"Ġrondom":2717,"enteel":2718,"Ġ2004":2719,"gevoeg":2720,"ON":2721,"ĠAdvies":2722,"Ġbijna":2723,"Ġsterk":2724,"Ġherhal":2725,"Ġinvolutie":2726,"tende":2727,"Ġhuisarts":2728,"ader":2729,"Redelijk":2730,"ta":2731,"bel":2732,"atidn":2733,"amelijk":2734,"Ġpap":2735,"Ġbetro":2736,"erste":2737,"Ġenkel":2738,"Ġstapeling":2739,"ocarcinoom":2740,"Ġsc":2741,"Ġvetweefsel":2742,"ĠTc":2743,"Ġanal":2744,"lokalisatie":2745,"cc":2746,"ĠTwee":2747,"ject":2748,"beoordeelbaar":2749,"fam":2750,"ĠAVL":2751,"Ġbeoordeling":2752,"US":2753,"mmo":2754,"Tevens":2755,"omogeen":2756,"merken":2757,"Ġclips":2758,"Ġlineaire":2759,"Normaal":2760,"Ġpleiomorfe":2761,"22":2762,"We":2763,"nog":2764,"Ġvacuum":2765,"ĠHistologisch":2766,"eerdere":2767,"Ġmaand":2768,"ĠToediening":2769,"namen":2770,"Ġhog":2771,"zie":2772,"Ġlymfekliertjes":2773,"Ġzie":2774,"Ġsubcutaan":2775,"gedi":2776,"wijzing":2777,"Ġintens":2778,"Ġovereenkomend":2779,"Ġvier":2780,"oto":2781,"Ġtoegevoeg":2782,"Ġamputatie":2783,"Ġgebiopteerd":2784,"FO":2785,"ĠcT":2786,"Ġsuggestie":2787,"lass":2788,"Ġaankleuringen":2789,"Ġgeoriente":2790,"DC":2791,"Ġdeel":2792,"vestig":2793,"ĠGeautoriseerd":2794,"VG":2795,"Ġtra":2796,"Ġat":2797,"Ġmamil":2798,"Ġbep":2799,"dose":2800,"ard":2801,"laviculaire":2802,"Ġachtergrondaankleuring":2803,"Ġseroom":2804,"gegevens":2805,"ĠGro":2806,"Ġpalp":2807,"rip":2808,"rikplaats":2809,"Ġovergang":2810,"Uit":2811,"USIE":2812,"Onderzoeks":2813,"Ġverdw":2814,"kin":2815,"Ġgein":2816,"ĠPrikplaats":2817,"Onderzoeksgegevens":2818,"ONCL":2819,"uiver":2820,"Ġtoename":2821,"ONCLUSIE":2822,"Ġmammografisch":2823,"Ġovaalvormige":2824,"Ġstereotaxie":2825,"aties":2826,"enti":2827,"ĠKoops":2828,"eeds":2829,"Ġunifocale":2830,"Ġcorrelatie":2831,"ĠCONCLUSIE":2832,"Aanvullend":2833,"Ġjl":2834,"necro":2835,"Ġenig":2836,"udie":2837,"ratumorale":2838,"Ġbreast":2839,"Ġgeleid":2840,"hof":2841,"ĠVia":2842,"Ġprimaire":2843,"Ġpromin":2844,"Ġadenocarcinoom":2845,"ymfeklier":2846,"necrose":2847,"Ġverwij":2848,"Ġsubcutane":2849,"Ge":2850,"ĠBes":2851,"sn":2852,"Ġversch":2853,"Ġingebracht":2854,"cidief":2855,"23":2856,"Ġsymmetrisch":2857,"ring":2858,"Ġwash":2859,"dequ":2860,"asief":2861,"Af":2862,"Ġgew":2863,"sectie":2864,"ĠsneldiagnostiekVerslag":2865,"Ġgevolg":2866,"gevonden":2867,"Ġbeoordeeld":2868,"io":2869,"24":2870,"Ġ:":2871,"vloed":2872,"Ã¯":2873,"Twee":2874,"Ġingetrokken":2875,"iew":2876,"ĠAantal":2877,"ĠMatig":2878,"mis":2879,"Ġgelobde":2880,"Ġherkend":2881,"Thans":2882,"iltr":2883,"Ġzoals":2884,"Ġnabij":2885,"Bes":2886,"Ġnaald":2887,"Ġmammatumor":2888,"Ġforse":2889,"Ġog":2890,"beoordeeld":2891,"Ġachterlaten":2892,"tendeels":2893,"Ġken":2894,"kw":2895,"ĠNormale":2896,"Ġbelasting":2897,"Ġfijn":2898,"vorming":2899,"inec":2900,"inecontrole":2901,"ĠVolume":2902,"Ġdepots":2903,"Ġchemo":2904,"Ġgrens":2905,"Ġsegmenteel":2906,"omediaal":2907,"Ġeigen":2908,"onent":2909,"Centraal":2910,"beelde":2911,"outinecontrole":2912,"ĠBirads":2913,"Ġlip":2914,"Ġlinkerlaterale":2915,"Ġsatellieth":2916,"abie":2917,"raagster":2918,"Ġvert":2919,"rouw":2920,"Ġgelok":2921,"Ġafgebeelde":2922,"aarden":2923,"Ġcompressie":2924,"Ġlobulair":2925,"Ġtepelhof":2926,"Ġlev":2927,"metastase":2928,"chem":2929,"Ġopvall":2930,"ĠVervolgens":2931,"Ġbevestig":2932,"spun":2933,"entueel":2934,"Beeld":2935,"Ġdiffusie":2936,"Ġadvies":2937,"28":2938,"Ġdenser":2939,"aarschijnlijk":2940,"2003":2941,"Ġgeorienteerde":2942,"Ġtoegedi":2943,"innen":2944,"Ġsn":2945,"Ġfibroglandulaire":2946,"nard":2947,"Ġheterogene":2948,"Ġrel":2949,"eft":2950,"men":2951,"ĠWel":2952,"Ġlevel":2953,"Ġmaanden":2954,"cT":2955,"sz":2956,"197":2957,"Mult":2958,"Ġsamen":2959,"ren":2960,"Ġrechterlaterale":2961,"eringe":2962,"spunten":2963,"klachten":2964,"Ġsnelle":2965,"Ġprog":2966,"Ġzuiver":2967,"Ġrepresent":2968,"amer":2969,"diceerd":2970,"Ġ75":2971,"ĠpatiÃ«nte":2972,"ĠKL":2973,"kelijk":2974,"ĠLBQ":2975,"ĠThans":2976,"beoordeelbaarheid":2977,"Ġavide":2978,"Ġtoegediend":2979,"duidelijk":2980,"ellen":2981,"Ġadj":2982,"missie":2983,"stan":2984,"Ġheden":2985,"screening":2986,"ysiologische":2987,"mede":2988,"clusief":2989,"szins":2990,"anging":2991,"Verspreide":2992,"Ġmamilla":2993,"ocraniaal":2994,"radic":2995,"iopten":2996,"prothese":2997,"Hier":2998,"Ġrechterborst":2999,"ekerheid":3000,"ĠEchografie":3001,"Visualisatie":3002,"ete":3003,"amili":3004,"Ġcir":3005,"elijks":3006,"ĠOngecompliceerde":3007,"Ġligt":3008,"Ġsecond":3009,"Ġnodes":3010,"arker":3011,"Ġinfiltr":3012,"27":3013,"ĠMann":3014,"chogeleid":3015,"ikt":3016,"Ġcomponent":3017,"Ġwv":3018,"mal":3019,"26":3020,"Ġplus":3021,"Ġgemet":3022,"ĠTomosynthese":3023,"orre":3024,"ecifie":3025,"uwd":3026,"yste":3027,"Ġinvasie":3028,"194":3029,"Ġsupra":3030,"uwelijks":3031,"Ġzelf":3032,"Ġvetnecrose":3033,"ilus":3034,"ble":3035,"view":3036,"Ġpostoperatief":3037,"Ġcortexdikte":3038,"Ġclass":3039,"Ġdun":3040,"Gro":3041,"kwab":3042,"Ġgedeel":3043,"Cytologische":3044,"ment":3045,"colle":3046,"Ġinvasief":3047,"Ġaangetoond":3048,"Ġuitbre":3049,"tefacten":3050,"eerbaar":3051,"doende":3052,"ura":3053,"nop":3054,"Ġtyp":3055,"Ġzal":3056,"Ġcentrum":3057,"St":3058,"zont":3059,"Ġrestrictie":3060,"Ġgea":3061,"Ġpunt":3062,"Ġcontral":3063,"last":3064,"druk":3065,"Ġhaard":3066,"Ġweer":3067,"orizont":3068,"all":3069,"Screening":3070,"Ġopnieuw":3071,"Ġlinkerborst":3072,"Ġwaargenomen":3073,"Ġscan":3074,"ding":3075,"LVG":3076,"!!!":3077,"50":3078,"Ġverdwenen":3079,"oeveel":3080,"ben":3081,"avide":3082,"Ġwand":3083,"ĠMannRadioloog":3084,"Ġ2003":3085,"Ġsmal":3086,"Ġgrotendeels":3087,"raak":3088,"ooi":3089,"Ġloodkorrel":3090,"gelegen":3091,"collectie":3092,"Ġteruggevonden":3093,"Ġverkalking":3094,"Ġbesproken":3095,"Ġmo":3096,"ĠNiet":3097,"Ġdorsale":3098,"ĠConform":3099,"Ġhal":3100,"Ġkwalificatie":3101,"29":3102,"Ġmetab":3103,"205":3104,"Ġspotcompressie":3105,"opnamen":3106,"Ġgraag":3107,"ĠFollow":3108,"Ġplek":3109,"ou":3110,"Ġhoeveel":3111,"Ġactieve":3112,"Ġhorizont":3113,"Ġbek":3114,"ulp":3115,"int":3116,"mammogram":3117,"ĠNog":3118,"Ġpapill":3119,"ekerheidshalve":3120,"wijking":3121,"Ġanamnese":3122,"chemo":3123,"Ġoksell":3124,"Ġgesch":3125,"emen":3126,"Ġgelokaliseerd":3127,"Ġ214":3128,"erder":3129,"INFO":3130,"orf":3131,"Ġgez":3132,"UV":3133,"Ġgering":3134,"Ġstudie":3135,"Ġfoto":3136,"spire":3137,"Ġdus":3138,"Ġhoeveelheid":3139,"sist":3140,"ĠSch":3141,"Ġpast":3142,"knop":3143,"ĠWaarschijnlijk":3144,"Ġvorig":3145,"Ġgedi":3146,"ĠIDC":3147,"aart":3148,"Ġbetreff":3149,"Ġongewijzigde":3150,"ĠOnverdacht":3151,"ijft":3152,"Ġkenmerken":3153,"Ġlocatie":3154,"ocaudale":3155,"Ġza":3156,"jecte":3157,"lecht":3158,"Second":3159,"Ġbuiten":3160,"Ġgeaspire":3161,"Ġkleiner":3162,"ximale":3163,"Ġlymfe":3164,"Ġvinden":3165,"iel":3166,"jecterend":3167,"Ġovereenkomstig":3168,"iffuus":3169,"ĠPunctie":3170,"middels":3171,"Ġwijz":3172,"Ġalsmede":3173,"Ġzichtbare":3174,"Ġleegge":3175,"75":3176,"Ġontstaan":3177,"ĠRedelijk":3178,"ĠAanvullend":3179,"Ġgeaspireerd":3180,"positief":3181,"Ġlaatste":3182,"atieve":3183,"ateau":3184,"Ġactiviteits":3185,"zeker":3186,"Ġvochtcollectie":3187,"Ġhals":3188,"schaduw":3189,"Ġpijnlijke":3190,"orsaal":3191,"chogeleide":3192,"Ġrestklierweefsel":3193,"giale":3194,"Ġmen":3195,"Ġgroet":3196,"lete":3197,"age":3198,"ĠCentraal":3199,"ollegiale":3200,"illi":3201,"Ġinfra":3202,"Ġclassificatie":3203,"duc":3204,"ette":3205,"ĠDu":3206,"ĠEn":3207,"Ġmultifocale":3208,"Ġarm":3209,"Gaarne":3210,"ulus":3211,"Ġechoarm":3212,"Ġbehulp":3213,"30":3214,"Ġoksellymfeklier":3215,"Ġgeeft":3216,"Ġherhalen":3217,"Ġintratumoraal":3218,"Ġlinkeroksel":3219,"Ġbloed":3220,"Ġgroei":3221,"Ġveth":3222,"ept":3223,"Ġtotaal":3224,"alsnog":3225,"ĠReden":3226,"Ġstabie":3227,"Ġintratumorale":3228,"Post":3229,"Ġcaudale":3230,"Ġvolg":3231,"Ġlong":3232,"ium":3233,"Ġpla":3234,"ĠHeterogeen":3235,"Ġoperatiegebied":3236,"Ġlichamelijk":3237,"Ġradiologie":3238,"Ġgrillig":3239,"ĠIntratumoraal":3240,"Ġbegeleidings":3241,"Ġbegeleidingsformulier":3242,"oster":3243,"Ġhel":3244,"Ġaanvraag":3245,"ĠGaarne":3246,"opau":3247,"opauz":3248,"vormig":3249,"ĠPost":3250,"Ġhieruit":3251,"ecro":3252,"cyste":3253,"Ġductectasieen":3254,"Ġqu":3255,"Ġvervolgens":3256,"Ã·":3257,"esp":3258,"Ġoliecysten":3259,"Ġwaarna":3260,"Ġing":3261,"Ġpostinjectie":3262,"hesie":3263,"Ġnoduli":3264,"obbel":3265,"Ġcentrale":3266,"ĠMult":3267,"ĠLateraal":3268,"Ġingestuurd":3269,"Ġpalpatie":3270,"werp":3271,"Ġcytologisch":3272,"esthesie":3273,"Onverdacht":3274,"Target":3275,"Ġdunne":3276,"atidnte":3277,"Ġplateau":3278,"org":3279,"Ġben":3280,"ĠHer":3281,"45":3282,"Ġhorizontaal":3283,"Ġsmalle":3284,"98":3285,"Ġmid":3286,"Ġro":3287,"Ġzaadje":3288,"ool":3289,"lasie":3290,"Ġanesthesie":3291,"tekening":3292,"oreg":3293,"volu":3294,"Ġwijzig":3295,"Ġpuntvormige":3296,"ijen":3297,"ieur":3298,"Ġprojecterend":3299,"max":3300,"Ġlos":3301,"Ġanat":3302,"oeld":3303,"Ġmar":3304,"Ġpijnklachten":3305,"ĠEchter":3306,"ĠOl":3307,"Ġout":3308,"eid":3309,"entimeter":3310,"bev":3311,"indingen":3312,"gezien":3313,"dex":3314,"Ġlangwerp":3315,"Ster":3316,"Ġaangegeven":3317,"Ġcraniocaudale":3318,"Ġlie":3319,"bes":3320,"yse":3321,"mee":3322,"tra":3323,"uik":3324,"ĠBesnard":3325,"Ġaspecifie":3326,"Ġgevoeld":3327,"Ġverwijderd":3328,"chn":3329,"Un":3330,"Ġlinkertepel":3331,"gren":3332,"ankleuring":3333,"ts":3334,"Ġgemeten":3335,"Wederom":3336,"Ġhogere":3337,"ĠWit":3338,"Al":3339,"oregion":3340,"Ġslag":3341,"Ġlymfeb":3342,"thes":3343,"Ġinwas":3344,"ign":3345,"Ġcentimeter":3346,"Ġderde":3347,"andtekening":3348,"Ġrecente":3349,"Ġanatom":3350,"Ġweken":3351,"Ġvoel":3352,"Ġaanvoel":3353,"ĠPre":3354,"ĠVerwezen":3355,"Ġhui":3356,"ĠHT":3357,"rijgen":3358,"Ġrib":3359,"38":3360,"ĠAanvullende":3361,".\"":3362,"Ġlittekenweefsel":3363,"recidief":3364,"sma":3365,"Eerste":3366,"Ġpart":3367,"Ġmusc":3368,"illair":3369,"Ġgeschat":3370,"Ġchirurgische":3371,"Ġmatige":3372,":Â·":3373,"Ġoppervlakkige":3374,"kelet":3375,"Ġasymmetrieen":3376,"ilicon":3377,"onale":3378,"Ġnauwelijks":3379,"Supervis":3380,"Ġbeschikking":3381,"Ġtraject":3382,"Ġminimaal":3383,"Ġcorrecte":3384,"Ġgehad":3385,"aag":3386,"berg":3387,"Ġparenchymaankleuring":3388,"ĠToonen":3389,"ronde":3390,"Ġmenstru":3391,"teuze":3392,"Ġlymfkliertje":3393,"Ġkuren":3394,"Ġgedaan":3395,"Ġmacrocalcificaties":3396,"ĠFran":3397,"Ġcomplete":3398,"Ġbespre":3399,"204":3400,"ĠZeer":3401,"35":3402,"ĠWess":3403,"sternaal":3404,"menopauz":3405,"ĠKleine":3406,"Ġdubieus":3407,"ĠHiervan":3408,"Ġi":3409,"Ġbescho":3410,"Ġtumorpositief":3411,"velijk":3412,"trekking":3413,"Ġliezen":3414,"Ġanatomische":3415,"ĠDaarnaast":3416,"lateraal":3417,"afgaand":3418,"kje":3419,"ilateraal":3420,"ĠBRCA":3421,"omogene":3422,"Ġring":3423,"gio":3424,"Ġskelet":3425,"gend":3426,"Ġslagschaduw":3427,"Vervolgens":3428,"Ġfamilieanamnese":3429,"upervisie":3430,"21":3431,"Ġmmol":3432,"knoping":3433,"Ġrepresentatief":3434,"mammo":3435,"ĠStereotact":3436,"Ġmastitis":3437,"36":3438,"Ġhanging":3439,"Ġaanknoping":3440,"opathisch":3441,"Ġenigszins":3442,"Ġlokaal":3443,"ucleaire":3444,"Ġafw":3445,"Mediaal":3446,"radiatie":3447,"Ġmax":3448,"Ġvlak":3449,"anderde":3450,"Ġlittekengebied":3451,"ĠToonenRadioloog":3452,"eus":3453,"Ġbeoordeelbare":3454,"Ġremissie":3455,"scand":3456,"biopten":3457,"?;":3458,"ĠZekerheidshalve":3459,"Ġocc":3460,"Ġpositieve":3461,"Ġtechn":3462,"%.":3463,"Goede":3464,"Ġgeplaatste":3465,"ico":3466,"Ġimponeert":3467,"Ġmel":3468,"adenomen":3469,"vocht":3470,"tel":3471,"Ġechelonklier":3472,"Ġou":3473,"prik":3474,"Ġmicrocalcificatie":3475,"Ġlichte":3476,"voldoende":3477,"Ġrechteroksel":3478,"licaties":3479,"Ġprominente":3480,"Ġverdere":3481,"Ġasymmetrisch":3482,"ĠMed":3483,"amiliair":3484,"ĠER":3485,"duct":3486,"Ġris":3487,"mammair":3488,"maker":3489,"Ġsilicon":3490,"Ġogende":3491,"ĠDosis":3492,"97":3493,"ĠDens":3494,"ĠOLVG":3495,"cel":3496,"Ġgeindiceerd":3497,"ĠTeertstraRadioloog":3498,"elaste":3499,"Ġcontralaterale":3500,"Ġess":3501,"eeskunde":3502,"96":3503,"Daar":3504,"ĠMammografieStatus":3505,"utel":3506,"Ġsentinelnodes":3507,"ilaterale":3508,"Ġwaardoor":3509,"radicaal":3510,"37":3511,"ĠBiopten":3512,"ĠPatiente":3513,"ĠSp":3514,"Ġoverwe":3515,"Ġaanknopingspunten":3516,"Ġplu":3517,"Via":3518,"intrekking":3519,"Ġden":3520,"Ġconf":3521,"tenuatie":3522,"Ġeventueel":3523,"Ġbesloten":3524,"Ġsatellietlaesie":3525,"Ġattenuatie":3526,"gesch":3527,"uleerd":3528,"Ã¯n":3529,"Ġuitslag":3530,"Ġgevisu":3531,"metingen":3532,"oma":3533,"Ġfibrose":3534,"ervaart":3535,"lotervaart":3536,"Ġbasis":3537,"Ġdd":3538,"Ġkomst":3539,"dequate":3540,"ĠVan":3541,"icentr":3542,"Ġsegmentele":3543,"mentatie":3544,"Ġgeleden":3545,"Ġdik":3546,"inima":3547,"Ġbespreking":3548,"reep":3549,"luc":3550,"Ġtumorgebied":3551,"ula":3552,"Ġref":3553,"MC":3554,"grenz":3555,"xcisie":3556,"55":3557,"Ġonduidelijk":3558,"Ġgeb":3559,"icaal":3560,"agen":3561,"heen":3562,"proken":3563,"Ġbinnen":3564,"88":3565,"Ġmammalokalisatie":3566,"EL":3567,"IV":3568,"edel":3569,"Ġinfiltrerend":3570,"Ġtoegevoegde":3571,"Ġbolronde":3572,"Ġinvasieve":3573,"ĠpatiÃ«nt":3574,"dit":3575,"rans":3576,"Ġlocoregion":3577,"risc":3578,"ĠHierbij":3579,"Ġcyst":3580,"biopsie":3581,"Ġsatelliethaard":3582,"lectie":3583,"Ġessentie":3584,"Ġuitgang":3585,"Ġstervormige":3586,"Punctie":3587,"94":3588,"avo":3589,"Ġgevoel":3590,"Meerdere":3591,"elen":3592,"pas":3593,"Ten":3594,"Ġonzeker":3595,"cler":3596,"Ġaxillae":3597,"Ġindicatie":3598,"Ġgevolgd":3599,"Ġleeft":3600,"Ġgevisualiseerd":3601,"Ġprojecte":3602,"Ġgebiedjes":3603,"ĠCentrum":3604,"Ġleeftijd":3605,"Ġdes":3606,"Ġherh":3607,"avoura":3608,"lex":3609,"valuatie":3610,"Ġrechtertepel":3611,"Ġvolgt":3612,"ĠMR":3613,"Ġvergrot":3614,"voo":3615,"adiÃ«":3616,"adiÃ«ring":3617,"verkalk":3618,"Ġheb":3619,"Ġposter":3620,"iele":3621,"tenberg":3622,"Ġhorm":3623,"Ġdicht":3624,"UVmax":3625,"Ġplasma":3626,"Ġhiervoor":3627,"odense":3628,"Ġimponerende":3629,"avourable":3630,"ieden":3631,"Ġoccult":3632,"Ġmedebeoordeeld":3633,"Ġevident":3634,"ret":3635,"ĠPer":3636,"Ġdoorkleuring":3637,"lopend":3638,"ĠDoor":3639,"Ġmusculus":3640,"pl":3641,"Ġfamili":3642,"pasbaar":3643,"Ġechogra":3644,"Ġvorm":3645,"ĠWittenberg":3646,"etreft":3647,"Ġverstor":3648,"Ġ'":3649,"Ġprojecteert":3650,"Ġinge":3651,"irect":3652,"our":3653,"telijk":3654,"lucose":3655,"Ġprogressie":3656,"Ġsleutel":3657,"Ġloodmarkering":3658,"ant":3659,"eke":3660,"rengen":3661,"Ġbevinden":3662,"Ġindex":3663,"Ġoude":3664,"Ġsteeds":3665,"Ġcomplicaties":3666,"Ġuitbreiding":3667,"beelden":3668,"ĠpT":3669,"ĠWessel":3670,"gesteld":3671,"leiding":3672,"Ġmc":3673,"ectomie":3674,"34":3675,"ĠBeide":3676,"ĠLO":3677,"ĠGraag":3678,"Ġmastopathisch":3679,"Autoriserend":3680,"CP":3681,"orrectie":3682,"Ġkliertje":3683,"ĠSlotervaart":3684,"iedenis":3685,"Ġhebben":3686,"Ġ2002":3687,"ac":3688,"ĠWesselsRadioloog":3689,"Ġgeneeskunde":3690,"ein":3691,"Ġhetgeen":3692,"geschiedenis":3693,"Ġaanleiding":3694,"ibro":3695,"Ġbelaste":3696,"ĠIndien":3697,"Ġinhoud":3698,"inaal":3699,"Ġlastig":3700,"Ġvergelijkbaar":3701,"Ġdystrofische":3702,"basis":3703,"ĠchemotherapieIndicatie":3704,"Ġpapilloom":3705,"Ġonderliggende":3706,"Ġactief":3707,"otale":3708,"Ġonvoldoende":3709,"Ġlipoom":3710,"Ġbestaat":3711,"Ġ314":3712,"ĠgegevenscT":3713,"Retro":3714,"vlak":3715,"Ġnecro":3716,"image":3717,"Ġcraniale":3718,"cturen":3719,"ectievelijk":3720,"ymmetrisch":3721,"Ġverwezen":3722,"Ġexter":3723,"Ġlinkerzijde":3724,"Ġradioactieve":3725,"Over":3726,"95":3727,"Ġbeschouwd":3728,"Ġmediocaudaal":3729,"volueerd":3730,"ĠMediaal":3731,"Ġuitgesproken":3732,"ĠAm":3733,"Ġontstek":3734,"Ġrechterzijde":3735,"histologisch":3736,"Ġintraduct":3737,"Ġopvallende":3738,"DCIS":3739,"Ġrisico":3740,"Ġvaatkalk":3741,"prikt":3742,":.":3743,"86":3744,"Besproken":3745,"glucose":3746,"Ġ------------":3747,"Ġgescand":3748,"tima":3749,"Ġdikte":3750,"Ġpostradiatie":3751,"Per":3752,"ĠGezien":3753,"ĠConclusieVisualisatie":3754,"gebo":3755,"Massa":3756,"AC":3757,"EN":3758,"gecompliceerd":3759,"ĠMedisch":3760,"ĠII":3761,"edelbasis":3762,"Ġmilli":3763,"Ġaansluitend":3764,"controle":3765,"ĠMarker":3766,"Ġcarcin":3767,"Ġdiagn":3768,"Ġanalyse":3769,"ĠgegevensMammacarcinoom":3770,"Ġrelatie":3771,"Typist":3772,"Kleine":3773,"Ġzekere":3774,"adjuvant":3775,"Ġzekerheidshalve":3776,"cum":3777,"leek":3778,"Ġwijziging":3779,"ĠgeÃ¯n":3780,"Ġnemen":3781,"Ġomhoog":3782,"Ġasymmetrische":3783,"Ġsegmentale":3784,"Ġinpasbaar":3785,"Ġaangeprikt":3786,"Ġdelen":3787,"verkalkingen":3788,"Ġvetc":3789,"ĠHierin":3790,"Ġhyper":3791,"adering":3792,"cis":3793,"volen":3794,"bevolen":3795,"Ġgedeeltelijk":3796,"rol":3797,"komen":3798,"ey":3799,"oort":3800,"Ġcc":3801,"atige":3802,"ĠStok":3803,"echoische":3804,"regel":3805,"Deze":3806,"creen":3807,"Ġbetreffen":3808,"Ġlymfebaan":3809,"arasternaal":3810,"Ġtoenem":3811,"Ġdis":3812,"46":3813,"ocentraal":3814,"ĠVergelijk":3815,"itt":3816,"Ġsec":3817,"ets":3818,"ĠGroot":3819,"einstra":3820,"oeder":3821,"Ġrespectievelijk":3822,"ijer":3823,"Ġrester":3824,"correctie":3825,"Ġcontrastopname":3826,"igniteit":3827,"ĠBewezen":3828,"sle":3829,"Ġresectie":3830,"ĠStokkel":3831,"Ġherhaald":3832,"Ġpersist":3833,"Ġbepal":3834,"Ġvervette":3835,"Ġuitlopers":3836,"md":3837,"Ġtype":3838,"dd":3839,"ĠSinds":3840,"atiÃ«nte":3841,"familie":3842,"yt":3843,"ĠMammografieKlinische":3844,"cN":3845,"Ġringvormige":3846,"Ġ125":3847,"ogel":3848,"87":3849,"Ġalwaar":3850,"Ġmutatie":3851,"Ġongecompliceerde":3852,"ioole":3853,"ĠSupervisie":3854,"Bewezen":3855,"Ġschaduw":3856,"Ġaanbevolen":3857,"Ġdubieuze":3858,"sterking":3859,"Ġnodulair":3860,"Ġindruk":3861,"Dens":3862,"Ġklinisch":3863,"Met":3864,"Patiente":3865,"85":3866,"evindingen":3867,"ĠEchogeleid":3868,"scrip":3869,"lanke":3870,"Ġkleur":3871,"vergeleken":3872,"ĠIntra":3873,"asthuis":3874,"cumscrip":3875,"ĠKr":3876,"INK":3877,"mmillair":3878,"44":3879,"Ġvetcentrum":3880,"aligniteit":3881,"Ġmammaklierweefsel":3882,"ziekenhuis":3883,"ĠFioole":3884,"ĠHiel":3885,"Ġinhomogeen":3886,"Geringe":3887,"ner":3888,"ieuwe":3889,"Ġkey":3890,"Ġverkla":3891,"daar":3892,"Loo":3893,"ĠEerder":3894,"ĠSeinstra":3895,"Ġkader":3896,"Ġactiviteitsstapeling":3897,"ĠAn":3898,"ĠOngewijzigde":3899,"audaal":3900,"ĠTen":3901,"LL":3902,"Ġstabiel":3903,"Ġattenuatiecorrectie":3904,"ook":3905,"Ġstern":3906,"roep":3907,"liggend":3908,"Ġcircumscrip":3909,"ĠafwijkingenVerslag":3910,"Ġbetrokken":3911,"Ġklachten":3912,"zaam":3913,"Graag":3914,"Ġmammaweefsel":3915,"ouden":3916,"Ġreflectie":3917,"arc":3918,"gl":3919,"Ġregio":3920,"Ġbeter":3921,"Ġprothes":3922,"ĠSeinstraRadioloog":3923,"Ġmillimeter":3924,"Daarnaast":3925,"Ġbleek":3926,"oudend":3927,"hoven":3928,"erentie":3929,"pectorale":3930,"Ġdiepte":3931,"lit":3932,"Ġare":3933,"Ġborstweefsel":3934,"Ġsign":3935,"Ġverticaal":3936,"Ġ-----":3937,"tigra":3938,"cintigra":3939,"arate":3940,"Ġverdikt":3941,"Ġvage":3942,"ĠMammografieOnveranderd":3943,"ident":3944,"Ġsymmetrische":3945,"ĠOKD":3946,"Ġdatum":3947,"Ġhierbij":3948,"Routinecontrole":3949,"Ġindien":3950,"Ġcorresp":3951,"Ġvol":3952,"Ġep":3953,"Ġlangwerpige":3954,"Ġintre":3955,"ĠbeiderzijdsVerslag":3956,"Nucleaire":3957,"ĠPatient":3958,"Ġhuidige":3959,"Ġhistologie":3960,"ionele":3961,"SC":3962,"Ġuitw":3963,"ĠMaximale":3964,"aad":3965,"Ġmidden":3966,"Mede":3967,"Ġvooral":3968,"ĠKn":3969,"Ġondersch":3970,"Ġoede":3971,"Ġonregel":3972,"Ġbehandeld":3973,"iaal":3974,"Ġvastgesteld":3975,"Ġradiologisch":3976,"Ġ313":3977,"afwijkingen":3978,"Ġweke":3979,"Ġvettige":3980,"33":3981,"oen":3982,"Ġmediast":3983,"ĠGasthuis":3984,"Aansluitend":3985,"CHT":3986,"BRCA":3987,"VraagstellingSN":3988,"sar":3989,"espiculeerde":3990,"Ġexterne":3991,"Ġval":3992,"per":3993,"Ġfysiologische":3994,"Ġkliertjes":3995,"OLL":3996,"cellen":3997,"ump":3998,"216":3999,"stantie":4000,"Ġscler":4001,"Ġgebiopteerde":4002,"ĠMede":4003,"Ġspeci":4004,"ssen":4005,"Ġafmetingen":4006,"ĠonderzoekTc":4007,"lis":4008,"bris":4009,"fectie":4010,"ĠMammografieM":4011,"Ġechografische":4012,"Ġmulticentr":4013,"Ġseparate":4014,"Slecht":4015,"gebreide":4016,"Ġkn":4017,"Ġsiliconen":4018,"Ġontsteking":4019,"Ġhaarden":4020,"evrouw":4021,"Ġoksellymfeklieren":4022,"Ġberu":4023,"Ġdriemaal":4024,"Ġviertal":4025,"ks":4026,"oriÃ«n":4027,"ĠLI":4028,"ĠSkin":4029,"raclaviculaire":4030,"schap":4031,"215":4032,"Ġbeper":4033,"infectie":4034,"alist":4035,"Ġberusten":4036,"Ġrecent":4037,"merkt":4038,"Ġgaas":4039,"ilet":4040,"iratie":4041,"inimale":4042,"Ġomgev":4043,"ECHO":4044,"roei":4045,"Ġverkrijgen":4046,"alde":4047,"Ġproces":4048,"Ġintrekking":4049,"Echogeleide":4050,"olte":4051,"Ġret":4052,"Ġconclusie":4053,"Cl":4054,"Ġinstantie":4055,"dan":4056,"anger":4057,"Ġprepectoraal":4058,"Ġgrotere":4059,"Ġverandering":4060,"Ġdaarvan":4061,"niet":4062,"Ġaantoonbare":4063,"DO":4064,"ĠRoutinecontrole":4065,"Ġspecialist":4066,"umul":4067,"Ġlineair":4068,"oca":4069,"Ġkwadranten":4070,"47":4071,"Ġreg":4072,"Ġcel":4073,"ocie":4074,"Ġcircumscripte":4075,"Ġgaasje":4076,"ijp":4077,"Ġvaag":4078,"Ġparenchymateuze":4079,"Ġbestaande":4080,"brengen":4081,"Ġklinische":4082,"ĠSkinner":4083,"treden":4084,"spier":4085,"geborg":4086,"status":4087,"Ġtb":4088,"agenoeg":4089,"ĠIngeborg":4090,"Ġkalkjes":4091,"mammacarcinoom":4092,"ĠFranx":4093,"rechts":4094,"ĠNaCl":4095,"%;":4096,"riple":4097,"Ġstructuren":4098,"grenzing":4099,"Ġaangewezen":4100,"Ġuitsn":4101,"Ġanalist":4102,"egt":4103,"Ġveld":4104,"Ġafgeven":4105,"Ġuitsnijk":4106,"spraak":4107,"ĠLINK":4108,"Ġuitsnijkamer":4109,"Ġuitsluit":4110,"Van":4111,"derdaad":4112,"Lood":4113,"66":4114,"Ġjaren":4115,"uratie":4116,"Ġingroei":4117,"Ġretroareolair":4118,"31":4119,"Ġverschill":4120,"Ġspic":4121,"Ġdiagnose":4122,"Ġqua":4123,"leden":4124,"matig":4125,"Ġtoegevoegd":4126,"Ġmarge":4127,"Ġokselklieren":4128,"ynam":4129,"Ġhilus":4130,"ĠRetro":4131,"halte":4132,"viseerd":4133,"uld":4134,"Ġuitleg":4135,"Ġpatidnte":4136,"Voorafgaand":4137,"stijds":4138,"ierest":4139,"Ġonderscheid":4140,"Aanvulling":4141,"aam":4142,"associe":4143,"Ġdoorlopend":4144,"Ġberustend":4145,"gehalte":4146,"araat":4147,"ĠAr":4148,"weging":4149,"Ġaugmentatie":4150,"Multipele":4151,"ierestrictie":4152,"Ġwaarmee":4153,"Ġuitwass":4154,"Ġoptreden":4155,"moedelijk":4156,"ĠMDO":4157,"ĠductectasieÃ«n":4158,"vasie":4159,"Ġbekijk":4160,"Ġbuik":4161,"gende":4162,"Ġmoet":4163,"Ġgegroepeerd":4164,"agitt":4165,"Ġtweemaal":4166,"raling":4167,"ysiologisch":4168,"angsch":4169,"Ġgerangsch":4170,"etium":4171,"Ġreinjectie":4172,"nr":4173,"ĠMAMMAOnderzoeksgegevens":4174,"Ġlocoregionale":4175,"89":4176,"idoca":4177,"ĠVegt":4178,"Ġdiffusierestrictie":4179,"oof":4180,"Ġ2001":4181,"Bevindingen":4182,"versterking":4183,"ractie":4184,"Ġstreep":4185,"toilet":4186,"Stereotact":4187,"zogen":4188,"77":4189,"ĠBI":4190,"sleijen":4191,"Ġonveranderde":4192,"Ġ216":4193,"raagd":4194,"Pre":4195,"glucosegehalte":4196,"Ġontstane":4197,"Ġverschillende":4198,"ĠMeer":4199,"oepel":4200,"Ġdient":4201,"Ġlangs":4202,"endraagster":4203,"Ġgeval":4204,"Ġfibroadenomen":4205,"jectiv":4206,"follow":4207,"ĠNieuw":4208,"kleurende":4209,"Ġgec":4210,"ikend":4211,"Ġgeassocie":4212,"Ġ00":4213,"Ġoliecyste":4214,"teit":4215,"Collegiale":4216,"ĠVersleijen":4217,"zamen":4218,"Ġinbrengen":4219,"SPECT":4220,"Ġventrale":4221,"Ġretromamillaire":4222,"Benigne":4223,"Ġdesinfectie":4224,"rain":4225,"ksel":4226,"verdeling":4227,"ekening":4228,"84":4229,"Ġplukje":4230,"Ġbetrokkenheid":4231,"Ġgest":4232,"Ġbegrenzing":4233,"Ġ215":4234,"ameijer":4235,"Ġmammaprothese":4236,"chtermamma":4237,"Ġpreoperatief":4238,"wogen":4239,"pen":4240,"vers":4241,"Ġgal":4242,"adviseerd":4243,"Ġverstoring":4244,"inding":4245,"endum":4246,"StadiÃ«ring":4247,"odg":4248,"Ġmetabool":4249,"images":4250,"Ġschorsdikte":4251,"Nanocoll":4252,"2002":4253,"Ġcraniomediaal":4254,"Ġ2000":4255,"Ġplasmaglucosegehalte":4256,"ĠOlm":4257,"ĠEN":4258,"Ġomgeving":4259,"ijdens":4260,"Ġlijken":4261,"timaal":4262,"ĠBo":4263,"ituatie":4264,").-":4265,"ĠVerwijzing":4266,"Ġinmiddels":4267,"39":4268,"ĠROLL":4269,"acte":4270,"ĠValde":4271,"ĠValdes":4272,"oeilijk":4273,"Tekening":4274,"ordernr":4275,"hand":4276,"ĠOlmos":4277,")!!!":4278,"Ġbenadering":4279,"Ġ!!!":4280,"217":4281,"odgkin":4282,"ĠDrainage":4283,"Ġokselkliertoilet":4284,"eenkom":4285,"ĠTotale":4286,"ĠPR":4287,"Ġcomplex":4288,"BOB":4289,"Ġaspiratie":4290,"links":4291,"Ġachterwand":4292,"olge":4293,"mamillair":4294,"ĠRECHT":4295,"itheel":4296,"uttel":4297,"ĠKnuttel":4298,"ody":4299,"Ġdiagnost":4300,"Niet":4301,"Ġamorfe":4302,"inkermamma":4303,"igens":4304,"sartefacten":4305,"Ġpijp":4306,"ieren":4307,"ĠGeringe":4308,"oren":4309,"Ġvalt":4310,"ieel":4311,"Ġaanwezige":4312,"Ġfysiologisch":4313,"upraclaviculair":4314,"Ġdaarin":4315,"ĠFamiliair":4316,"Ġsluit":4317,"Diffuus":4318,"dom":4319,"Ġchirurgie":4320,"zij":4321,"ssituatie":4322,"Ġschedelbasis":4323,"Ġvergroot":4324,"ĠPrevoo":4325,"Ġdiagnostiek":4326,"Nx":4327,"Nuchter":4328,"ijftal":4329,"umpectomie":4330,"iculeerd":4331,"ĠBdz":4332,"Groot":4333,"lastische":4334,"oriÃ«nte":4335,"Ġeerst":4336,"218":4337,"ĠradiofarmaconNuchter":4338,"ĠscreeningIndicatie":4339,"zame":4340,"LC":4341,"elders":4342,"Ġmammografische":4343,"ekk":4344,"mmografisch":4345,"Ġknobbel":4346,"Ġadjuvan":4347,"Ġbeweging":4348,"Ġcaudomediaal":4349,"benigne":4350,"ĠOnder":4351,"ĠgeoriÃ«nte":4352,"ĠUn":4353,"Ġwederom":4354,"Ġvergrotings":4355,"Ġreikend":4356,"Ġverleden":4357,"iviteit":4358,"ĠDuijn":4359,"athologische":4360,"ĠMAMMOGRAM":4361,"roon":4362,"nem":4363,"Ġobjectiv":4364,"ĠEerste":4365,"Ġhormonale":4366,"Ġbepalen":4367,"Ġliggen":4368,"ĠHo":4369,"aliteit":4370,"kijk":4371,"Ġartefacten":4372,"ĠDuijnhoven":4373,"orden":4374,"Ġinderdaad":4375,"Ġaspecifieke":4376,"Superviserend":4377,"Ġinjectieplaats":4378,"Jodium":4379,"puncteerd":4380,"burg":4381,"BI":4382,"Ġliggende":4383,"Ġdaarom":4384,"Ġnagenoeg":4385,"ive":4386,"Ġverbre":4387,"Ġmacrocalcificatie":4388,"ĠBelaste":4389,"ĠStereotactische":4390,"Ġ--":4391,"oudens":4392,"Ġleeggezogen":4393,"Ġsignaal":4394,"Ġcompositie":4395,"Ġhomogeen":4396,"spot":4397,"ormalis":4398,"Ġcaudolateraal":4399,"Ġlichaam":4400,"ĠKlein":4401,"sloten":4402,"ensiteit":4403,"ĠDiffuus":4404,"linder":4405,"Unifocale":4406,"gers":4407,"Ġgeclusterd":4408,"mg":4409,"Verdenking":4410,"Ġsluiten":4411,"Ġposterieur":4412,"uli":4413,"ĠMevrouw":4414,"Ġident":4415,"Ġsterke":4416,"lijkse":4417,"Ġkomen":4418,"Koops":4419,"Ġgendraagster":4420,"Ġtub":4421,"Ġhuidintrekking":4422,"apsel":4423,"Ġmenstruatie":4424,"ĠAC":4425,"omatos":4426,"usie":4427,"ĠGer":4428,"produc":4429,"ateriaal":4430,"Ġfamiliaire":4431,"Ġpectoralisspier":4432,"56":4433,"ĠLidoca":4434,"Craniaal":4435,"ov":4436,"conform":4437,"allen":4438,"Ġfors":4439,"Ġreproduc":4440,"litteken":4441,"iopt":4442,"Ġvooralsnog":4443,"calc":4444,"ressief":4445,"Ġgran":4446,"Ġcorrect":4447,"Ġvas":4448,"Ġgem":4449,"Ġgespiculeerd":4450,"Ġmelan":4451,"Ġvijftal":4452,"Ġhalo":4453,"Ġpoli":4454,"Ġres":4455,"ĠVerdenking":4456,"besch":4457,"Ġuitwassende":4458,"Ġvethilus":4459,"Ġverhoogd":4460,"menopauzale":4461,"issel":4462,"ild":4463,"Ġgaarne":4464,"ddendum":4465,"ĠJan":4466,"gd":4467,"Ġgehouden":4468,"ĠPT":4469,"tail":4470,"len":4471,"gevraagd":4472,"proces":4473,"Ġ217":4474,"Ġleeggepuncteerd":4475,"Ġinclusief":4476,"Ġverwijzing":4477,"Ġafwijkende":4478,"akte":4479,"olaterale":4480,"oorn":4481,"Ġhoger":4482,"ditionele":4483,"Ġstreepvormige":4484,"Gespiculeerde":4485,"normale":4486,"atidnt":4487,"Ġ218":4488,"Ġgeadviseerd":4489,"Ġvoelt":4490,"ĠFibro":4491,"racer":4492,"Ġopvallend":4493,"Ġwaren":4494,"Ġmiddel":4495,"ĠCyste":4496,"Ġbevestiging":4497,"Ġbestaan":4498,"Ġstu":4499,"ullen":4500,"Echogeleid":4501,"PBI":4502,"Ġtumorcellen":4503,"ĠStatische":4504,"57":4505,"imen":4506,"ĠTh":4507,"lijke":4508,"ue":4509,"Ġmaal":4510,"Afmeting":4511,"invasie":4512,"sNucleair":4513,"Ġverster":4514,"Indien":4515,"atiÃ«nt":4516,"Ġingebrachte":4517,"Ġuitgesloten":4518,"ĠCraniaal":4519,"veneus":4520,"dequaat":4521,"iland":4522,"Ġlaterocraniaal":4523,"ĠUitgang":4524,"ĠmammaeKlinische":4525,"Ġaanwezigheid":4526,"erplasie":4527,"Ġsubtie":4528,"ĠRut":4529,"Ġclip":4530,"Ġaangezien":4531,"ĠOnverdachte":4532,"Ġvaster":4533,"Ġdanwel":4534,"Ġoedeem":4535,"Ġtriple":4536,"Ġtumorproces":4537,"Ġcirca":4538,"ĠLCIS":4539,"Ġdruk":4540,"Ġvolledige":4541,"Ġdraagster":4542,"aring":4543,"Ġabces":4544,"omatosa":4545,"Ġwil":4546,"....":4547,"Ġdetail":4548,"Ġgeworden":4549,"Nieuw":4550,"Pro":4551,"wer":4552,"Ġtom":4553,"ĠIII":4554,"ĠBetreft":4555,"Ġbot":4556,"itein":4557,"Ġducten":4558,"fferentie":4559,"Ġcysteus":4560,"rijk":4561,"Ġrelatief":4562,"ĠMassa":4563,"ijvlak":4564,"kter":4565,"ĠRutgers":4566,"arend":4567,"Ġbevat":4568,"Ġvettig":4569,"ĠTarget":4570,"afwijking":4571,"Ġclustering":4572,"Handtekening":4573,"ĠVogel":4574,"fase":4575,"rest":4576,".(":4577,"anen":4578,"Ġcarcinomatosa":4579,"elevan":4580,"amp":4581,"Ġpijpjes":4582,"Ġherkenbare":4583,"odu":4584,"arakter":4585,"Ġdebris":4586,"Ġdikke":4587,"Ġpar":4588,"ĠMeerdere":4589,"ĠCollegiale":4590,"laas":4591,"cost":4592,"203":4593,"SO":4594,"duceerd":4595,"Ġmediocraniaal":4596,"iveau":4597,"ĠVerslagFDG":4598,"ree":4599,"Ġadenose":4600,"oide":4601,"ĠRond":4602,"atroon":4603,"Onder":4604,"mammae":4605,"Ġmaligniteits":4606,"ĠILC":4607,"hy":4608,"FDGDosis":4609,"Ġprominent":4610,"Ġversterkte":4611,"Ġtracer":4612,"iliteit":4613,"onswijk":4614,"Ġechelonklieren":4615,"OK":4616,"dat":4617,"Ġgedifferentie":4618,"mammabiopt":4619,"Ġbetrouw":4620,"Ġzullen":4621,"Ġobjectiveerbaar":4622,"ĠMaligniteit":4623,"Ġherhaling":4624,"Ġbevestigd":4625,"Ġrelevan":4626,"SUVmax":4627,"ĠlinksVerslag":4628,"ositieve":4629,"raniolateraal":4630,"Onverdachte":4631,"preking":4632,"ĠCa":4633,"Ġtijde":4634,"bl":4635,"Ġoverpro":4636,"48":4637,"76":4638,"%,":4639,"ĠDonswijk":4640,"Ġscintigra":4641,"ĠTweede":4642,"co":4643,"ĠPro":4644,"ĠHandtekening":4645,"Ġaldaar":4646,"Ġgerangschikt":4647,"Ġkalkje":4648,"ecimen":4649,"Ġopgestuurd":4650,"lanaire":4651,"naald":4652,"ĠMultipele":4653,"Ġgedacht":4654,"ildklier":4655,"stie":4656,"Inf":4657,"Ġsternum":4658,"kh":4659,"Ġlosliggende":4660,"ĠHodgkin":4661,"Radiologisch":4662,"Ġvermeld":4663,"Ġcamer":4664,"Ġtrans":4665,"Ġie":4666,"elef":4667,"Ġintercost":4668,"Hieruit":4669,"iep":4670,"Ġblijft":4671,"iferatie":4672,"rreg":4673,"Ġanter":4674,"Kr":4675,"ĠHoving":4676,"40":4677,"49":4678,"Ġmelanoom":4679,"Ġrood":4680,"oofd":4681,"screeningVerslag":4682,"uspecte":4683,"Ġmobie":4684,"Ġlymfoom":4685,"Ġafwijkend":4686,"Ġgedifferentieerd":4687,"cent":4688,"Ġsoepel":4689,"Ġtwistmaker":4690,"ĠIets":4691,"revisie":4692,"icrocalcificaties":4693,"verwezen":4694,"Ġsatelliethaarden":4695,"Ġprothesen":4696,"ĠKlinisch":4697,"ydromarker":4698,"Ġnecrose":4699,"onisch":4700,"Ġgladde":4701,"Ġrestcalcificaties":4702,"219":4703,"Ġveranderd":4704,"Ġlymfkliertjes":4705,"Ġtechnetium":4706,"bieus":4707,"OGRAFIE":4708,"Ġvolume":4709,"Ġducti":4710,"Ġplan":4711,"Ġaanvoelde":4712,"ĠHielNucleair":4713,"Ġ?;":4714,"Ġmst":4715,"Ġonscherpe":4716,"Ġgrover":4717,"eelden":4718,"Marker":4719,"Ġieder":4720,"Ġinhomogene":4721,"ĠlinksIndicatie":4722,"Ġaangelegen":4723,"Ġsept":4724,"ĠOverige":4725,"thor":4726,"Ġmorf":4727,"amputatie":4728,"Ġreflecties":4729,"En":4730,"roduceerd":4731,"kan":4732,"Ġhele":4733,"iss":4734,"Ġsagitt":4735,"Ġimponerend":4736,"ĠMammografieNa":4737,"Ġgemarkeerde":4738,"Ġverklein":4739,"Ġcystes":4740,"Ġlongen":4741,"Ġfree":4742,"ĠAchter":4743,"Ġonderscheiden":4744,"Ġgerep":4745,"Ġartefact":4746,"Ġomgeven":4747,"eters":4748,"neld":4749,"loop":4750,"Ġgereproduceerd":4751,"ulae":4752,"Ġversneld":4753,"Ġman":4754,"ilair":4755,"Ġprogressief":4756,"Ġkarakter":4757,"Ġbewegingsartefacten":4758,"Ġnauwe":4759,"Lokalisatie":4760,"conclusief":4761,"lijn":4762,"metab":4763,"Ġcranio":4764,"Ġuitvo":4765,"weeg":4766,"Achter":4767,"Ġspier":4768,"Ġconflu":4769,"uscept":4770,"usceptib":4771,"ĠEchogeleide":4772,"Sp":4773,"idu":4774,"Ġbestraling":4775,"Ġhar":4776,"wij":4777,"enst":4778,"usceptibiliteit":4779,"elefonisch":4780,"ustig":4781,"Ġnadere":4782,"Ġmicrocalc":4783,"ĠSentinel":4784,"Ġhyperplasie":4785,"Ġaspecifiek":4786,"ĠrechtsVerslag":4787,"ĠLidocaine":4788,"ind":4789,"Ġschildwachtklier":4790,"Ġstadi":4791,"kijkend":4792,"Ġductuli":4793,"Ġperic":4794,"ĠVegtNucleair":4795,"grote":4796,"FU":4797,"ĠVolgens":4798,"aesie":4799,"me":4800,"Ġinz":4801,"Ġatyp":4802,"83":4803,"ox":4804,"tecte":4805,"Ġons":4806,"Ġlumpectomie":4807,"Ġperif":4808,"Ġ219":4809,"Gezien":4810,"Ġconfig":4811,"Ġgrovere":4812,"Ġtro":4813,"ĠgeoriÃ«nteerde":4814,"ĠGerret":4815,"vent":4816,"Ġarter":4817,"Ġhooguit":4818,"thorax":4819,"Ġepitheel":4820,"43":4821,"asaal":4822,"iden":4823,"Ġonderz":4824,"Ġspiculae":4825,"Ġbegin":4826,"oment":4827,"ĠNet":4828,"Ġmeetbaar":4829,"cken":4830,"ocale":4831,"Ġhoofd":4832,"ĠGerretsen":4833,"Ġovername":4834,"zu":4835,"onse":4836,"osition":4837,"ventie":4838,"ĠNAC":4839,"Ġmulticentrisch":4840,"Sinds":4841,"An":4842,"ĠVermoedelijk":4843,"Ġmoment":4844,"ong":4845,"teerd":4846,"bespreking":4847,"Ġsleutelbeelden":4848,"Ġhard":4849,"Ġbody":4850,"Ġmammillair":4851,"Ġcontour":4852,"toediening":4853,"Ġslanke":4854,"Ġgepland":4855,"verstoring":4856,"Zowel":4857,"rancken":4858,"Ġsoort":4859,"Ġstaat":4860,"arium":4861,"dn":4862,"Ġcontrasttoediening":4863,"ĠDirect":4864,"oorza":4865,"menopauzaal":4866,"oplastische":4867,"Ġdire":4868,"ĠVrancken":4869,"Ġintact":4870,"aatste":4871,"Ġgediagnost":4872,"groei":4873,"Eerder":4874,"Ġweek":4875,"Ġborstklierweefsel":4876,"iale":4877,"diameter":4878,"ijnlijke":4879,"UN":4880,"eeters":4881,"Ongewijzigde":4882,"ĠVersleijenNucleair":4883,"Ġgeassocieerd":4884,"Ġvoorgeschiedenis":4885,"Ġvergelijkbare":4886,"Ġdaarnaast":4887,"Ġimages":4888,"CTIE":4889,"ĠStokkelNucleair":4890,"Ġmammac":4891,"ĠTe":4892,"UNCTIE":4893,"Ġpol":4894,"As":4895,"Ġveroorza":4896,"ulm":4897,"Int":4898,"ymfklier":4899,"93":4900,"roepen":4901,"gaan":4902,"oge":4903,"RIP":4904,"Ġgedeelte":4905,"Ġtoenemende":4906,"bevinding":4907,"Ġradicaal":4908,"Ġreproduceerbaar":4909,"ĠMammografieMrisc":4910,"ventieve":4911,"ĠVrij":4912,"Ġnoch":4913,"Ġbetrouwbaar":4914,"53":4915,"ĠHart":4916,"lank":4917,"stands":4918,"ola":4919,"MAMM":4920,"Ġgaat":4921,"creenend":4922,"ĠSlotervaartziekenhuis":4923,"waliteit":4924,"Ġgecomplic":4925,"ĠGes":4926,"Ġteruggaand":4927,"oopman":4928,"Ġafspraak":4929,"Ġsamenhan":4930,"Ġtezamen":4931,"Ġdiepe":4932,"nex":4933,"67":4934,"ĠAmst":4935,"spectie":4936,"ĠOksel":4937,"elland":4938,"OR":4939,"Ġnucleair":4940,"Ġevt":4941,"Ġlange":4942,"chitectuurverstoring":4943,"Ġtov":4944,"olitaire":4945,"ConclusieVisualisatie":4946,"ĠReeds":4947,"cand":4948,"Ġgebru":4949,"Ġvlinder":4950,"Ġexc":4951,"kamp":4952,"names":4953,"ĠMC":4954,"Ġcomplexe":4955,"Ġeven":4956,"yna":4957,"Ġmri":4958,"ĠWeinig":4959,"cept":4960,"ĠPostoperatieve":4961,"ll":4962,"Ġoor":4963,"Ġdestijds":4964,"Ġha":4965,"tu":4966,"ĠBos":4967,"Ġirradicaal":4968,"Ġprojectie":4969,"ĠMammo":4970,"ĠKoopman":4971,"ĠDonswijkNucleair":4972,"Ġlevermetastasen":4973,"Ġdirecte":4974,"spotcompressie":4975,"ĠTumor":4976,"olaire":4977,"weest":4978,"100":4979,"Ġoproepen":4980,"Ġstart":4981,"Postoperatieve":4982,"low":4983,"Ġadjuvante":4984,"ĠKlier":4985,"Ġseparaat":4986,"Ġclaviculaire":4987,"orb":4988,"actief":4989,"eratieclips":4990,"Ġhypodense":4991,"Ġgeweest":4992,"Ġmenstruele":4993,"ĠNST":4994,"erpositie":4995,"laag":4996,"ynaec":4997,"DE":4998,"Ġretroma":4999,"Ġovaalvormig":5000,"ediale":5001,"lies":5002,"Ġonregelmatig":5003,"ventueel":5004,"Ġnov":5005,"gebouwd":5006,"entuele":5007,"ageleid":5008,"gradi":5009,"lob":5010,"visualisatie":5011,"ĠIs":5012,"lastiek":5013,"Ġaangetoonde":5014,"Ġcamerageleid":5015,"omheen":5016,"ografie":5017,"Supervisor":5018,"ĠKoopmanschap":5019,"ĠRIP":5020,"denburg":5021,"ĠIV":5022,"III":5023,"ĠRedelijke":5024,"Ġprimair":5025,"dag":5026,"lap":5027,"Ġkleurt":5028,"Ġbloeder":5029,"ingenomen":5030,"Ġgren":5031,"Verwezen":5032,"toont":5033,"ymmetrische":5034,"Direct":5035,"Ġingenomen":5036,"ĠEveneens":5037,"Ġscleros":5038,"Non":5039,"Klein":5040,"Ġkon":5041,"Ġpuncties":5042,"Ġbijkomend":5043,"Ġisodense":5044,"onaal":5045,"Ġsuperpositie":5046,"Nanocolloid":5047,"Ġges":5048,"Ġveroorzaakt":5049,"uitvloed":5050,"gelijke":5051,"ĠWederom":5052,"Ġdec":5053,"80":5054,"ĠPameijer":5055,"erige":5056,"Ġopgebouwd":5057,"ĠDrie":5058,"gelegd":5059,"ĠMateriaal":5060,"mar":5061,"ĠPijn":5062,"Ġoverprojectie":5063,"ĠPeeters":5064,"Ġcutane":5065,"korrelmarkering":5066,"Ġintrac":5067,"ĠLINKS":5068,"ĠAfwijking":5069,"TIN":5070,"Wel":5071,"Ongecompliceerde":5072,"Ġextra":5073,"ĠLood":5074,"Ġwissel":5075,"ĠMBQ":5076,"Ġtelefonisch":5077,"CHOGRAFIE":5078,"Ġintraductaal":5079,"Ġkapsel":5080,"ĠLBK":5081,"Ġdynam":5082,"ouw":5083,"malig":5084,"mde":5085,"Ġsusceptibiliteit":5086,"omb":5087,"engd":5088,"Ġ100":5089,"Ġpostbiopsie":5090,"Ġvl":5091,"ConclusieBIRADS":5092,"Ġscho":5093,"Ġconfiguratie":5094,"Ġintraductale":5095,"Ġeiland":5096,"VraagstellingGaarne":5097,"ĠZowel":5098,"Ġretromammair":5099,"kenmerken":5100,"ĠFysiologische":5101,"Ġgewijzig":5102,"Ġvochtcollecties":5103,"Ġlat":5104,"--------":5105,"standsmetastasen":5106,"Ġweerstand":5107,"ScreeningVerslag":5108,"Ġsubpectoraal":5109,"Ġacc":5110,"Ġregion":5111,"cysteuze":5112,"orrecte":5113,"pv":5114,"Ġbegeleidend":5115,"Ġplekke":5116,"Ġintercostaal":5117,"gema":5118,"Ġductaalcarcinoom":5119,"Tweetal":5120,"gins":5121,"mid":5122,"59":5123,"ĠOldenburg":5124,"Ġverwijder":5125,"ĠSlecht":5126,"VU":5127,"Medebeoordeeld":5128,"dis":5129,"Ġontde":5130,"Ġlesie":5131,"Ġlaterocaudaal":5132,"ĠOKT":5133,"Meer":5134,"Ġvertoont":5135,"Ġholte":5136,"Ġpleiomorf":5137,"Ġdele":5138,"hel":5139,"Ġbehoudens":5140,"Ġarme":5141,"Ġ35":5142,"Ġharde":5143,"Ġcorresponder":5144,"idend":5145,"aarlijkse":5146,"Ġgeschatte":5147,"Ġmaligniteitskenmerken":5148,"Ġ0000":5149,"Matige":5150,"Ġlangzame":5151,"eroom":5152,"Ġzit":5153,"Ġinterne":5154,"Ġhypermetab":5155,"Ġinvolutiebeeld":5156,"Net":5157,"edrainage":5158,"ĠLeeg":5159,"Ġheel":5160,"ĠHierop":5161,"ombin":5162,"Ġgrof":5163,"Ġinconclusief":5164,"Ġserie":5165,"Ġzes":5166,"Ġachterwandversterking":5167,"ĠDiff":5168,"ĠrechtsIndicatie":5169,"Ġbeperkt":5170,"Beide":5171,"Addendum":5172,"ĠStereotactisch":5173,"Ġruimte":5174,"Ġunifocaal":5175,"Ġecholoos":5176,"ans":5177,"arenchym":5178,"Caudaal":5179,"SEL":5180,"itumor":5181,"Ġ1999":5182,"echogeen":5183,"ĠVooralsnog":5184,"ĠMatige":5185,"ĠHoe":5186,"Ġwaarop":5187,"Ġontbre":5188,"Ġlaten":5189,"Ġgek":5190,"hyll":5191,"gevuld":5192,"hte":5193,"erts":5194,"Nog":5195,"Ġco":5196,"Ġlymfedrainage":5197,"ĠBohte":5198,"Ġclustertje":5199,"Tweede":5200,"Teertstra":5201,"mult":5202,"geboden":5203,"ting":5204,"odulaire":5205,"echn":5206,"gerust":5207,"ĠVergelijkend":5208,"tuur":5209,"Ġlangzaam":5210,"alv":5211,"vL":5212,"cath":5213,"ĠKoopmanschapRadioloog":5214,"PatiÃ«nte":5215,"ĠRECHTS":5216,"ĠHartog":5217,"Ġduidelijker":5218,"Ġdo":5219,"unct":5220,"ĠVG":5221,"ĠFa":5222,"CC":5223,"riet":5224,"Ġverschil":5225,"maar":5226,"allel":5227,"Ġoverwegend":5228,"Ġverh":5229,"ifen":5230,"ĠbelastIndicatie":5231,"use":5232,"sec":5233,"Ġzij":5234,"ĠVoorts":5235,"AN":5236,"mutatie":5237,"Ġjuiste":5238,"mediaal":5239,"Ġneoadjuvant":5240,"VIS":5241,"amox":5242,"VISIE":5243,"reng":5244,"inker":5245,"ĠAvL":5246,"ix":5247,"Ġlymfekliermetastasen":5248,"Ġmogelijke":5249,"Derhalve":5250,"oord":5251,"cont":5252,"amoxifen":5253,"Ġresterende":5254,"ĠHTIndicatie":5255,"Ġteruggezien":5256,"Ġsparend":5257,"Ġlu":5258,"Ġgedrain":5259,"parenchym":5260,"Ġdieper":5261,"Ġstabiele":5262,"graag":5263,"domen":5264,"ĠMinimale":5265,"Ġductale":5266,"ĠAerts":5267,"ĠEnige":5268,"excisie":5269,"Fam":5270,"Ġtepeluitvloed":5271,"Ġext":5272,"Ġsupraclaviculaire":5273,"malige":5274,"81":5275,"xilla":5276,"Ġparallel":5277,"adj":5278,"Ġgemengd":5279,"Ġscleroserende":5280,"ĠNO":5281,"Ġdetailopnamen":5282,"oeding":5283,"Ġsatellietlaesies":5284,"erenti":5285,"ĠVro":5286,"Ġafstandsmetastasen":5287,"Ġsleutelbeeld":5288,"UM":5289,"HT":5290,"ĠEric":5291,"Ġbruin":5292,"aure":5293,"ymmetrie":5294,"Drie":5295,"Ġvroeg":5296,"ĠSUVmax":5297,"Ġdiagnostisch":5298,"Ġtransvers":5299,"Ġopgevraagd":5300,"Ġmetabole":5301,"Ġalsook":5302,"ĠStereotaxie":5303,"Ġretractie":5304,"Ġvindt":5305,"Belaste":5306,"inder":5307,"Ġoss":5308,"erig":5309,"rca":5310,"ĠAdequate":5311,"Ġ315":5312,"twee":5313,"entro":5314,"tek":5315,"Ġverkalkte":5316,"Ġvlindervormige":5317,"Ġverwijde":5318,"ĠREVISIE":5319,"zijdig":5320,"Ġax":5321,"202":5322,"Ġlymfkliermetastasen":5323,"ĠRTIndicatie":5324,"Planaire":5325,"Ġovarium":5326,"Ġant":5327,"Ġoverwegen":5328,");":5329,"ĠNieuwe":5330,"Ġuitbreidend":5331,"dissectie":5332,"ekkage":5333,"Ġongecompliceerd":5334,"Ġactiviteitsverdeling":5335,"inale":5336,"verslag":5337,"Ġgynaec":5338,"gebreid":5339,"Ġrup":5340,"alvage":5341,"Ġmargins":5342,"ĠOKSEL":5343,"Ġgeluid":5344,"Kwalificatie":5345,"ĠAs":5346,"atte":5347,"Ġtbv":5348,"ĠvanGeboortedatum":5349,"ĠPl":5350,"Ġligging":5351,"Ġgewijzigd":5352,"Ġresponse":5353,"Cyste":5354,"Ġpartijen":5355,"Ġvolum":5356,"ĠMammografieRoutinecontrole":5357,"Ġpersisterend":5358,"ĠLok":5359,"32":5360,"ĠAfwijkingen":5361,"Ġhelder":5362,"ytologie":5363,"Ġkwaliteit":5364,"culaire":5365,"Ġnodig":5366,"Ġdensiteitje":5367,"Ġgecompliceerde":5368,"ifocaliteit":5369,"oepen":5370,"Ġverklaring":5371,"Ġschildklier":5372,"Ġpericlaviculaire":5373,"Ġmeting":5374,"aps":5375,"Ġadequate":5376,"ximaal":5377,"matige":5378,"Rechtermamma":5379,"Ġresterend":5380,"2001":5381,"Ġaangeboden":5382,"Ġvethoudend":5383,"Volgens":5384,"duid":5385,"Tijdens":5386,"ĠWat":5387,"Ġgedraineerd":5388,"Ġtumorlokalisatie":5389,"buik":5390,"oornis":5391,"Vrij":5392,"ĠNe":5393,"geroepen":5394,"Biopten":5395,"Ġphyll":5396,"Ġuitein":5397,"90":5398,"Ġintensiteit":5399,"Ġgezamen":5400,"cor":5401,"terus":5402,"aureolair":5403,"Ġareola":5404,"Ġtumormarker":5405,"tuig":5406,"Ġcol":5407,"Ġsubtiele":5408,"Ger":5409,"MAMMA":5410,"ĠHER":5411,"Evaluatie":5412,"ĠPAPBI":5413,"waarschijnlijk":5414,"Ġovertuig":5415,"Ġgewenst":5416,"Ġmeten":5417,"Ġ45":5418,"omastie":5419,"Ġneven":5420,"opnames":5421,"ĠBl":5422,"Ġspriet":5423,"Ġmate":5424,"Ġdaarbij":5425,"ĠBron":5426,"ffect":5427,"Ġeventuele":5428,"ermd":5429,"rap":5430,"Ġopsp":5431,"umulatie":5432,"beschermd":5433,"ort":5434,"Familiair":5435,"ruim":5436,"Ġinfectie":5437,"odorsaal":5438,"Ġcontrol":5439,"Ġgezicht":5440,"fic":5441,"Ġcost":5442,"ĠUitgebreide":5443,"Ġruptuur":5444,"Ġgeop":5445,"Ġtpv":5446,"Ġdoorgroei":5447,"Ġbeginn":5448,"av":5449,"Ġfra":5450,"ĠToen":5451,"CS":5452,"Ġtoenemend":5453,"ĠCaudaal":5454,"Ã«le":5455,"Ġgrenzen":5456,"Ġresidu":5457,"anco":5458,"lamma":5459,"Ġanterieur":5460,"ĠSpaarne":5461,"Ġvorige":5462,"Ġvue":5463,"54":5464,"Ġadenosis":5465,"ĠTweetal":5466,"ĠBraak":5467,"zuigen":5468,"leet":5469,"areolaire":5470,"Ġ311":5471,"Ġ------":5472,"Ġdistor":5473,"vankelijk":5474,"ĠNadere":5475,"Ġgenmutatie":5476,"Ġblanco":5477,"82":5478,"ĠmammografieKlinische":5479,"Ġopge":5480,"nemende":5481,"Ġdistorsie":5482,"mit":5483,"Ġonderliggend":5484,"Ġnodi":5485,"Ġvand":5486,"Ġaanvrager":5487,"Ġvergrotingsopname":5488,"Ġgediagnostic":5489,"ĠIntraveneus":5490,"ius":5491,"Ġven":5492,"Ġhelft":5493,"orbus":5494,"Ġlekkage":5495,"ĠPUNCTIE":5496,"Ġopgeroepen":5497,"ĠChe":5498,"Ġgeluidst":5499,"Ġplateaufase":5500,"ijke":5501,"Birads":5502,"Ġzwanger":5503,"ransmissie":5504,"plooi":5505,"omt":5506,"activiteit":5507,"TI":5508,"Ġgeluidstransmissie":5509,"ĠWarnars":5510,"plastiek":5511,"ĠPa":5512,"Ġvar":5513,"Ġ32":5514,"Ġgevolge":5515,"Ġunilaterale":5516,"Gebied":5517,"rium":5518,"bewezen":5519,"Typiste":5520,"Ġmammabespreking":5521,"hout":5522,"Ġhelaas":5523,"Ġgezichtspunten":5524,"ĠDorsaal":5525,"Ġmoeite":5526,"Te":5527,"oelt":5528,"ĠGrootste":5529,"spect":5530,"ĠMA":5531,"hirurg":5532,"wijs":5533,"Ġneomamma":5534,"generatie":5535,"Ġaanzien":5536,"Ġbetrof":5537,"icale":5538,"Dorsaal":5539,"Ġsoortgelijke":5540,"Ġbeleid":5541,"ĠOB":5542,"Ġgelobd":5543,"Vergelijk":5544,"het":5545,"ceptin":5546,"aligne":5547,"athologisch":5548,"ĠMast":5549,"Ġ---------":5550,"Ġonderzocht":5551,"tische":5552,"Ġdiscre":5553,"Ġcellen":5554,"Segm":5555,"wijzingen":5556,"Ġonc":5557,"Ġverrichten":5558,"ikke":5559,"ior":5560,"bN":5561,"mogelijk":5562,"Jodiumbron":5563,"Onscherp":5564,"Ġrepresentatieve":5565,"Linkermamma":5566,"Ġplanaire":5567,"caud":5568,"NB":5569,"oon":5570,"Diff":5571,"adjes":5572,"Ġmaken":5573,"water":5574,"bekend":5575,"ĠVergelijking":5576,"voorbeeld":5577,"Ġoverwogen":5578,"Uitgebreide":5579,"wegen":5580,"gerek":5581,"Ġ33":5582,"oudende":5583,"amiliaire":5584,"HO":5585,"Ġuitgangssituatie":5586,"laats":5587,"Ġplooi":5588,"veranderde":5589,"Ġmassavorming":5590,"ANVU":5591,"Ġafgezien":5592,"Ġlangwerpig":5593,"rouwer":5594,"voeding":5595,"Ġaccumulatie":5596,"danks":5597,"ĠZelf":5598,"ĠHoek":5599,"ĠMammapoli":5600,"ure":5601,"Opname":5602,"Ġmev":5603,"Ġgewogen":5604,"str":5605,"athologie":5606,"Ġsagittale":5607,"Ġaard":5608,"Ġaangebracht":5609,"ĠÂ":5610,"ĠJodiummarker":5611,"Ġdaarna":5612,"Ġmediastinaal":5613,"Ġhypermetabole":5614,"ĠAlleen":5615,"ĠOperatieclips":5616,"Ġmon":5617,"ĠVerdacht":5618,"Ġcompact":5619,"Ġvaatcalcificaties":5620,"laatsen":5621,"ĠNaar":5622,"nanocolloidTc":5623,"Ġsnijvlak":5624,"edte":5625,"iseerd":5626,"Ġhoge":5627,"gradig":5628,"osering":5629,"ĠMart":5630,"Ġmultifocaliteit":5631,"echografisch":5632,"ĠgeÃ¯nvolueerd":5633,"Stereotactisch":5634,"uy":5635,"spatroon":5636,"ĠLangeC":5637,"Ġomdat":5638,"Ġuitsluiten":5639,"Ġconfluerende":5640,"LOK":5641,"Ġstoornis":5642,"ĠMe":5643,"Ġverbreding":5644,"eerder":5645,"Ã¶":5646,"zonder":5647,"Ġreikt":5648,"Afname":5649,"kleurend":5650,"minder":5651,"Ġreductieplastiek":5652,"Ġgeinvolueerd":5653,"Ġunf":5654,"aliseren":5655,"Ġlowdose":5656,"ANVUL":5657,"stens":5658,"/\"":5659,"RT":5660,"Ġallen":5661,"Ġoverigens":5662,"Ġcraniocentraal":5663,"Ġvandaag":5664,"inium":5665,"Ġsalvage":5666,"Ġperifeer":5667,"Ġmevrouw":5668,"Laag":5669,"mast":5670,"ĠBrouwer":5671,"ĠgegevensZie":5672,"Ġjodiumbronnen":5673,"Ġbekken":5674,"Ġuitsluiting":5675,"take":5676,"Ġstreng":5677,"ĠOsNucleair":5678,"ocaal":5679,"veen":5680,"Ġvormige":5681,"Ġse":5682,"ĠGebied":5683,"ĠDiameter":5684,"ĠVU":5685,"Ġopsporen":5686,"adol":5687,"ating":5688,"auer":5689,"ĠuitsnijkamerVerslag":5690,"beide":5691,"adolinium":5692,"Huid":5693,"Ġveldje":5694,"foto":5695,"Ġwerv":5696,"ĠSNP":5697,"Ġrode":5698,"Ġarts":5699,"Ġpostmenopauzale":5700,"ĠPACS":5701,"rillige":5702,"bq":5703,"Sub":5704,"58":5705,"Ġbasaal":5706,"ateerd":5707,"Ġ211":5708,"agel":5709,"Nieuwe":5710,"Ġuterus":5711,"inf":5712,"ĠHauer":5713,"Ġhyperd":5714,"meer":5715,"astaseerd":5716,"Ġaangelegd":5717,"ĠAmstelland":5718,"ĠgeÃ¯ndiceerd":5719,"ĠUnifocale":5720,"Ġrelevante":5721,"Besnard":5722,"Ġ60":5723,"ĠAANVUL":5724,"Ġip":5725,"Rond":5726,"Ġhalf":5727,"loo":5728,"Ġprogressieve":5729,"olk":5730,"Ġinflamma":5731,"Mar":5732,"Door":5733,"Craniolateraal":5734,"pulm":5735,"Ġquo":5736,"Ġtroeb":5737,"Tumor":5738,"Ġmetap":5739,"Ġgerichte":5740,"Ġossale":5741,"ĠECHOGRAFIE":5742,"Ġgadolinium":5743,"Westerveld":5744,"Ġgelobuleerd":5745,"RG":5746,"Ġborstvoeding":5747,"Ġadnex":5748,"uspect":5749,"Ġareolair":5750,"bevolkingsonderzoek":5751,"Stereotactische":5752,"Ġinit":5753,"ĠpunctieKlinische":5754,"Ġzone":5755,"spuiten":5756,"ĠPloeg":5757,"clip":5758,"HORA":5759,"ante":5760,"Ġniveau":5761,"Ġduid":5762,"HORAX":5763,"Minimale":5764,"Ġprol":5765,"unctaat":5766,"Mogelijk":5767,"Mx":5768,"Periclaviculair":5769,"Ġroodheid":5770,"Ġruime":5771,"Ġstand":5772,"ĠOvereenkom":5773,"ĠLeegwater":5774,"Ġmillimeters":5775,"ĠAD":5776,"Du":5777,"Ġvoormalige":5778,"Ġ1997":5779,"ĠCalcificaties":5780,"ffen":5781,"Ġdub":5782,"stige":5783,"OLVG":5784,"Ġhuidig":5785,"Ġstadiering":5786,"oging":5787,"ĠKwalificatie":5788,"Ġbijn":5789,"Ġexcis":5790,"INTI":5791,"UMOR":5792,"91":5793,"ĠTUMOR":5794,"oemde":5795,"Ġrug":5796,"quadrant":5797,"namelijk":5798,"Ġlanggerek":5799,"Ġcur":5800,"geleide":5801,"GRAFIE":5802,"Ġpreventieve":5803,"Multifocaal":5804,"ĠopnameOnderzoeksgegevens":5805,"Ġnader":5806,"ENTIN":5807,"ĠNODE":5808,"ica":5809,"aand":5810,"Ġlocal":5811,"uist":5812,"ĠLob":5813,"Betreft":5814,"ĠWil":5815,"Ġrestafwijking":5816,"ĠOpvall":5817,"radicale":5818,"42":5819,"ĠHoeksRadioloog":5820,"Ġmamm":5821,"ENTINEL":5822,"vel":5823,"ĠVraagstelling":5824,"ĠHoog":5825,"mammaire":5826,"Ġtypisch":5827,"inde":5828,"illiam":5829,"Ġbemerkt":5830,"ries":5831,"uisartsen":5832,"Ġaankleuringspatroon":5833,"uro":5834,"Ġ?":5835,"ĠHerbeoordeling":5836,"Ġ-------":5837,"uncteerde":5838,"Ġvergroting":5839,"kk":5840,"Ġproliferatie":5841,"Ġpluk":5842,"ĠSENTINEL":5843,"ĠY":5844,"Ġherbeoordeling":5845,"Loodmarkering":5846,"ĠBiopt":5847,"ĠWilliam":5848,"telveld":5849,"wistmarker":5850,"ĠSub":5851,"lever":5852,"Ġante":5853,"Ġfamiliair":5854,"Ġmobiele":5855,"erentiaal":5856,"eper":5857,"Ġlanger":5858,"Ġsamenhangend":5859,"Ġmg":5860,"grensde":5861,"INTIGRAFIE":5862,"ĠTUMORLOK":5863,"eit":5864,"Ġste":5865,"icrokalk":5866,"ĠMSO":5867,"procedure":5868,"Ġadditionele":5869,"Ġpartiele":5870,"Ġoptimaal":5871,"bor":5872,"Ġ204":5873,"apsulaire":5874,"top":5875,"Ġtw":5876,"Ġtegenaan":5877,"Ġdose":5878,"iens":5879,"Ġtumoren":5880,"Ġductectasiedn":5881,"Ġexcision":5882,"ĠSymmetrisch":5883,"Ġperitumor":5884,"Pathologische":5885,"uder":5886,"maals":5887,"uscule":5888,"Ġontdekt":5889,"Ġ1998":5890,"ĠLD":5891,"Ġdiver":5892,"ung":5893,"ĠWilliamsRadioloog":5894,"ple":5895,"Ġadenoom":5896,"ĠLY":5897,"specimen":5898,"Ġtepelintrekking":5899,"iraalvormige":5900,"Ġvgl":5901,"verwege":5902,"Ġgynaecomastie":5903,"Ġsubop":5904,"Ġonregelmatige":5905,"ĠLYM":5906,"kmaar":5907,"ĠMammografisch":5908,"Ġfreehand":5909,"eerste":5910,"ton":5911,"Ġaanvoelend":5912,"rregulaire":5913,"Ġverhard":5914,"Ġbijvoorbeeld":5915,"Ġribben":5916,"?).":5917,"ĠMultifocaal":5918,"bevindingen":5919,"Ġrestafwijkingen":5920,"Ġcontralateraal":5921,"Ġscintigrafische":5922,"Ġlymfekliermetastase":5923,"cula":5924,"Ġbevatten":5925,"Gerichte":5926,"Geg":5927,"Ġlo":5928,"Ġlinkerarm":5929,"214":5930,"SCINTIGRAFIE":5931,"Ġknobbeltje":5932,"ĠEek":5933,"ĠHB":5934,"Ġgenormalis":5935,"Ġrechtsaxillair":5936,"schreven":5937,"ler":5938,"Ġth":5939,"Ġtepelvloed":5940,"Ġtubulaire":5941,"Ġwervel":5942,"ĠDubieus":5943,"danig":5944,"Gegroep":5945,"tected":5946,"ĠParasternaal":5947,"Ġmulti":5948,"Prevoo":5949,"Ġgemaakte":5950,"ekel":5951,"Ġaanwijs":5952,"Ġdegeneratie":5953,"ĠOm":5954,"astasering":5955,"omer":5956,"Ġzelfde":5957,"afname":5958,"Supraclaviculair":5959,"Ġ213":5960,"khorst":5961,"Ġwolk":5962,"atisch":5963,"ĠMar":5964,"Ġongerust":5965,"Ġexact":5966,"Ġvooraf":5967,"able":5968,"Ġ40":5969,"Ġinziens":5970,"ore":5971,"sisterend":5972,"ĠEekhout":5973,"uk":5974,"ĠRadiofarmacon":5975,"Ġalsnog":5976,"cularis":5977,"ĠčĊ":5978,"ĠchemotherapieI":5979,"blaas":5980,"52":5981,"ĠOnduidelijk":5982,"PR":5983,"haring":5984,"2000":5985,"tot":5986,"Ġtepelvocht":5987,"eest":5988,"ĠPTR":5989,"Piek":5990,"Ġdynamische":5991,"Punctaat":5992,"Retromamillair":5993,"Verwijzing":5994,"ĠBronkhorst":5995,"Ġdcis":5996,"markeringen":5997,"Ġdrukp":5998,"Pekel":5999,"ĠGE":6000,"ĠCHT":6001,"ondeert":6002,"Ġbesla":6003,"Ġtomografie":6004,"Pekelharing":6005,"136":6006,"bieuze":6007,"Ġgepuncteerde":6008,"breiding":6009,"ĠLOQ":6010,"imm":6011,"Ġcp":6012,"Ġafger":6013,"Ġuitsluitend":6014,"Beeldvorming":6015,"FE":6016,"Ġvaatverkalkingen":6017,"ĠHuid":6018,"lechts":6019,"istent":6020,"Ġbeiden":6021,"ĠHe":6022,"ĠAMC":6023,"ĠInf":6024,"ligging":6025,"verander":6026,"Ġdagen":6027,"Ġabuis":6028,"Koekkoek":6029,"017":6030,"Ġor":6031,"Ġrechterarm":6032,"Lange":6033,"ieve":6034,"Ġvele":6035,"enten":6036,"Ġrustig":6037,"Ġhierdoor":6038,"plaatsing":6039,"Ġgeposition":6040,"eemt":6041,"wit":6042,"ĠdeKoekkoek":6043,"Ġaangevuld":6044,"Ġseconden":6045,"entrisch":6046,"Ġkrap":6047,"elaas":6048,"Ġcorrespondeert":6049,"uma":6050,"ther":6051,"Hanging":6052,"ĠSmit":6053,"ĠArm":6054,"41":6055,"Ġjodiumza":6056,"Ġintacte":6057,"beek":6058,"Ġhoe":6059,"Ġul":6060,"Ġterugkijkend":6061,"Loodkorrelmarkering":6062,"Ġductus":6063,"open":6064,"rond":6065,"ĠTUMORLOKOnderzoeksgegevens":6066,"Ġogv":6067,"levo":6068,"Ġmammacarc":6069,"pus":6070,"pass":6071,"Ġcraniolaterale":6072,"Ġbovenrand":6073,"ave":6074,"Ġzwak":6075,"irp":6076,"Intratumorale":6077,"odig":6078,"Ġlinksaxillair":6079,"ĠPatiÃ«nte":6080,"Ġgediagnosticeerd":6081,"036":6082,"Ġomschreven":6083,"Ġnovo":6084,"Ġwolkig":6085,"Ġflow":6086,"Ġduiden":6087,"scop":6088,"Ġ99":6089,"Parasternaal":6090,"Ar":6091,"vals":6092,"Beoor":6093,"ern":6094,"Ġnl":6095,"TO":6096,"Grote":6097,"ĠCheung":6098,"irpatie":6099,"Ġvoornamelijk":6100,"erst":6101,"Ġloop":6102,"ĠMRISC":6103,"afvloed":6104,"ĠBeelden":6105,"Ġlymfkliermetastase":6106,"vp":6107,"ĠRecidief":6108,")-":6109,"mb":6110,"Ġpunctaten":6111,"digen":6112,"Ġminuscule":6113,"Ġcave":6114,"binnen":6115,"kelijke":6116,"ĠVisualisatie":6117,"Ġhyperdense":6118,"iform":6119,"Ġcumul":6120,"gevolge":6121,"eten":6122,"Ġprepectorale":6123,"ĠVroemen":6124,"Ġheen":6125,"Ġbovenbuik":6126,"studie":6127,"Sn":6128,"Ġbiopteren":6129,"ĠComp":6130,"Ġcystevocht":6131,"Ġgalblaas":6132,"Ġlabor":6133,"Ġgelu":6134,"Ġsiliconenprothese":6135,"Ġuitvoerig":6136,"otische":6137,"Ġbloederig":6138,"etje":6139,"Ġprobe":6140,"ĠAP":6141,"rag":6142,"ĠCorrecte":6143,"ĠOwer":6144,"Ġhalverwege":6145,"Toediening":6146,"aans":6147,"Ġlocoregionaal":6148,"ichamelijk":6149,"ĠHierna":6150,"Ġhand":6151,"Ġexp":6152,"Ġbeperkte":6153,"Ġaandacht":6154,"Ġingreep":6155,"WLE":6156,"palpabele":6157,"Ã©":6158,"Ġ312":6159,"caudaal":6160,"oegenomen":6161,"ĠLang":6162,"Ġachterlating":6163,"rit":6164,"?)":6165,"Ġzodanig":6166,"licht":6167,"domet":6168,"Ġinfraclaviculaire":6169,"Ġmantelveld":6170,"Ġdoorgema":6171,"Ġ----------------":6172,"Ġcorrectie":6173,"Ġvraagstelling":6174,"regio":6175,"onodig":6176,"Ad":6177,"Ġmorbus":6178,"Ġgede":6179,"ĠEvaluatie":6180,"Ġverwijderen":6181,"Ġunfavourable":6182,"brca":6183,"ĠPatidnte":6184,"ĠEventueel":6185,"Pijn":6186,"Ġsequ":6187,"Ġstandaard":6188,"Ġbloeding":6189,"ĠRondom":6190,"Ġcelarm":6191,"nelijk":6192,"Ã¶ger":6193,"ĠPositieve":6194,"achter":6195,"zette":6196,"Ġmini":6197,"Techn":6198,"Symmetrisch":6199,"ĠFavourable":6200,"Ġwandverdikking":6201,"maximale":6202,"stel":6203,"Vanwege":6204,"ĠVerslagToediening":6205,"137":6206,"Ġnaaldbiopten":6207,"ĠKlierweefsel":6208,"Lok":6209,"Ġcontroles":6210,"inden":6211,"Hoog":6212,"ĠPatiÃ«nt":6213,"Ġdoorverwezen":6214,"Ġstukje":6215,"Ġaanwijsbaar":6216,"mastitis":6217,"Ġspoor":6218,"Ġnaaldbiopt":6219,"Ġsprieterige":6220,"Ġhetzelfde":6221,"intensiteit":6222,"gooi":6223,"glomer":6224,"096":6225,"pland":6226,"ĠDoorsnede":6227,"ĠLaesie":6228,"ĠHuy":6229,"vangen":6230,"016":6231,"Ġovertuigende":6232,"ĠLaatste":6233,"ĠDaarbij":6234,"ĠHuygen":6235,"idi":6236,"positie":6237,"Ġgalwegen":6238,"Ġath":6239,"Afwijking":6240,"Ġcosta":6241,"Ġ209":6242,"ĠVentraal":6243,"ĠVerslagHet":6244,"Ġcompositiebeeld":6245,"Ġlucht":6246,"tonius":6247,"erdere":6248,"Ġplasmacel":6249,"Baas":6250,"mangi":6251,"Naald":6252,"Ġjodiumzaadjes":6253,"holte":6254,"Ġmening":6255,"Ġstrik":6256,"olledig":6257,"Ġuw":6258,"vragen":6259,"iciteit":6260,"Klier":6261,"ucente":6262,"Ġverharding":6263,"Ġerg":6264,"orp":6265,"Ġgevuld":6266,"zakelijk":6267,"contrast":6268,"Ġvoorafgaand":6269,"Ġcompleet":6270,"midden":6271,"olide":6272,"ĠKomt":6273,"valsbevinding":6274,"glomeraat":6275,"Ġvarier":6276,"Ġdiverse":6277,"Ġherkennen":6278,"Ġgroen":6279,"Ġwijzigingen":6280,"Ġtracerstapeling":6281,"aa":6282,"aug":6283,"Ġbilateraal":6284,"VraagstellingPET":6285,"Ġgebracht":6286,"Infraclaviculair":6287,"halen":6288,"Ġcolon":6289,"ĠIngestuurd":6290,"beelding":6291,"Ġkrijgen":6292,".)":6293,"OQ":6294,"tegen":6295,"Ġidentificatie":6296,"Verslaglegging":6297,"ĠupVerslag":6298,"ĠDikke":6299,"Ġinterp":6300,"Ġverstoringen":6301,"Ġafwez":6302,"alle":6303,"097":6304,"Ġuitgangsonderzoek":6305,"cut":6306,"Ġhomogene":6307,"92":6308,"026":6309,"ĠLINKER":6310,"Ġmetaplasie":6311,"Ġdef":6312,"ĠJansen":6313,"ĠToch":6314,"onecro":6315,"ĠSlanke":6316,"Ġcontrolemammografie":6317,"inum":6318,"oides":6319,"Ġscreenings":6320,"ĠRetromamillair":6321,"Ġnr":6322,"ĠLYMFE":6323,"ypT":6324,"Bilateraal":6325,"Cluster":6326,"Ġnanocoll":6327,"Ġbil":6328,"Ġhobbel":6329,"ĠCytologie":6330,"palpabel":6331,"Ġanders":6332,"Ġzouden":6333,"Ġverdwijn":6334,"pan":6335,"matoom":6336,"146":6337,"Ġwide":6338,"Ġflank":6339,"Ġatheroom":6340,"ĠMicrocalcificaties":6341,"ĠGel":6342,"orderde":6343,"Ġnevenbevindingen":6344,"Ġrestant":6345,"vet":6346,"Ġvoldoende":6347,"densiteit":6348,"kun":6349,"Suspecte":6350,"Ġkw":6351,"Naar":6352,"Aankleurende":6353,"Ġvervaardigen":6354,"ĠInmiddels":6355,"Ġgenn":6356,"Ġpleura":6357,"groot":6358,"Ġveldjes":6359,"Ġtumorale":6360,"Ġgebruik":6361,"ĠAlle":6362,"jecteerd":6363,"099":6364,"ĠBorst":6365,"kwabje":6366,"Ġdoen":6367,"Ġgepositioneerd":6368,"ĠLYMFESCINTIGRAFIE":6369,"lijks":6370,"Ġcorresponderend":6371,"Ges":6372,"Inmiddels":6373,"Ġdubbel":6374,"ling":6375,"haling":6376,"mN":6377,"ringen":6378,"graad":6379,"Ġlangste":6380,"Mrisc":6381,"PatiÃ«nt":6382,"Ġbovenquadrant":6383,"Ġtamoxifen":6384,"estal":6385,"orsten":6386,"Ġkliermetastasen":6387,"lat":6388,"Ġresttumor":6389,"NA":6390,"Ġ207":6391,"ĠLoc":6392,"Rechtsaxillair":6393,"ĠFaMrisc":6394,"ĠUitgangsonderzoek":6395,"horende":6396,"Ġoperatieclip":6397,"Ġdystroof":6398,"Ġmammografieen":6399,"Linksaxillair":6400,"inimaal":6401,"ĠOngecompliceerd":6402,"euze":6403,"sGeboortedatum":6404,"ĠNanocoll":6405,"Ġend":6406,"Ġkwe":6407,"Ġjan":6408,"cessen":6409,"Glad":6410,"sub":6411,"ĠSo":6412,"Ġuren":6413,"Ġretour":6414,"Ġhoudend":6415,"Maligniteit":6416,"cus":6417,"Ġpatidnt":6418,"Ġuptake":6419,"cularisatie":6420,"IT":6421,"Ġvergelijken":6422,"isme":6423,"Ġlymfebanen":6424,"seg":6425,"Ġdoch":6426,"richting":6427,"Ġbere":6428,"Ġmediastinum":6429,"Moeilijk":6430,"ĠLinkermamma":6431,"ĠVanwege":6432,"ijns":6433,"Ġmonom":6434,"ĠHydromarker":6435,"ĠliIndicatie":6436,"immings":6437,"iÃ«le":6438,"Ġ----------":6439,"Winter":6440,"IP":6441,"Ġmoeder":6442,"Ġoncoplastische":6443,"1966":6444,"Ġ34":6445,"Grillige":6446,"ĠWij":6447,"ĠAlkmaar":6448,"ĠVrijwel":6449,"mart":6450,"Ġhemangi":6451,"Ġmetabol":6452,"Mammografisch":6453,"Ne":6454,"51":6455,"Ġnucleaire":6456,"ĠHoef":6457,"ringende":6458,"ĠMOQ":6459,"Ġnogmaals":6460,"ĠGEG":6461,"Ġexcentrisch":6462,"ph":6463,"Ġhilair":6464,"drainage":6465,"been":6466,"ĠPathologische":6467,"006":6468,"Ġvolumever":6469,"ueerd":6470,"Ġmilt":6471,"Drietal":6472,"ĠAangezien":6473,"Huisartsen":6474,"1969":6475,"Ġechogen":6476,"Ġinject":6477,"Ġtroebel":6478,"1965":6479,"egeleid":6480,"ĠGooi":6481,"nagel":6482,"orta":6483,"%).":6484,"bekende":6485,"Ġretropectoraal":6486,"Ġingedikte":6487,"MLO":6488,"Ġinspuiten":6489,"ĠHoefnagel":6490,"eth":6491,"015":6492,"Ġsubpectorale":6493,"ĠVerslagIntratumorale":6494,"Gegroepeerde":6495,"parasternaal":6496,"klein":6497,"ĠTiel":6498,"ĠGescand":6499,"Ġabdomen":6500,"Focale":6501,"ĠCor":6502,"Ġhematogene":6503,"Ġvoorste":6504,"Ġregionale":6505,"Zekerheidshalve":6506,"xillaire":6507,"Ġdiagnostische":6508,"istieken":6509,"dominaal":6510,"cysten":6511,"uizen":6512,"ĠVerspreide":6513,"IES":6514,"ĠSupraclaviculair":6515,"Ġontbreken":6516,"ĠKrÃ¶ger":6517,"oename":6518,"Ġgranulair":6519,"Ġretromammillair":6520,"Ġuitgangs":6521,"Ġnamelijk":6522,"Afwijkingen":6523,"ĠVoelt":6524,"Gel":6525,"Ġminstens":6526,"Ġverst":6527,"ĠKimmings":6528,"pT":6529,"Ġinfiltratie":6530,"intense":6531,"Ġatypische":6532,"centraal":6533,"Ġlage":6534,"atto":6535,"Ġvasculaire":6536,"elateerd":6537,"FOTO":6538,"Ġgeopereerd":6539,"iserende":6540,"ucas":6541,"spectief":6542,"Ġ212":6543,"ĠJens":6544,"Ġvaatwand":6545,"ĠLitteken":6546,"Ġuitst":6547,"organen":6548,"VIES":6549,"Ġanderszins":6550,"Ġips":6551,"martoom":6552,"Ġgegeven":6553,"ĠVogelNucleair":6554,"ieure":6555,"Ġsilicone":6556,"Ġpresent":6557,"ormalisatie":6558,"Ġangio":6559,"Ġwle":6560,"Geautoriseerd":6561,"ĠLobatto":6562,"Ġrandaankleuring":6563,"Ġplaatsv":6564,"Ġconglomeraat":6565,"Ġvari":6566,"orable":6567,"chogene":6568,"Ġomringende":6569,"ĠFlevo":6570,"Ġind":6571,"Indruk":6572,"roger":6573,"rima":6574,"FUVerslag":6575,"ĠZwelling":6576,"Ġvarierend":6577,"He":6578,"Ġborsten":6579,"Iets":6580,"098":6581,"Ġbekeken":6582,"Ġmetabolisme":6583,"Ġ;":6584,"Ġuitgebreidheid":6585,"ĠRecent":6586,"ĠOvername":6587,"craniaal":6588,"Ġgeven":6589,"1961":6590,"Bruining":6591,"Ġneoadj":6592,"ĠGrove":6593,"ithel":6594,"Ġafbeelding":6595,"Ġafdeling":6596,"Ġgezamenlijke":6597,"ĠSn":6598,"ĠADVIES":6599,"78":6600,"ucin":6601,"ĠTijdens":6602,"ĠSUV":6603,"126":6604,"Ġton":6605,"046":6606,"ĠROLLOnderzoeksgegevens":6607,"Ġmaag":6608,"Ġvisu":6609,"Reeds":6610,"Ġvijf":6611,"095":6612,"Ġcumulatieve":6613,"augmentatie":6614,"Ġlocalisatie":6615,"Ġverschenen":6616,"oken":6617,"sternale":6618,"Ġgelukt":6619,"Ġmulticentrische":6620,"gaarne":6621,"Ġmaj":6622,"Ġgemetastaseerd":6623,"Ġaxiale":6624,"war":6625,"otal":6626,"ruimte":6627,"Ġbovenste":6628,"odens":6629,"begrensde":6630,"ider":6631,"1964":6632,"1959":6633,"Ġnood":6634,"Mammapoli":6635,"Ġgecombin":6636,"arcoom":6637,"Ġonru":6638,"entexcisie":6639,"Ġtechniek":6640,"andige":6641,"mmun":6642,"Ġfavourable":6643,"ĠAbl":6644,"Aangezien":6645,"ade":6646,"ervix":6647,"Doll":6648,"ĠDollP":6649,"oÃ¯":6650,"Ġamp":6651,"ĠMammografieBelaste":6652,"alleen":6653,"ĠPaget":6654,"ĠGlad":6655,"Ġgenormaliseerd":6656,"Gep":6657,"ĠRechtermamma":6658,"Ġmindere":6659,"Ġokselklierdissectie":6660,"Ġplaatsgevonden":6661,"ibi":6662,"pathologie":6663,"Â½":6664,"ControleVerslag":6665,"Ġ1996":6666,"line":6667,"Ġhuidmarkeringen":6668,"kenmerkt":6669,"Ġlap":6670,"139":6671,"Ġbijnieren":6672,"entrolateraal":6673,"Ġblijkbaar":6674,"ĠDia":6675,"Ġokseltop":6676,"Ġdarm":6677,"ĠMedi":6678,"Ġresteert":6679,"Sta":6680,"rele":6681,"035":6682,"Ġeffect":6683,"Ġgestart":6684,"Ġtoonde":6685,"ijfel":6686,"Ġgekenmerkt":6687,"Ġplasmacelmastitis":6688,"ĠTielbeek":6689,"Ġneemt":6690,"celcarcinoom":6691,"Ġpoging":6692,"Ġlymfomen":6693,"Ġloodkorrelmarkering":6694,"ĠGrootte":6695,"Ġdoorgemaakte":6696,"gan":6697,"famili":6698,"Ġmajor":6699,"Fran":6700,"ĠypT":6701,"ĠgegevensT":6702,"ĠSmithuis":6703,"egeleidend":6704,"beiderzijds":6705,"ĠMeest":6706,"acaal":6707,"Ġzestal":6708,"79":6709,"ykan":6710,"ĠreIndicatie":6711,"assistent":6712,"Ġbetreffende":6713,"ekt":6714,"ĠRECHTER":6715,"rum":6716,"Beelden":6717,"vrij":6718,"74":6719,"haard":6720,"ĠMrisc":6721,"eldt":6722,"Ġcollectie":6723,"Ġvethoudende":6724,"Fysiologische":6725,"Ġherceptin":6726,"1963":6727,"ĠSoykan":6728,"ĠKen":6729,"Intra":6730,"Ġos":6731,"ĠWest":6732,"hirurgie":6733,"gevallen":6734,"post":6735,"Ġmarkeringen":6736,"RGIN":6737,"Ġuitgezette":6738,"Ġoverliggende":6739,"1960":6740,"sche":6741,"ĠFamiliaire":6742,"Ġbevestigt":6743,"Ġphylloides":6744,"ĠStabie":6745,"niveau":6746,"Ġgericht":6747,"ĠFU":6748,"ĠMammografieScreening":6749,"Multifocale":6750,"Ġvolumeverlies":6751,"Ġ208":6752,"Ġhad":6753,"Ġlosgelegen":6754,"Ġintercostaalruimte":6755,"Ġsuboptimaal":6756,"Sentinel":6757,"ĠMammaca":6758,"Ġsteat":6759,"Ġpresentatie":6760,"riter":6761,"tern":6762,"aliseerde":6763,"thesen":6764,"ĠdeGeboortedatum":6765,"Ġ-->":6766,"Ġmeta":6767,"Ġbeginnende":6768,"Ġvoelen":6769,"Ġmedebeoordeling":6770,"iloc":6771,"ĠVoorgeschiedenis":6772,"dometrium":6773,"Ġingepland":6774,"avemaker":6775,"Ġle":6776,"Ġ206":6777,"Scherp":6778,"Ġgecombineerd":6779,"RGINS":6780,"Ġhypere":6781,"irad":6782,"Ġpunctaat":6783,"welling":6784,"ini":6785,"ĠVeel":6786,"rien":6787,"via":6788,"Ġget":6789,"mmen":6790,"ĠKan":6791,"Ġgaan":6792,"Ġpus":6793,"IEP":6794,"Ġcomponenten":6795,"ĠVaat":6796,"1968":6797,"ĠSchavemaker":6798,"Enige":6799,"iforme":6800,"Ġpaar":6801,"138":6802,"ysp":6803,"Contral":6804,"ĠSchedelbasis":6805,"elijke":6806,"Ġaangeeft":6807,"131":6808,"Ġkweek":6809,"Ġplaatsvinden":6810,"ussent":6811,"ĠAlhier":6812,"mdat":6813,"ĠNeo":6814,"Ġbeslaat":6815,"meta":6816,"Ġmarkerplaatsing":6817,"Ġinduratie":6818,"Ġinjection":6819,"OC":6820,"Ġresectievlak":6821,"laesies":6822,"da":6823,"ificeerd":6824,"Ġplatte":6825,"getroffen":6826,"rregulair":6827,"ĠGering":6828,"007":6829,"ĠPericlaviculair":6830,"ĠRepresent":6831,"Ġvaste":6832,"ulde":6833,"Ġaangetroffen":6834,"Ventraal":6835,"Ġtepelniveau":6836,"ĠXMG":6837,"ĠOwersNucleair":6838,"135":6839,"ĠGrote":6840,"Ġhamartoom":6841,"Ġ37":6842,"getje":6843,"Ġhelemaal":6844,"urloo":6845,"ĠAd":6846,"Ġprotheses":6847,"Ongecompliceerd":6848,"iple":6849,"ĠAntonius":6850,"aterland":6851,"riteria":6852,"Ġdysp":6853,"Ġfa":6854,"ĠExcisie":6855,"keur":6856,"1955":6857,"ITEN":6858,"Ġscreenend":6859,"Additionele":6860,"Ġcorpus":6861,"onc":6862,"Ġvena":6863,"ĠTijd":6864,"Ġbirads":6865,"ĠLichamelijk":6866,"Ġondanks":6867,"olgen":6868,"Ġwest":6869,"avorable":6870,"Stabie":6871,"Ġ>":6872,"vergrote":6873,"zend":6874,"ager":6875,"Ġnoodzakelijk":6876,"ĠSolitaire":6877,"abl":6878,"Ġvascularisatie":6879,"Architectuurverstoring":6880,"ibiot":6881,"Ġgb":6882,"Ġomgevende":6883,"ĠKroger":6884,"uide":6885,"Technisch":6886,"Ġregressie":6887,"Ġgecon":6888,"Opnamen":6889,"ĠHierdoor":6890,"Ġtonvormige":6891,"Alleen":6892,"Ġzwangerschap":6893,"ĠBoven":6894,"Ġonbeoordeelbaar":6895,"Ġvierde":6896,"ĠUitgebreid":6897,"Ġzelfs":6898,"Ġhaar":6899,"Ġbolrond":6900,"cone":6901,"Ġbolvormig":6902,"++":6903,"ĠDIEP":6904,"adien":6905,"Ġstug":6906,"Opvall":6907,"Ġnld":6908,"ĠSlechts":6909,"atori":6910,"veranderingen":6911,"001":6912,"132":6913,"Solitaire":6914,"Ġonbekend":6915,"Ġfeit":6916,"haarden":6917,"Ġ90":6918,"Ġvervolgen":6919,"mp":6920,"Ġwit":6921,"obaire":6922,"nemend":6923,"kenkamp":6924,"Ġperitumoraal":6925,"atuur":6926,"129":6927,"dre":6928,"ĠMon":6929,"Ġgerelateerd":6930,"ĠMartine":6931,"ĠmammaIndicatie":6932,"VraagstellingSn":6933,"Ġlit":6934,"Ġ36":6935,"Ġatheroomcyste":6936,"best":6937,"Ġhierboven":6938,"Ġafvloed":6939,"zaak":6940,"ongeveer":6941,"ĠVerdere":6942,"Ġtumorrest":6943,"Ġmarkeren":6944,"Ġpectoraal":6945,"Ġexcisielitteken":6946,"Ġ1995":6947,"Ġbrede":6948,"Ġskin":6949,"onecrose":6950,"Pameijer":6951,"UITEN":6952,"Ġ205":6953,"1962":6954,"Ġinjectionem":6955,"iopsie":6956,"Ġgezogen":6957,"spron":6958,"134":6959,"roliferatie":6960,"Ġcarcinoma":6961,"timale":6962,"UMC":6963,"Ġleegzuigen":6964,"Ġmobiel":6965,"ĠMoeilijk":6966,"Ġincisie":6967,"Ġbirad":6968,"Ġechogeniciteit":6969,"fibro":6970,"027":6971,"ĠAfname":6972,"middel":6973,"Ġverdeel":6974,"Ġevenals":6975,"ocrien":6976,"Ġcontin":6977,"ĠbdzVerslag":6978,"1957":6979,"Gescand":6980,"ĠPTC":6981,"Ġdorsolateraal":6982,"ytische":6983,"Ġnieren":6984,"Ġdrain":6985,"Ġlanggerekte":6986,"Ġecht":6987,"Ġ38":6988,"Ġhart":6989,"ĠRest":6990,"Ġplomp":6991,"Ġverkalkt":6992,"Ġmeldt":6993,"beschreven":6994,"AVL":6995,"ĠIndruk":6996,"Ġoverlegd":6997,"Ġthor":6998,"Ġechoversterking":6999,"Laesie":7000,"Ġaankleurt":7001,"1971":7002,"Gepland":7003,"oont":7004,"ĠRadiologisch":7005,"Ġirradicale":7006,"Ġwisselend":7007,"ĠMastopathie":7008,"proliferatie":7009,"Postmenopauzale":7010,"ĠMaligne":7011,"ĠBUITEN":7012,"ucineus":7013,"ĠSuspecte":7014,"Ġuitvloed":7015,"tijd":7016,"Ġblok":7017,"ĠDuidelijk":7018,"Ingestuurd":7019,"ikbaar":7020,"nest":7021,"ime":7022,"Ġet":7023,"ĠFam":7024,"lijkt":7025,"Ġlymfang":7026,"conessen":7027,"plaatst":7028,"ĠBorstlap":7029,"Ġrechtslateraal":7030,"ĠCR":7031,"ĠDensiteit":7032,"ĠMARGINS":7033,".).":7034,"Comp":7035,"ulatie":7036,"Ġmultin":7037,"Ġervan":7038,"Ġproject":7039,"ha":7040,"ĠScho":7041,"ĠFranssen":7042,"paraat":7043,"intens":7044,"Lymfklier":7045,"claviculair":7046,"Ġaangrenz":7047,"005":7048,"Ġexcisiegebied":7049,"ĠBrouwerNucleair":7050,"Hierbij":7051,"ĠBUITENFOTO":7052,"ĠHeeft":7053,"long":7054,"ĠDeurloo":7055,"Asymmetrie":7056,"ĠDosering":7057,"atorium":7058,"Ġmiddelste":7059,"Axilla":7060,"Ġdesm":7061,"oals":7062,"Veel":7063,"normaal":7064,"tatie":7065,"akk":7066,"Adequaat":7067,"Biopt":7068,"Ġintraveneus":7069,"ystrofe":7070,"ĠMammografieControle":7071,"ĠBO":7072,"Ġafgeronde":7073,"Ġklin":7074,"Ġvervaardigde":7075,"Ġlaboratorium":7076,"025":7077,"Ġdwar":7078,"1967":7079,"ĠJanssen":7080,"No":7081,"Ġniets":7082,"lo":7083,"echog":7084,"Waarschijnlijk":7085,"Irregulaire":7086,"ConclusieGoede":7087,"Ġovereenkomt":7088,"Uitgang":7089,"141":7090,"Ġconvent":7091,"ussentijds":7092,"Ġafgesproken":7093,"vasief":7094,"Ġmoei":7095,"kogel":7096,"ĠMammografieFamiliair":7097,"Ġontstoken":7098,"Ġmammo":7099,"Ġschouder":7100,"uidexcisie":7101,"??":7102,"ĠTergooi":7103,"ĠBosch":7104,"orte":7105,"eggen":7106,"deelbaar":7107,"Ġantibiot":7108,"Ġlokalisaties":7109,"Oksel":7110,"1947":7111,"Ġacht":7112,"Ġtoevalsbevinding":7113,"Ġvermeldt":7114,"ĠTw":7115,"espons":7116,"Calcificaties":7117,"ĠCysteuze":7118,"Ġmultiloc":7119,"1970":7120,"Ġmis":7121,"rend":7122,"ugkijkend":7123,"Ġminor":7124,"tekens":7125,"zicht":7126,"Hydromarker":7127,"Plaatsen":7128,"Ġconclusief":7129,"ĠMari":7130,"ollen":7131,"ĠRadi":7132,"ĠSuspect":7133,"tussen":7134,"alyse":7135,"Ġzacht":7136,"ĠGeg":7137,"Laatste":7138,"Ġadequaat":7139,"ĠConclusieLokalisatie":7140,"ĠMammografieMST":7141,"Ġ\"":7142,"Ġseries":7143,"tisch":7144,"ĠUnifocaal":7145,"Ġverklaren":7146,"ĠDaarna":7147,"OM":7148,"Ġtoeval":7149,"uros":7150,"Ġoverweeg":7151,"Ġga":7152,"Ġhuidcalcificaties":7153,"Ġoksels":7154,"ĠOverigens":7155,"Ġretromamm":7156,"xop":7157,"Ġhuidin":7158,"Ġmeege":7159,"mammaca":7160,"elt":7161,"142":7162,"VO":7163,"Ġcriteria":7164,"086":7165,"Ġspoortje":7166,"ĠToxop":7167,"Besloten":7168,"ĠToxopeus":7169,"ĠLater":7170,"066":7171,"Ġogend":7172,"nestisch":7173,"Ġgegevensmammacarcinoom":7174,"Ġbepaling":7175,"plek":7176,"Histologisch":7177,"ĠCluster":7178,"Ġkarakteristieken":7179,"ĠUitgangssituatie":7180,"Ġglob":7181,"ĠHol":7182,"ĠLucas":7183,"Ġlast":7184,"Ġgegroeid":7185,"ynamiek":7186,"145":7187,"Ġzonodig":7188,"ĠAspect":7189,"rogressie":7190,"ĠZaans":7191,"Ġmelk":7192,"ĠOnveranderde":7193,"und":7194,"Ġtepelknop":7195,"Franken":7196,"Ġreden":7197,"Ġoorspron":7198,"Ġradiatie":7199,"144":7200,"Ġsymmetriserende":7201,"Ġbeen":7202,"Ġhematoomvorming":7203,"Ġlaaggradig":7204,"mediale":7205,"004":7206,"Ġaxillairlijn":7207,"Ġrelevant":7208,"resectie":7209,"Ġgekomen":7210,"Ġdoorgestuurd":7211,"Forse":7212,"ĠBoel":7213,"Ġintrapulm":7214,"Ġgeassocieerde":7215,"143":7216,"gedikt":7217,"037":7218,"ĠDubieuze":7219,"ĠMeander":7220,"upra":7221,"Ġnummer":7222,"Ġsuper":7223,"Ġhydromarkers":7224,"Excisie":7225,"Ġventro":7226,"Ġsignaalintensiteit":7227,"Ġgra":7228,"Ġverloop":7229,"ĠAls":7230,"Ġschijf":7231,"Ġzwell":7232,"Ġprocessen":7233,"Ġgerev":7234,"ĠAmsterdam":7235,"Ġsta":7236,"Total":7237,"nemer":7238,"133":7239,"ĠTepel":7240,"Ġbeslaan":7241,"Ġ1994":7242,"Ġgeorienteerd":7243,"ĠHiervoor":7244,"1972":7245,"ĠDeels":7246,"klieren":7247,"Ġpapillair":7248,"Ġthv":7249,"typ":7250,"Ġbetreffend":7251,"Ġpleuravocht":7252,"ext":7253,"Ġsubtiel":7254,"Ġmorfologisch":7255,"101":7256,"pleeg":7257,"Ġtekening":7258,"Diffuse":7259,"ĠLokaal":7260,"Ġnegatieve":7261,"phia":7262,"gra":7263,"iwit":7264,"eteren":7265,"ĠBeoor":7266,"Ġpoliep":7267,"Ġgeel":7268,"pervlakkig":7269,"pantie":7270,"ĠScherp":7271,"Ġactiviteitstapeling":7272,"Di":7273,"Ġbilobaire":7274,"abdominaal":7275,"65":7276,"Ġerv":7277,"Ġmonomorfe":7278,"igh":7279,"........":7280,"CPA":7281,"1952":7282,"Ġpersisteert":7283,"Uitslag":7284,"Ġgevoelig":7285,"materiaal":7286,"hoogte":7287,"Ġoorzaak":7288,"Ġaanduid":7289,"Ġdiscreet":7290,"icentrisch":7291,"Ġoedema":7292,"pleegkun":7293,"enkele":7294,"127":7295,"Ġoksellokalisatie":7296,"20405":7297,"ĠToonenRadioloogH":7298,"zijdige":7299,"Dubieus":7300,"FrankenRadioloog":7301,"Is":7302,"Ġdosis":7303,"teus":7304,"094":7305,"Ġingedikt":7306,"VraagstellingGraag":7307,"1954":7308,"Vergelijkend":7309,"ema":7310,"ĠDiffuse":7311,"70":7312,"loc":7313,"opt":7314,"Ġpolym":7315,"Vraagstellingsn":7316,"Ġtepelhoogte":7317,"jaarlijkse":7318,"Ġovar":7319,"Ġmama":7320,"ĠMaximaal":7321,"1958":7322,"Ġlymfeafvloed":7323,"orgen":7324,"Ġcontrastmiddel":7325,"Ġcontinu":7326,"Ġovariumcarcinoom":7327,"Ġlijn":7328,"ĠUMC":7329,"ĠJodiumzaadje":7330,"Ġlinkerboven":7331,"ĠGra":7332,"sse":7333,"Ġtransversale":7334,"\"<":7335,"</":7336,"Ġblijken":7337,"ĠOverweeg":7338,"ĠPalpabel":7339,"ĠPijnlijke":7340,"ĠliVerslag":7341,"Ġredelijke":7342,"odus":7343,"goed":7344,"Ġlinkslateraal":7345,"ĠOnscherp":7346,"206":7347,"Ġeiwit":7348,"dreas":7349,"Screen":7350,"lij":7351,"Cysteuze":7352,"conclusie":7353,"ĠLangeRadioloogC":7354,"agenaar":7355,"Ġantibiotica":7356,"ioneel":7357,"Ġlobulaire":7358,"nis":7359,"groep":7360,"Ġregionaal":7361,"rekt":7362,"Ġoverweging":7363,"Ġpersisterende":7364,"Ġvolkomen":7365,"Ġze":7366,"ers":7367,"Recidief":7368,"ĠHoo":7369,"trecht":7370,"can":7371,"Ġimponeren":7372,"ocriene":7373,"Ġaanduiding":7374,"micro":7375,"itone":7376,"Ġaanvankelijk":7377,"chografische":7378,"vergro":7379,"ĠPatidnt":7380,"ĠIN":7381,"ĠStatusnummer":7382,"ĠLicht":7383,"Ġfibrocysteuze":7384,"ĠST":7385,"Ġlittekens":7386,"entatie":7387,"Wat":7388,"ĠreVerslag":7389,"ĠMAMMAE":7390,"Weinig":7391,"neu":7392,"128":7393,"Ġjodiummarkers":7394,"opro":7395,"rijke":7396,"cr":7397,"093":7398,"Ġtwijfel":7399,"Ġdegeneratieve":7400,"draagster":7401,"randen":7402,"ĠCraniolateraal":7403,"Ġmultiple":7404,"enadering":7405,"laard":7406,"088":7407,"ĠVerslagDe":7408,"ĠLokale":7409,"73":7410,"vm":7411,"anneer":7412,"passing":7413,"ouding":7414,"Ġverkleind":7415,"net":7416,"Ġur":7417,"Homogeen":7418,"ĠUtrecht":7419,"Ġpreoperatieve":7420,"ĠCave":7421,"ĠDaarom":7422,"Ġmij":7423,"ymfadenopathie":7424,"076":7425,"Ġhaardje":7426,"Overeenkom":7427,"ĠBoellaard":7428,"ĠTot":7429,"Ġziekte":7430,"ĠLoodmarkering":7431,"Ġulc":7432,"Ġcons":7433,"houdens":7434,"Ġsens":7435,"Vraagstellingpre":7436,"itheliale":7437,"Ġaanvoelende":7438,"Ġabnormale":7439,"wollen":7440,"Ġ)":7441,"Ġoog":7442,"Ġmiddag":7443,"Ġclipjes":7444,"Wij":7445,"ĠJuist":7446,"Pathologisch":7447,"Ġstuks":7448,"Ġstructuurtje":7449,"Vooralsnog":7450,"Ġarterieel":7451,"Thorax":7452,"aankleurende":7453,"Ġhiermee":7454,"Ġnecrotische":7455,"huid":7456,"Ġiso":7457,"indevaluatie":7458,"bouw":7459,"Vrijwel":7460,"ĠToename":7461,"Ġontvangen":7462,"Ġnodulus":7463,"60":7464,"Ġprojecteren":7465,"Ġ1993":7466,"ĠHage":7467,"ĠSec":7468,"ĠUitbreiding":7469,"Ġbeschrij":7470,"Ġverbinding":7471,"totaal":7472,"ologen":7473,"Ġkennelijk":7474,"ĠFocaal":7475,"Ġmn":7476,"Ġcompressieopname":7477,"Ġgevoelde":7478,"yper":7479,"ĠFA":7480,"prothesen":7481,"oventraal":7482,"Ġdysplasie":7483,"Medi":7484,"ĠAfmetingen":7485,"Ġidentiek":7486,"Palpabel":7487,"Ġtoepassing":7488,"Ġrandnormale":7489,"Ġprec":7490,"ĠSnel":7491,"ificeren":7492,"ĠLymfeklier":7493,"Ġloodkogel":7494,"AO":7495,"Ġpte":7496,"Contrast":7497,"Sterk":7498,"gewogen":7499,"Unilaterale":7500,"20404":7501,"cyst":7502,"Ġmucineus":7503,"Ġik":7504,"Ġkleinste":7505,"Ġtal":7506,"ĠEerdere":7507,"Voorgeschiedenis":7508,"Ġtemidden":7509,"Ġdraad":7510,"Ġonderkwab":7511,"Ġgepalp":7512,"Ġtechnisch":7513,"ĠJaarlijkse":7514,"Begeleidend":7515,"moeilijk":7516,"Ġxmg":7517,"Ġmediolaterale":7518,"Ġpassende":7519,"Ġmorfologie":7520,"Ġnad":7521,"ĠOnzeker":7522,"Ġcortexverdikking":7523,"strib":7524,"Ġsituatie":7525,"Ġreconstructies":7526,"ĠWagenaar":7527,"tekend":7528,"ĠBOV":7529,"zeer":7530,"Ġrestmassa":7531,"Ġori":7532,"ĠmammaVerslag":7533,"140":7534,"ombinatie":7535,").\"":7536,"Ġbreedte":7537,"68":7538,"Adequate":7539,"Ġuitspraak":7540,"Ġcaudo":7541,"Ġgepro":7542,"flectie":7543,"oger":7544,"Ġverminder":7545,"Ġadjuvant":7546,"verbre":7547,"Ġdaarvoor":7548,"lotte":7549,"ĠÂ¦":7550,"ĠHolt":7551,"Ġdesmoplastische":7552,"MST":7553,"Ġtumoractiviteit":7554,"Echter":7555,"Ġovereenkomen":7556,"rische":7557,"VraagstellingGepland":7558,"ĠPostmenopauzaal":7559,"Ġsatellieten":7560,"Ġjaarlijkse":7561,"veis":7562,"ĠProthese":7563,"Ġtumortje":7564,"ĠPeri":7565,"multifocaal":7566,"Ġbrengen":7567,"Beper":7568,"minente":7569,"rengetje":7570,"echogeleid":7571,"ordt":7572,"Ġreferentie":7573,"omateuze":7574,"ĠAfstand":7575,"Ġtepels":7576,"Ġuiteinde":7577,"ĠVerander":7578,"Ġkort":7579,"iectomie":7580,"Ġgland":7581,"Ġtoestand":7582,"Ġsensit":7583,"olom":7584,"liet":7585,"assend":7586,"Ġverkleinde":7587,"vergroting":7588,"ĠCheungNucleaire":7589,"Ġaorta":7590,"merkte":7591,"Ġhemangioom":7592,"102":7593,"Ġechogram":7594,"Ġepitheelproliferatie":7595,"ĠNon":7596,"ilinder":7597,"Ġinjectieplek":7598,"20406":7599,"Ġgecont":7600,"rononc":7601,"Ġvloe":7602,"rim":7603,"Ġbovenkwab":7604,"stereotact":7605,"ĠSterk":7606,"Ġscar":7607,"anne":7608,"ĠNina":7609,"Ġvervet":7610,"Ġtracerverdeling":7611,"usievelijk":7612,"Ġbehalve":7613,"ĠGespiculeerde":7614,"Ġmediocentraal":7615,"147":7616,"ĠNM":7617,"Zwelling":7618,"ĠManu":7619,"ĠmammografieÃ«n":7620,"Ġchron":7621,"ĠManuel":7622,"kolom":7623,"ĠTHORAX":7624,"Ġperf":7625,"roleerd":7626,"?.":7627,"Eventueel":7628,"Ġwisselende":7629,"Ġgelokaliseerde":7630,"Ġvlekk":7631,"ĠAndreas":7632,"leverkwab":7633,"Ġili":7634,"safname":7635,"Ġblaas":7636,"ĠWesselsRadioloogDr":7637,"Ġendometrium":7638,"Ġmultiloculaire":7639,"extirpatie":7640,"Eveneens":7641,"va":7642,"afmeting":7643,"Eindevaluatie":7644,"Ġrijke":7645,"afwijkingenVerslag":7646,"Ġomheen":7647,"Ġintracapsulaire":7648,"1956":7649,"Geheel":7650,"Ġuiteindelijk":7651,"Zonder":7652,"Ġmic":7653,"Ġaangevraagd":7654,"Ġhuidincisie":7655,"ĠHoltkamp":7656,"medi":7657,"verd":7658,"ĠOpnamen":7659,"Ġwr":7660,"leurale":7661,"ĠConclusieNon":7662,"lem":7663,"etjes":7664,"breedte":7665,"Ġgroeiende":7666,"Ġgranulaire":7667,"arden":7668,"Ġrt":7669,"ikte":7670,"Ġunilateraal":7671,"tekende":7672,"089":7673,"ĠFibroadenoom":7674,"urm":7675,"Ġbloedv":7676,"Ġinflammatie":7677,"ĠderGeboortedatum":7678,"relatie":7679,"Ġhem":7680,"Ġeind":7681,"IJ":7682,"sd":7683,"schil":7684,"retractie":7685,"kanker":7686,"64":7687,"PT":7688,"ulken":7689,"gebiop":7690,"ficiele":7691,"innemende":7692,"Ġtumorlokalisaties":7693,"yer":7694,"Ġlact":7695,"Ġgecontroleerd":7696,"ulatuur":7697,"Patidnte":7698,"uij":7699,"scur":7700,"1949":7701,"Ġhouding":7702,"Ġlittekenvorming":7703,"Ġsagittaal":7704,"ĠOvereenkomend":7705,"Ġklierpathologie":7706,"Ġomliggende":7707,"jodium":7708,"Verdacht":7709,"038":7710,"ĠFocale":7711,"Ġplaveis":7712,"Ġwervelkolom":7713,"therapie":7714,"Ġgebruikt":7715,"Ġrect":7716,"Ġasc":7717,"Ġnier":7718,"Ġloopt":7719,"istologische":7720,"ĠArchitectuurverstoring":7721,"PAio":7722,"ĠmutatieIndicatie":7723,"oph":7724,"ĠOv":7725,"Ġpuncteren":7726,"Ġvertonen":7727,")..":7728,"Ġinterpret":7729,"Ġverdwijnt":7730,"Ġminus":7731,"Ġhuidplooi":7732,"Ġdist":7733,"osi":7734,"Ġluc":7735,"ĠEv":7736,"oreflectie":7737,"71":7738,"Linker":7739,"pool":7740,"ĠZou":7741,"Ġkorrel":7742,"ĠOpvallend":7743,"Ġposterior":7744,"Ġlbq":7745,"Ġbemerkte":7746,"ĠAddendum":7747,"Ġhypodens":7748,"148":7749,"Ġipsilaterale":7750,"Ġretromammilair":7751,"Ġ<":7752,"ĠNab":7753,"Vraagstellinggraag":7754,"ĠMonro":7755,"ecifieke":7756,"Ġbovenbuiks":7757,"invasieve":7758,"korte":7759,"1948":7760,"20502":7761,"RE":7762,"oppl":7763,"ĠAxilla":7764,"Ġcombinatie":7765,"Ġbovenbeschreven":7766,"genoemde":7767,"Ġbeschouwen":7768,"Tenminste":7769,"ĠKennemer":7770,"uurs":7771,"iteindelijk":7772,"63":7773,"Ġmeeste":7774,">\"":7775,"mijn":7776,"ĠLaterale":7777,"Ġgeprononc":7778,"ato":7779,"punctieKlinische":7780,"erg":7781,"085":7782,"Ġinspectie":7783,"Ġsequentie":7784,"1946":7785,"Ġverpleegkun":7786,"ĠVliet":7787,"Ġhierop":7788,"Ġtypische":7789,"ĠSuros":7790,"Ġsclerotische":7791,"isser":7792,"087":7793,"oppler":7794,"034":7795,"Ġbloederige":7796,"Ġinflammato":7797,"Ġzwakke":7798,"crete":7799,"013":7800,"018":7801,"Ġmed":7802,"Ġspecimen":7803,"Ġvervolg":7804,"Lokale":7805,"atra":7806,"Ġbedro":7807,"1953":7808,"Ġimmun":7809,"ĠMicrokalk":7810,"Ġbijbe":7811,"ila":7812,"Ġgevulde":7813,"Ġlocaties":7814,"/-":7815,"wandige":7816,"ĠrechtsTer":7817,"Ġpapillomat":7818,"Ġrechterboven":7819,"ria":7820,"Ġtegenstelling":7821,"ĠAdequaat":7822,"Ġtotal":7823,"Ġafzonder":7824,"Ġcutaan":7825,"Ġoperatief":7826,"ĠAankleuring":7827,"Ġvaten":7828,"hals":7829,"Ġgezwollen":7830,"ĠBijkom":7831,"Loveren":7832,"ĠvanLoveren":7833,"Ġmammaparenchym":7834,"Ġpapillomen":7835,"Alhier":7836,"%)":7837,"Rechter":7838,"ĠMammografieFollow":7839,"ĠHelaas":7840,"toen":7841,"ING":7842,"Ġplompe":7843,"otisch":7844,"ĠmammaeStatus":7845,"ĠAblatio":7846,"ations":7847,"Ġhiertegen":7848,"odulair":7849,"itair":7850,"ĠLinker":7851,"issue":7852,"oer":7853,"ĠToegenomen":7854,"1951":7855,"Ġtomo":7856,"lateerde":7857,"Ġzeggen":7858,"ĠSuggestie":7859,"Ġhieromheen":7860,"oemd":7861,"Ġmicroverkalkingen":7862,"Ġlokaliseren":7863,"huizen":7864,"Ġeilandje":7865,"oontherapie":7866,"Ġmoeizaam":7867,"Ġoverloop":7868,"Ġtaa":7869,"Ġdiscrepantie":7870,"ozen":7871,"gew":7872,"Ġgrootst":7873,"Ġzin":7874,"ĠMets":7875,"gebiopteerd":7876,"arige":7877,"Ġopvragen":7878,"DD":7879,"Ġspoel":7880,"ĠVanuit":7881,"Lang":7882,"Ġ42":7883,"Ġrestkalk":7884,"Ġtubulair":7885,"Â°":7886,"Ġ(<":7887,"ĠPersisterend":7888,"agittaal":7889,"maligniteit":7890,"Ġbedroeg":7891,"Ġmetastasering":7892,"Ġverdeeld":7893,"Ġstellen":7894,"Ġgedilateerde":7895,"ragen":7896,"ĠPassend":7897,"ĠRegel":7898,"Beoordeling":7899,"Ġhypoe":7900,"ĠSO":7901,"oÃ¯d":7902,"AOIS":7903,"sparing":7904,"ichting":7905,"Ġdaardoor":7906,"urmerend":7907,"ĠMinimaal":7908,"Ġaanvulling":7909,"ĠNME":7910,"Ġview":7911,"ĠGesch":7912,"Ġvoorheen":7913,"Ġtermijn":7914,"Unifocaal":7915,"ĠOf":7916,"eval":7917,"laagde":7918,"Laterale":7919,"ĠvariÃ«":7920,"Contrastopname":7921,"ĠAden":7922,"ĠVerdikte":7923,"Vier":7924,"ĠLeeuw":7925,"Ġorientatie":7926,"Ġofficiele":7927,"igm":7928,"ĠCE":7929,"aanvull":7930,"retro":7931,"ĠEx":7932,"ĠGeheel":7933,"lavicula":7934,"Ġbijbehorende":7935,"014":7936,"Ġpartieel":7937,"Zelf":7938,"ĠAanwijzingen":7939,"Ġkleuren":7940,"Heden":7941,"THORAX":7942,"Ġbena":7943,"Materiaal":7944,"illing":7945,"Ġradiologen":7946,"Ġ1990":7947,"ĠNB":7948,"Ġexacte":7949,"Ġlytische":7950,"olie":7951,"Ġlevert":7952,"tractie":7953,"RVO":7954,"ĠOpvallende":7955,"umark":7956,"Ġverlop":7957,"Uitgebreid":7958,"Ġlaterocentraal":7959,"upe":7960,"wik":7961,"ĠSegm":7962,"69":7963,"TS":7964,"ilaire":7965,"Ġlif":7966,"Ġstrengetje":7967,"028":7968,"ĠForse":7969,"Lateraalboven":7970,"Ġscintigram":7971,"ps":7972,"enties":7973,"ĠAankleurende":7974,"Ġconus":7975,"Ġzkh":7976,"ĠDulken":7977,"ĠMammografieMammacarcinoom":7978,"ĠOvereenkomstig":7979,"Ġhobbelig":7980,"Ġkern":7981,"ĠIvm":7982,"Ġlobulaircarcinoom":7983,"Ġecholucente":7984,"Ġontbreekt":7985,"Ġuiterst":7986,"Ġinterpectoraal":7987,"ijkt":7988,"ĠVisser":7989,"Ġbevinding":7990,"Ġuitlopertjes":7991,"033":7992,"047":7993,"Ġposition":7994,"Ġstaan":7995,"024":7996,"hoogde":7997,"sa":7998,"Ġdystrofisch":7999,"Ġafgegeven":8000,"1950":8001,"Ġ1991":8002,"deu":8003,"versum":8004,"ranod":8005,"illaire":8006,"124":8007,"075":8008,"eroen":8009,"Ġwond":8010,"Ġklierrest":8011,"Ġmeetbare":8012,"cide":8013,"Ġmoeten":8014,"Ġmediaan":8015,"Totale":8016,"atheter":8017,"Ġcurve":8018,"Ġmy":8019,"Ġgestopt":8020,"Ġkliermetastase":8021,"Ġmijns":8022,"Ġsyn":8023,"ystem":8024,"merking":8025,"Ġstadium":8026,"Ġtransversaal":8027,"ilversum":8028,"Ġanderhalve":8029,"cyt":8030,"Ġnanocollond":8031,"ĠDestijds":8032,"Ġ(>":8033,"Ġhormoontherapie":8034,"ereerde":8035,"Ġmammogrammen":8036,"ĠDifferentiaal":8037,"Ġhogerop":8038,"Ġstaaf":8039,"Ġtractie":8040,"Ġtrage":8041,"releerd":8042,"Ġafgel":8043,"Ġlongn":8044,"ranodale":8045,"idle":8046,"Ġlaterodorsaal":8047,"Ġgranul":8048,"Opnieuw":8049,"043":8050,"Ġvetkwabje":8051,"ves":8052,"abdomen":8053,"ĠCD":8054,"ectatief":8055,"Rondom":8056,"ĠTwistmarker":8057,"149":8058,"Ġhaak":8059,"Ġsystem":8060,"male":8061,"familiaire":8062,"077":8063,"echoisch":8064,"Ġnetto":8065,"gegaan":8066,"Ġhigh":8067,"Ġpan":8068,"Ġgerangschikte":8069,"Ġfraa":8070,"ĠDystrofe":8071,"Peri":8072,"Toename":8073,"asc":8074,"zep":8075,"Ġbronnen":8076,"Microcalcificaties":8077,"029":8078,"hankelijk":8079,"level":8080,"egens":8081,"agnostisch":8082,"Ġinzicht":8083,"ĠZwartDr":8084,"Ġbeloop":8085,"onge":8086,"RO":8087,"ĠTussen":8088,"Ġ-----------":8089,"ĠVerdachte":8090,"1999":8091,"uggestief":8092,"ĠWessels":8093,"ĠAsymmetrie":8094,"ĠRechter":8095,"Ġextranodale":8096,"Pap":8097,"LR":8098,"orreleerd":8099,"ĠPlaats":8100,"manGeboortedatum":8101,"ijnen":8102,"Ġcoronale":8103,"Ġgenoemde":8104,"Ġvd":8105,"vestiging":8106,"ĠRepresentatief":8107,"Ġbovenbuiksorganen":8108,"Ġcalc":8109,"sluiten":8110,"Ġindexlaesie":8111,"Ġverbreed":8112,"Ġverminderde":8113,"ĠLeeuwarden":8114,",,":8115,"Onveranderde":8116,"ĠUitslag":8117,"Ġcorresponderen":8118,"iken":8119,"Ġverslagen":8120,"Ġgevoelige":8121,"Ġmacroscop":8122,"ĠLokalisatie":8123,"Ġvoren":8124,"Symmetrische":8125,"Ġlymfogene":8126,"Ġtepelretractie":8127,"Ġliponecrose":8128,"inkje":8129,"Jodiumzaadje":8130,"Ġbeginnend":8131,"mv":8132,"Ġbobbel":8133,"Ġrij":8134,"ĠTwente":8135,"ĠLichte":8136,"Ġbovenkwadranten":8137,"supervisie":8138,"ĠVerslagOp":8139,"Segmenteel":8140,"zepam":8141,"volutiebeeld":8142,"ĠOmvang":8143,"Maligne":8144,"Ġband":8145,"Ġkuur":8146,"Pijnlijke":8147,"Ġbet":8148,"ĠFNA":8149,"Mammaprothese":8150,"Ġjaarlijks":8151,"ablatie":8152,"EO":8153,"Driemaal":8154,"Ġintrapulmonale":8155,"Ġonderge":8156,"ĠQ":8157,"Ġhorizontale":8158,"Ġintracyste":8159,"fries":8160,"tenminste":8161,"Ġoperatieve":8162,"ĠPlanaire":8163,"Ġopgeleide":8164,"Aanwijzingen":8165,"Ġvisualiseren":8166,"ĠPijnklachten":8167,"Ġoorspronkelijke":8168,"Simpele":8169,"omediale":8170,"Ġechobeelden":8171,"ĠVet":8172,"Ġontwik":8173,"Ġverkleining":8174,"Ġlymfebaantje":8175,"211":8176,"uil":8177,"Ġ`":8178,"init":8179,"Ġeigenlijk":8180,"ĠRuim":8181,"044":8182,"chting":8183,"ĠHBOC":8184,"rkeerd":8185,"dorsaal":8186,"1973":8187,"Ġbult":8188,"ĠPlaatsen":8189,"meten":8190,"Ġgroepen":8191,"ĠuitsnijkamerEcho":8192,"Ġeenmaal":8193,"Ġang":8194,"Ġsuggestief":8195,"wijze":8196,"dus":8197,"ĠHomogene":8198,"Ġimage":8199,"Ġtop":8200,"ĠVTS":8201,"Ġaankleuringscur":8202,"ĠMedische":8203,"Klierweefsel":8204,"Ġproble":8205,"cutaan":8206,"intra":8207,"achterwaar":8208,"Ã¼":8209,"Ġgeprojecteerd":8210,"IDC":8211,"Ġkl":8212,"Stereotaxie":8213,"Persisterend":8214,"positieve":8215,"Ġtissue":8216,"Ġpostop":8217,"belaste":8218,"...":8219,"023":8220,"Ġbenaderd":8221,"ĠÂ·":8222,"achten":8223,"Ġelast":8224,"Aankleuring":8225,"Tepel":8226,"ĠLoodkorrelmarkering":8227,"Ġbeenmer":8228,"Ġdiagnosi":8229,"Ġtaai":8230,"Ġborstkanker":8231,"Ġvolgen":8232,"Vraag":8233,"depositie":8234,"Ġdmv":8235,"ĠStadiÃ«ring":8236,"ĠgeoriÃ«nteerd":8237,"pje":8238,"engevolge":8239,"Ġdientengevolge":8240,"Ġlop":8241,"Ġvoorkeur":8242,"deels":8243,"Ġbla":8244,"Ġradiologische":8245,"ĠMetastase":8246,"Ġhyperechogene":8247,"Ġcilinder":8248,"gevorderde":8249,"084":8250,"Ġverkorte":8251,"Gelob":8252,"tse":8253,"Ġcystetjes":8254,"Ġimmuno":8255,"eerbare":8256,"ation":8257,"reconstructie":8258,"Ġonderste":8259,"MRISC":8260,"Ġinzichten":8261,"ua":8262,"ĠÃ":8263,"Ġgezamenlijk":8264,"ĠSchot":8265,"Ov":8266,"zet":8267,"slagplooi":8268,"cysteus":8269,"Ġvaatwandverkalkingen":8270,"Ġchronische":8271,"Ġorig":8272,"lijm":8273,"Patidnt":8274,"Ġdeclips":8275,"Ġmammaria":8276,"opathische":8277,"ĠNauwe":8278,"130":8279,"Redelijke":8280,"ĠBinnen":8281,"Ġbilaterale":8282,"Ġcentro":8283,"overeenkom":8284,"Ġwaaronder":8285,"eerst":8286,"ĠHieromheen":8287,"beg":8288,"Ã¼m":8289,"gt":8290,"Ġbestaand":8291,"Ġnormalisatie":8292,"Ġgeleidelijk":8293,"Ġvertelt":8294,"Ġafwezig":8295,"Ġnabijheid":8296,"ĠAmphia":8297,"Ġdoorkleurend":8298,"ĠDrietal":8299,"074":8300,"Ġ1992":8301,"Asymmetrisch":8302,"Ġgereviseerd":8303,"ĠIrregulair":8304,"deze":8305,"Ġevenmin":8306,"ĠTechn":8307,"ĠLR":8308,"Ġmedio":8309,"houdend":8310,"Ġkans":8311,"verbreding":8312,"gum":8313,"Ġlipof":8314,"ĠKem":8315,"Ġpectorale":8316,"Ã¯ne":8317,"teerde":8318,"Ġvergrotingsopnamen":8319,"Ġbemoeilijk":8320,"Ġconfluerend":8321,"Ġnaev":8322,"Duidelijk":8323,"onveranderd":8324,"tomosynthese":8325,"ĠUrkDr":8326,"Ġgevorm":8327,"lees":8328,"HL":8329,"ĠWaterland":8330,"Ġmusculatuur":8331,"ĠNauwelijks":8332,"Ġsvp":8333,"Verdere":8334,"ĠAldaar":8335,"bleek":8336,"Ġlosse":8337,"hr":8338,"ront":8339,"scho":8340,"Ġwaarde":8341,"ced":8342,"Ġoverliggend":8343,"Ġ--------------------":8344,"Ġstro":8345,"draad":8346,"ĠMbq":8347,"008":8348,"handeling":8349,"geneeskundige":8350,"ĠvacuÃ¼m":8351,"ĠSecur":8352,"reeg":8353,"064":8354,"Ġ-.":8355,"centr":8356,"Ġcentrolateraal":8357,"Ġhof":8358,"Ġargum":8359,"epje":8360,"Helaas":8361,"ĠHerhalen":8362,"Nauwelijks":8363,"ISCH":8364,"kkelijk":8365,"Ġreele":8366,"ĠLaag":8367,"Ġweggebiopteerd":8368,"ĠOmdat":8369,"Ġ+/-":8370,"Spiraalvormige":8371,"raniale":8372,"ĠSentinelnode":8373,"Ġverkleuring":8374,"Ġlatero":8375,"Ġ55":8376,"grensd":8377,"lastisch":8378,"Ġgroeiwijze":8379,"Ġvolgende":8380,"ĠPouw":8381,"ĠonderzoekF":8382,"Hierin":8383,"ĠSnijvlak":8384,"ho":8385,"schildklier":8386,"Als":8387,"ĠVier":8388,"snel":8389,"isN":8390,"Overige":8391,"ddorp":8392,"oofddorp":8393,"Ġlipofilling":8394,"oit":8395,"ĠWaar":8396,"Ġinflammatoir":8397,"Ġbob":8398,"ĠLymfklier":8399,"kkingen":8400,"Recent":8401,"Ġdichter":8402,"ĠUrkJ":8403,"ĠSpiraalvormige":8404,"Ġvoorken":8405,"Ġechogene":8406,"Ġvoorkennis":8407,"Ġmediastinale":8408,"ĠDriemaal":8409,"ĠTRA":8410,"1974":8411,"kapsel":8412,"ĠIngetrokken":8413,"1944":8414,"meerdere":8415,"Ġechorijkere":8416,"Ġmorfologische":8417,"ogeleide":8418,"Ġdetailopname":8419,"Ġondergetekende":8420,"72":8421,"IOPT":8422,"ĠDijk":8423,"ĠCh":8424,"045":8425,"Ġrandje":8426,"Ġnucleairgeneeskundige":8427,"Ġoogt":8428,"Ġtumordepositie":8429,"ĠInvasief":8430,"veneuze":8431,"Ġlymfangio":8432,"Solide":8433,"ĠNadien":8434,"astig":8435,"Ġaltijd":8436,"aalde":8437,"loe":8438,"pitheel":8439,"Ġgenoemd":8440,"Ġsnij":8441,"Biopsie":8442,"ĠvariÃ«rend":8443,"drie":8444,"ĠPlan":8445,"056":8446,"Ġquadrant":8447,"alen":8448,"igszins":8449,"Ġdissectie":8450,"Ġposterieure":8451,"ĠMultifocale":8452,"Ġretrospectief":8453,"ĠTamoxifen":8454,"Ġzwellingen":8455,"WK":8456,"hematoom":8457,"Ġmultinodulaire":8458,"houd":8459,"ĠcontroleVerslag":8460,"ĠKemper":8461,"Ġkreeg":8462,"103":8463,"Spaarne":8464,"Ġgeschikt":8465,"Ġgelijk":8466,"rimair":8467,"ĠNHL":8468,"1975":8469,"ĠDoorverwezen":8470,"Ġingescand":8471,"onker":8472,"Lymfeklier":8473,"cip":8474,"Ġargumenten":8475,"Ġsubtractie":8476,"Ġvolst":8477,"ugger":8478,"Ġsamenhangen":8479,"Ġmammila":8480,"segm":8481,"Abl":8482,"epat":8483,"115":8484,"Ġgerust":8485,"ĠAanvulling":8486,"Ġvoelbaar":8487,"cp":8488,"lang":8489,"Axillaire":8490,"Ġmediaalonder":8491,"MA":8492,"juist":8493,"Ġprominenter":8494,"cideerd":8495,"pap":8496,"ConclusieNon":8497,"effect":8498,"hoe":8499,"Ġhoewel":8500,"Ġilium":8501,"Ġbuikligging":8502,"Ġpositionering":8503,"Huidexcisie":8504,"baan":8505,"ĠAanvankelijk":8506,"Ġbehandel":8507,"thoraxwand":8508,"Screenend":8509,"Ġonderzijde":8510,"Verdachte":8511,"igmoid":8512,"ala":8513,"Ġrecon":8514,"Ġsat":8515,"bestraling":8516,"reeds":8517,"ulaties":8518,"Licht":8519,"oms":8520,"067":8521,"Ġrestaankleuring":8522,"Ġafwezige":8523,"MRIsc":8524,"lexander":8525,"ĠAmstel":8526,"asculaire":8527,"Ġfebr":8528,"Ġgroeiend":8529,"pulmonaal":8530,"ĠGraaf":8531,"ĠGedacht":8532,"ĠMAMMO":8533,"Ġje":8534,"rukt":8535,"Ġsensitiviteit":8536,"echografie":8537,"ĠML":8538,"Ġmediaalboven":8539,"Unilateraal":8540,"ĠSoykanDr":8541,"Ġsepta":8542,"Ġlies":8543,"Ġversterking":8544,"gestelde":8545,"Ġnam":8546,"esectie":8547,"etsel":8548,"osarcoom":8549,"Ġ44":8550,"Ġspots":8551,"Ġhaardvormige":8552,"ĠChirurgie":8553,"Ġverticale":8554,"20503":8555,"stadiÃ«ring":8556,"ĠOs":8557,"ĠVerslagPro":8558,"ĠAmstelveen":8559,"ĠWestfries":8560,"ĠLocatie":8561,"istof":8562,"ĠInfraclaviculair":8563,"bere":8564,"Ġbloedglucose":8565,"ĠdraagsterIndicatie":8566,"ĠÃł":8567,"kingen":8568,"zonden":8569,"Ġclavicula":8570,"ĠBevindingen":8571,"Ġondergaan":8572,"Ġsecund":8573,"Ġbereikt":8574,"Twistmarker":8575,"Ġschorsbreedte":8576,"Ġseconde":8577,"Ġ39":8578,"123":8579,"stations":8580,"ĠPar":8581,"ĠAsp":8582,"tectie":8583,"ĠHilversum":8584,"oregionaal":8585,"Ġdiscrete":8586,"Ġuitvoerige":8587,"Ġpet":8588,"Ġapocriene":8589,"oedeem":8590,"soort":8591,"ĠAb":8592,"conessenhuis":8593,"leesbaar":8594,"iekenhuizen":8595,"VP":8596,"dosering":8597,"Ġintraveneuze":8598,"kant":8599,"leop":8600,"cemaker":8601,"ĠBre":8602,"ĠLijkt":8603,"Ġ203":8604,"Ġtoedieningsp":8605,"Ġgekozen":8606,"ĠVerslaglegging":8607,"Cor":8608,"ekenis":8609,"segment":8610,"Ġverlopend":8611,"agering":8612,"ĠZo":8613,"ĠReactief":8614,"Ġmastopathische":8615,"Ġlactatie":8616,"kle":8617,"erdam":8618,"Ġcystische":8619,"Ġendopro":8620,"leopatra":8621,"Juist":8622,"ijst":8623,"Ġmaker":8624,"ĠWitte":8625,"controleVerslag":8626,"Ġspiculaire":8627,"link":8628,"049":8629,"Ġomslagplooi":8630,"Positieve":8631,"itieel":8632,"Ġskinsparing":8633,"Ġdrs":8634,"mming":8635,"ĠBlijkt":8636,"083":8637,"Ġextrac":8638,"ĠStabiel":8639,"ĠHoger":8640,"Ġarchitectuurveranderingen":8641,"artiele":8642,"ĠAsymmetrisch":8643,"ĠDec":8644,"Ġnav":8645,"Ġinterpreteerbaar":8646,"Ġnettodosering":8647,"plan":8648,"waarde":8649,"Ġjonge":8650,"aakt":8651,"Ġlager":8652,"Ġexpectatief":8653,"liecyste":8654,"peritone":8655,"ĠMSTIndicatie":8656,"Markering":8657,"AL":8658,"ĠFibrose":8659,"Ġslechte":8660,"ĠFamilie":8661,"048":8662,"116":8663,"Ġbenige":8664,"Ġaangemerkt":8665,"Ġrisk":8666,"Ġconventionele":8667,"zol":8668,"ay":8669,"Ġwaarbinnen":8670,"Ġresiduele":8671,"Ġ%":8672,"Ġmap":8673,"ĠVries":8674,"Ġintern":8675,"tacte":8676,"ux":8677,"ĠdÃ©":8678,"Ġroll":8679,"amera":8680,"ĠdÃ©bris":8681,"eut":8682,"Ġbez":8683,"IX":8684,"verschil":8685,"olec":8686,"resp":8687,"Ġpos":8688,"aduwen":8689,"Grove":8690,"Familiaire":8691,"ysten":8692,"ĠRustig":8693,"prikken":8694,"Ġ--------------":8695,"Asymmetrische":8696,"Med":8697,"kkend":8698,"oduli":8699,"verlies":8700,"ruis":8701,"Ġfibrotische":8702,"armer":8703,"1976":8704,"Ġdwarse":8705,"mj":8706,"Ġmammaprothesen":8707,"Ġpreparaat":8708,"spanning":8709,"kere":8710,"Ġmastop":8711,"Ġ---------------":8712,"lichtingen":8713,"Cytologie":8714,"ef":8715,"Ġ43":8716,"Ġarteriele":8717,"BQ":8718,"reactie":8719,"econ":8720,"Ġeiwitrijke":8721,"achterwaartse":8722,"tten":8723,"ĠMax":8724,"Rest":8725,"009":8726,"Ġdifferentiaal":8727,"dB":8728,"jarige":8729,"patiÃ«nte":8730,"Ġ099":8731,"cleros":8732,"Ġdubbelzijdige":8733,"voluerend":8734,"Ġhiernaast":8735,"olledige":8736,"Ġvallen":8737,"Ġopmer":8738,"ĠVerandering":8739,"105":8740,"houden":8741,"ĠNS":8742,"Ġschaduwtje":8743,"kijken":8744,"Ġverbrede":8745,"Alle":8746,"Ġgeopereerde":8747,"ĠCrani":8748,"Herhaling":8749,"laar":8750,"aalf":8751,"ĠOnt":8752,"Ġ70":8753,"Mevrouw":8754,"Retromammair":8755,"Ġonduidelijke":8756,"Ġdeformatie":8757,"Ġbetekenis":8758,"onderkwab":8759,"Ġverbonden":8760,"Grootste":8761,"109":8762,"ĠMoeder":8763,"Ġsubclav":8764,"Ġatypisch":8765,"camera":8766,"Ġopbouw":8767,"ĠlinksTer":8768,"weg":8769,"MRIsk":8770,"Vanuit":8771,"LdB":8772,"ĠNaast":8773,"ĠIntramammair":8774,"Ġac":8775,"eiden":8776,"Ġsatel":8777,"Ġvoorzien":8778,"Ġexcisiebiopt":8779,"raat":8780,"Ġgeex":8781,"Reden":8782,"ibux":8783,"1998":8784,"ĠDoorgestuurd":8785,"ĠMarijke":8786,"ĠNabibux":8787,"117":8788,"Ġkanaal":8789,"Ġextern":8790,"linge":8791,"atting":8792,"Ġwijde":8793,"ĠBeper":8794,"Ġstans":8795,"TING":8796,"Ġpolymorfe":8797,"Ġgeprononceerde":8798,"ĠContral":8799,"Grootte":8800,"ĠFaMRIsk":8801,"Ġvertakk":8802,"idiver":8803,"Ġscreen":8804,"Ġkliervergroting":8805,"ĠNo":8806,"Ġ98":8807,"ĠGeschatte":8808,"isico":8809,"Ġcoronaal":8810,"cellig":8811,"Ġprecies":8812,"Ġvlekkige":8813,"odem":8814,"Ġzittende":8815,"stumor":8816,"Ġmaakt":8817,"ĠHel":8818,"ĠEl":8819,"Ġdetectie":8820,"dicteerd":8821,"GRO":8822,"Ġonderrand":8823,"ĠOpname":8824,"bereiding":8825,"GROTING":8826,"Correcte":8827,"ĠBaas":8828,"Ġfist":8829,"ConclusieLokalisatie":8830,"Ġlopen":8831,"Ġhierna":8832,"079":8833,"Mast":8834,"westie":8835,"Ġgesproken":8836,"ĠDen":8837,"ĠBijkomend":8838,"Snel":8839,"endetected":8840,"creendetected":8841,"ebruari":8842,"Ġsegmentaire":8843,"ĠBesloten":8844,"Ġoper":8845,"Represent":8846,"Ġmicrocysteuze":8847,"hep":8848,"150":8849,"deuking":8850,"namnestisch":8851,"Ġervaart":8852,"108":8853,"hist":8854,"asale":8855,"kkoord":8856,"ĠIJ":8857,"sco":8858,"lereerst":8859,"tr":8860,"ĠSte":8861,"Ġcontact":8862,"riesco":8863,"Ġindeuking":8864,"Ġontstekings":8865,"ijven":8866,"Ġevalu":8867,"Ġatypie":8868,"Ġgelig":8869,"ĠMIP":8870,"Ġ2100":8871,"Ġscherpbegrensde":8872,"ĠNuchter":8873,"echoÃ¯":8874,"ĠHielNucleaire":8875,"werking":8876,"Ġdrukpijnlijk":8877,"019":8878,"Ġvervloe":8879,"ĠTE":8880,"Ġphyllode":8881,"stributie":8882,"evolkingsonderzoek":8883,"ĠTweemaal":8884,"idt":8885,"Ġvertakkende":8886,"band":8887,"Ġvergevorderde":8888,"Ġcervix":8889,"Ġreproduceren":8890,"ĠDuidelijke":8891,"laten":8892,"venter":8893,"ĠVre":8894,"Ġgrond":8895,"deelbaarheid":8896,"Ġdetected":8897,"Benadering":8898,"ĠgegevensDCIS":8899,"ĠBruiningA":8900,"ĠWitteveen":8901,"Ġmil":8902,"Naaldbiopten":8903,"ĠOost":8904,"econstru":8905,"Ġverplaatst":8906,"Ġbevond":8907,"ites":8908,"Inflow":8909,"Ġaankleuringscurve":8910,"Ġtoedieningsplaats":8911,"Ġwens":8912,"Ġdistributie":8913,"209":8914,"kwestie":8915,"Ġcorreleren":8916,"Ġdensere":8917,"Ġrechterlong":8918,"ccesso":8919,"ĠSterke":8920,"OP":8921,"rijgt":8922,"riescoupe":8923,"anal":8924,"Ġziet":8925,"Ġverspreiding":8926,"aarlijks":8927,"ĠVerk":8928,"ĠRijn":8929,"ĠVUMC":8930,"107":8931,"arnars":8932,"Ġachtige":8933,"Ġaanprikken":8934,"Ġcore":8935,"type":8936,"Ġvloeistof":8937,"component":8938,"ĠBilateraal":8939,"Ġrecept":8940,"1943":8941,"svp":8942,"Ġpulm":8943,"Ġsere":8944,"Ġretroperitone":8945,"Ġomvangsafname":8946,"Overname":8947,"Ġonrustig":8948,"Ġkliniek":8949,"039":8950,"marge":8951,"Ġdynamiek":8952,"Ġbeenmerg":8953,"zending":8954,"centratie":8955,"endens":8956,"Intacte":8957,"screeningMammografie":8958,"Procedure":8959,"Ġbruinvet":8960,"acrum":8961,"Ġwezen":8962,"Ġnodule":8963,"ĠMarkering":8964,"ena":8965,"Deels":8966,"Ġverwijdering":8967,"zekerheid":8968,"Ġcar":8969,"Infra":8970,"Ġglobale":8971,"TA":8972,"Ġstaafvormige":8973,"ĠWordt":8974,"Ġern":8975,"Ġgereconstru":8976,"Ġschorsverdikking":8977,"Ġsubclavia":8978,"ĠSep":8979,"ĠddAC":8980,"sagittaal":8981,"elijst":8982,"metrische":8983,"Ġvelden":8984,"ĠScreenend":8985,"ĠOpnieuw":8986,"Ġrugligging":8987,"linging":8988,"uitslag":8989,"Ġbemoeilijkt":8990,"rikt":8991,"Ġbeste":8992,"ijnde":8993,"Ġterugkijken":8994,"Warnars":8995,"Ġruis":8996,"ĠfaMRIsc":8997,"Ġ57":8998,"Ġverrichte":8999,"Ġdunwandige":9000,"Ġgekeken":9001,"Ġonderdeel":9002,"grenzen":9003,"middag":9004,"212":9005,"verdachte":9006,"Ġbovenarm":9007,"ĠHege":9008,"volueerde":9009,"ignaal":9010,"Diffusie":9011,"Stabiel":9012,"ĠHegeman":9013,"Ġlatere":9014,"anje":9015,"ĠAxillaire":9016,"Ġtwaalf":9017,"ĠGezamen":9018,"Ġdoorge":9019,"ucces":9020,"ĠAlm":9021,"mond":9022,"ĠLUMC":9023,"Ġintracut":9024,"Ġletsel":9025,"gevoel":9026,"Ġdriehoek":9027,"61":9028,"enn":9029,"dering":9030,"Ġsecur":9031,"Ġwrs":9032,"iteen":9033,"PM":9034,"057":9035,"Ġec":9036,"ĠEchografische":9037,"ooien":9038,"ĠHooguit":9039,"Ġkrapste":9040,"ECHOGRAFIE":9041,"Onduidelijk":9042,"Ġbotmetastasen":9043,"Zuiver":9044,"ĠupIndicatie":9045,"Ġhyperintense":9046,"Ġgennvolueerd":9047,"oorde":9048,"Ġlokalisatiedraad":9049,"geleverd":9050,"Ġnevenbevinding":9051,"Ġexpander":9052,"Ġpatroon":9053,"acale":9054,"Ġnamens":9055,"Ġpat":9056,"onger":9057,"apeut":9058,"Ġdensiteitjes":9059,"Ġbioptie":9060,"Ġsuperpositiebeeld":9061,"vrije":9062,"Ġgepalpeerde":9063,"Ġcort":9064,"Ġscherpe":9065,"ervicale":9066,"lande":9067,"Ġlanggerekt":9068,"scande":9069,"Ġstrengvormige":9070,"Ġmammap":9071,"Ġcystetje":9072,"Ġhot":9073,"Ġhepat":9074,"ĠHIX":9075,"EU":9076,"omm":9077,"Ġfijnere":9078,"Ġaangrenzend":9079,"mab":9080,"meest":9081,"ĠLOK":9082,"Prothese":9083,"ĠTRAIN":9084,"uvel":9085,"ĠKl":9086,"fra":9087,"rib":9088,"Ġonderpool":9089,"Ġcraniocaudaal":9090,"Chirurg":9091,"oet":9092,"sentinel":9093,"ĠRespons":9094,"Ġstuk":9095,"ĠUitgangs":9096,"Ġhaardjes":9097,"zumab":9098,"-)":9099,"ĠTwist":9100,"Ġverpleegkundig":9101,"Ġpancre":9102,"vermoedelijk":9103,"Ġulcer":9104,"ĠPiek":9105,"protocol":9106,"Hiervan":9107,"Ġprojectiekwestie":9108,"maligne":9109,"62":9110,"PUNCTIE":9111,"Bl":9112,"ontspanning":9113,"upVerslag":9114,"Ġovoide":9115,"ĠDollRadioloogP":9116,"ĠMammae":9117,"Besch":9118,"Ġspierontspanning":9119,"Opvallende":9120,"ĠParra":9121,"Ġstase":9122,"Ġ41":9123,"metastasering":9124,"grootste":9125,"inn":9126,"ĠPara":9127,"Ġontdekte":9128,"Ġextracapsulaire":9129,"aga":9130,"lopig":9131,"Ġgevormde":9132,"echter":9133,"Ġtromb":9134,"dra":9135,"erie":9136,"ĠLinksaxillair":9137,"ĠSS":9138,"Ġgebe":9139,"Ġbevallen":9140,"esda":9141,"003":9142,"ELL":9143,"ethesda":9144,"verkleuring":9145,"Ġmutatiedraagster":9146,"Ġlesies":9147,"vergelijk":9148,"Ġseroomholte":9149,"braak":9150,"ĠrechtsGeen":9151,"Ġtumorweefsel":9152,"Ġstervormig":9153,"gekomen":9154,"Ġ80":9155,"Ġcompon":9156,"Ġvergrotingsopnames":9157,"inhoud":9158,"rom":9159,"Ġmicrometastase":9160,"ĠINFO":9161,"iegel":9162,"186":9163,"Later":9164,"Ġcomponente":9165,"Jodiummarker":9166,"opie":9167,"ĠVerslagSt":9168,"lg":9169,"Ġplaatjes":9170,"maximaal":9171,"unt":9172,"ocus":9173,"Ġgediagnostiseerd":9174,"amin":9175,"ĠIrregulaire":9176,"Ingetrokken":9177,"Operatieclips":9178,"Ġcontrastfase":9179,"20500":9180,"inzending":9181,"Ġsateliet":9182,"Ġtime":9183,"cytologie":9184,"Ġverificatie":9185,"063":9186,"houdendheid":9187,"oring":9188,"thans":9189,"Ġbeslaand":9190,"Minder":9191,"ĠMammografieMammografie":9192,"Ġ1989":9193,"Ġsterni":9194,"Ġsereus":9195,"078":9196,"Ġhobbelige":9197,"213":9198,"pe":9199,"Ġoperatielitteken":9200,"Ġliggend":9201,"Ġarterie":9202,"ĠVerdi":9203,"Ġbetrekking":9204,"aardig":9205,"ĠHaag":9206,"Ġfavorable":9207,"Ġbevestigen":9208,"Ġweerhouden":9209,"Stabiele":9210,"Opvallend":9211,"neg":9212,"Ġthoracaal":9213,"Ġsoms":9214,"ĠUiteindelijk":9215,"Ġonrust":9216,"Ġ97":9217,"Ġsamengevallen":9218,"Ġmaligniteitsgraad":9219,"osterieur":9220,"Ġschil":9221,"Toegenomen":9222,"ĠSchildwachtklier":9223,"Ġred":9224,"aseerd":9225,"Ġokselkliermetastase":9226,"Ġaanvang":9227,"ĠAndere":9228,"las":9229,"ĠSint":9230,"073":9231,"raclav":9232,"Ġactivatie":9233,"inier":9234,"Ġbo":9235,"Ġfem":9236,"Ġschorsverbreding":9237,"Preventieve":9238,"ĠgeÃ«":9239,"Ġong":9240,"ynac":9241,"leggen":9242,"vlies":9243,"cintigrafische":9244,"Ġsolitair":9245,"ĠQua":9246,"ĠIntratumorale":9247,"stereotactisch":9248,"Ġkorrelig":9249,"potcompressie":9250,"Ġnadele":9251,"teb":9252,"ĠGeduid":9253,"gradige":9254,"Ġopnamelijst":9255,"Ġgeoridn":9256,"Ġspotcompressieopname":9257,"halsgebied":9258,"non":9259,"ĠJong":9260,"innemend":9261,"Ġzus":9262,"rale":9263,"volledig":9264,"chtingen":9265,"rekkend":9266,"ka":9267,"entele":9268,"Ġokselkliermetastasen":9269,"1945":9270,"Ġdikker":9271,"Zo":9272,"ĠZwartRadioloogDr":9273,"Ġinframammair":9274,"ademde":9275,"ĠVerslagProbe":9276,"Ġaccesso":9277,"Ġbetere":9278,"Vet":9279,"Ġzorgen":9280,"Ġperfusie":9281,"lijmvlies":9282,"Ġendoprothese":9283,"Ġkatheter":9284,"lassificatie":9285,"ĠNij":9286,"orderline":9287,"ĠHerhaling":9288,"Ġssa":9289,"Ġretroperitoneaal":9290,"Ġconcentratie":9291,"entectomie":9292,"ervicaal":9293,"ĠBraakTypist":9294,"EOTA":9295,"wezig":9296,"Maximale":9297,"microcalcificaties":9298,"pril":9299,"Ġechorijker":9300,"ally":9301,"Om":9302,"ĠSTER":9303,"Ġvoorliggende":9304,"Ongeveer":9305,"Terugkijkend":9306,"Bevestiging":9307,"begeleide":9308,"Ġresten":9309,"ito":9310,"Ġextirpatie":9311,"Vergelijking":9312,"ĠAdenocarcinoom":9313,"Ġpalpato":9314,"Ġmakkelijk":9315,"Ġmacrometastase":9316,"buiten":9317,"ude":9318,"Ġspaar":9319,"hepatische":9320,"Ġreexcisie":9321,"ĠDE":9322,"ĠLever":9323,"Ġbeschaduw":9324,"cutane":9325,"Ġendoc":9326,"Beperkt":9327,"GE":9328,"ĠStabiele":9329,"Ġcilindercel":9330,"ynacad":9331,"oos":9332,"Ġinkt":9333,"Ġuiteen":9334,"ĠHof":9335,"068":9336,"Ġsacrum":9337,"esoph":9338,"Ġmicroscop":9339,"ĠPurmerend":9340,"vulling":9341,"Ġdiameters":9342,"ĠCorrelatie":9343,"ĠVersleijenNucleaire":9344,"ĠLidocaÃ¯ne":9345,"Ġluchthoudendheid":9346,"Ġgeprikt":9347,"alic":9348,"Ġclinging":9349,"ĠDiep":9350,"Ġepider":9351,"derse":9352,"stelland":9353,"1996":9354,"Ġcom":9355,"Ġflink":9356,"mamillaire":9357,"Dubieuze":9358,"otis":9359,"Ġschedel":9360,"Ġplat":9361,"ĠBeoordeling":9362,"Ġovariectomie":9363,"aarlem":9364,"Ġbeschrijving":9365,"ĠSTEREOTA":9366,"valt":9367,"ĠIntacte":9368,"uin":9369,"ĠMammaprothese":9370,"Ġ).":9371,"Ġdel":9372,"DZ":9373,"Ġgoud":9374,"20501":9375,"Ġhormoon":9376,"Ġidentificeren":9377,"Ġwanneer":9378,"Ġcentimeters":9379,"ĠTenminste":9380,"ularis":9381,"Ġja":9382,"Ġmassieve":9383,"entengevolge":9384,"Wil":9385,"Ġopgev":9386,"Ġhooggradig":9387,"Grotendeels":9388,"ĠMbqKlinische":9389,"ĠProgressie":9390,"ellate":9391,"Ġveranderde":9392,"Ġsequenties":9393,"Ġklass":9394,"Ġlucente":9395,"Ġslank":9396,"Ġuitlopertje":9397,"ecifiek":9398,"Minimaal":9399,"ochem":9400,"raald":9401,"Chirurgie":9402,"Litteken":9403,"Ġsubstr":9404,"ĠHegemanRadioloog":9405,"Ġsubstraten":9406,"Naaldbiopt":9407,"cluster":9408,"Ġ-------------":9409,"Ġrectum":9410,"Ġafgegrensd":9411,"ĠNoord":9412,"Ġleverparenchym":9413,"Ġvoorafgegaan":9414,"vlek":9415,"ĠLangste":9416,"ĠDiazepam":9417,"Ġnaevus":9418,"analys":9419,"Ġzoek":9420,"Ġbloe":9421,"erman":9422,"Ġlymfbaan":9423,"ignale":9424,"Ġgebaseerd":9425,"LooTypist":9426,"ĠMarianne":9427,"Ġsystemische":9428,"Ġpancreas":9429,"sartefact":9430,"ĠHyp":9431,"ember":9432,"Ġintracysteus":9433,"achtige":9434,"UD":9435,"Ġvorming":9436,"infraclaviculair":9437,"Ġkwam":9438,"Ġafzonderlijke":9439,"index":9440,"Ġproximale":9441,"Ġcurves":9442,"Vraagstellinggaarne":9443,"OS":9444,"ĠHoofddorp":9445,"Ġtemp":9446,"Ġmicrocysten":9447,"diagnostisch":9448,"Ġbewogen":9449,"Ġcollegae":9450,"Ġperitumorale":9451,"staand":9452,"Ġcup":9453,"Ġziekenhuizen":9454,"astinaal":9455,"ĠMartini":9456,"Vermoedelijk":9457,"ĠCleopatra":9458,"Ġgesignale":9459,"Ġdoet":9460,"Ġbeschaduwing":9461,"analyseerd":9462,"kv":9463,"verband":9464,"ĠMARI":9465,"Ġbrca":9466,"Ġgeob":9467,"ĠMET":9468,"minderd":9469,"ĠoriÃ«n":9470,"lakte":9471,"ĠsneldiagnostiekBevindingen":9472,"preoperatief":9473,"1942":9474,"ĠÂ±":9475,"Ġoverzicht":9476,"Ġ1988":9477,"Ġketen":9478,"Ġretrospect":9479,"Ġobv":9480,"ĠPostoperatief":9481,"enslotte":9482,"106":9483,"Ġnadien":9484,"ĠLymfadenopathie":9485,"zi":9486,"lar":9487,"aminatie":9488,"ĠBerg":9489,"eswijk":9490,"ĠWegens":9491,"151":9492,"Ġgedetecte":9493,"Ġpas":9494,"bv":9495,"Ġ95":9496,"065":9497,"leven":9498,"Ġverschijnen":9499,"Neu":9500,"Ġconsult":9501,"Ġgeplande":9502,"Ġvaatstru":9503,"ĠMammapoliVerslag":9504,"Boven":9505,"situ":9506,"Ġinvoluerend":9507,"droom":9508,"ĠBDZ":9509,"Ġbijeen":9510,"1980":9511,"ĠJeroen":9512,"Ġlangere":9513,"reteren":9514,"inus":9515,"ruik":9516,"Ġ96":9517,"Ġlongmetastasen":9518,"Ġovertuigend":9519,"?-":9520,"irena":9521,"Ġbijhorende":9522,"Ġinterpreteren":9523,"uzumab":9524,"CTISCH":9525,"Ġeenmalig":9526,"ocraniale":9527,"bleven":9528,"ĠAard":9529,"Ġtrauma":9530,"Analyse":9531,"Ġgef":9532,"Ġintral":9533,"1984":9534,"ĠGeneeskunde":9535,"ROLL":9536,"Ġaflijn":9537,"Radio":9538,"Ġlymfeklierdrainage":9539,"Ġrechtermediale":9540,"ĠCCA":9541,"Ġdenken":9542,"ĠinitiÃ«le":9543,"+,":9544,"Ġvit":9545,"Ġgebleven":9546,"cuul":9547,"Ġbeduid":9548,"Ġoverzien":9549,"afrag":9550,"Ġprik":9551,"urende":9552,"teren":9553,"rillig":9554,"test":9555,"ĠDan":9556,"gerTypiste":9557,"liecyst":9558,"ĠEnde":9559,"Ġbasaalcelcarcinoom":9560,"voren":9561,"vanced":9562,"Lokaal":9563,"Ġaangrenzende":9564,"NAM":9565,"inoom":9566,"Ca":9567,"Ġhuidafwijking":9568,"Loc":9569,"Ġpapillaire":9570,"Ġherhaalde":9571,"Ġoedemateus":9572,"Ġfistel":9573,"Ġeens":9574,"ĠAlexander":9575,"ventief":9576,"front":9577,"nodulaire":9578,"Ġtran":9579,"achtig":9580,"Ġbeduidend":9581,"Klinisch":9582,"ES":9583,"Ġnauw":9584,"Ġhuidverkleuring":9585,"Ġbehor":9586,"periclaviculair":9587,"Ġgeexcideerd":9588,"Ġresult":9589,"schildklierkwab":9590,"ĠlinksOnveranderd":9591,"Intern":9592,"ĠOnvoldoende":9593,"Ġpuntiforme":9594,"Densiteit":9595,"zocht":9596,"ysteem":9597,"Ġplaveisel":9598,"ĠOngeveer":9599,"neo":9600,"Ġamorf":9601,"ĠSTEREOTACTISCH":9602,"FT":9603,"asting":9604,"ĠHeden":9605,"ĠgegevensScreen":9606,"ĠRechtsaxillair":9607,"Ġgevorderde":9608,"Pijnklachten":9609,"ĠVreeswijk":9610,"metastaseerd":9611,"Ġ94":9612,"054":9613,"Ġadvanced":9614,"ĠOngerust":9615,"ĠComplicaties":9616,"208":9617,"HB":9618,"totale":9619,"anten":9620,"Ġpra":9621,"ĠPame":9622,"Favourable":9623,"pa":9624,"ĠGegroep":9625,"Ġlobulaties":9626,"1978":9627,"Ġmicron":9628,"112":9629,"Ġ=":9630,"Ġzitten":9631,"ĠDCA":9632,"Ġafgerond":9633,"annen":9634,"Ġverklaart":9635,"scheiding":9636,"ĠpartiÃ«le":9637,"Ġafm":9638,"axel":9639,"Ġhotspot":9640,"ubrium":9641,"Sterke":9642,"Overeenkomstig":9643,"Representatieve":9644,"histochem":9645,"LINK":9646,"umat":9647,"ĠMG":9648,"Ġbuikwand":9649,"ocele":9650,"iditeit":9651,"Ġjeuk":9652,"Ġeinde":9653,"Ġaansluit":9654,"Ġlum":9655,"055":9656,"axillaire":9657,"Ġessentieel":9658,"bele":9659,"Ġverdwijnen":9660,"erbaar":9661,"che":9662,"Ġaangetekend":9663,"ĠVaatkalk":9664,"ĠInvasie":9665,"Ġtumordensiteit":9666,"epitheliale":9667,"104":9668,"Ġinza":9669,"Ġnooit":9670,"ĠRus":9671,"Amstelland":9672,"mi":9673,"ĠEss":9674,"ĠRVP":9675,"ĠLocoregionaal":9676,"Suspect":9677,"Ġdrukpijnlijke":9678,"Â°)":9679,"tings":9680,"inkjes":9681,"Ġoedemateuze":9682,"Ġbloedvat":9683,"segmentexcisie":9684,"supraclaviculair":9685,"Ġsomm":9686,"Ġsubclaviculair":9687,"Ġplekje":9688,"sisterende":9689,"Histologische":9690,"Ġpleurale":9691,"Ġgeident":9692,"155":9693,"ĠSnijvlakken":9694,"Eerdere":9695,"Focaal":9696,"Ġrechterleverkwab":9697,"Ġradiogeleide":9698,"Ġlinkerbovenkwadrant":9699,"Ġaankleuren":9700,"Ġsclerose":9701,"ĠAsymmetrische":9702,"119":9703,"Ġkwab":9704,"MB":9705,"ĠOppervlakkig":9706,"arge":9707,"Ġweten":9708,"Ġonderkwadranten":9709,"Ġneuro":9710,"Ġgereconstrueerde":9711,"Ex":9712,"Involutiebeeld":9713,"Ġoverschaduw":9714,"menten":9715,"alt":9716,"Ġbultje":9717,"ĠHa":9718,"ĠVergrote":9719,"Ġinframammaire":9720,"nemen":9721,"ĠHerceptin":9722,"Ġuitgaande":9723,"Ġgecorreleerd":9724,"Caud":9725,"1997":9726,"Ġ+++":9727,"ĠPameyer":9728,"Ġpostmenopauzaal":9729,"Ã©n":9730,"sinds":9731,"ĠCut":9732,"elo":9733,"Ġplaatsel":9734,"Ġminste":9735,"Crani":9736,"Ġaanvra":9737,"ĠOliecyste":9738,"Line":9739,"iw":9740,"Vergrote":9741,"inclusief":9742,"Ġfraaie":9743,"Ġverwijd":9744,"zoals":9745,"Ġtri":9746,"Ġsigmoid":9747,"evalueerd":9748,",.":9749,"nodus":9750,"118":9751,"058":9752,"1981":9753,"Ġvetlob":9754,"AG":9755,"SUV":9756,"serv":9757,"tegrenzen":9758,"Ġaftegrenzen":9759,"ĠMBK":9760,"ktober":9761,"Ġschotten":9762,"Ġcoil":9763,"RGOS":9764,"Ġgetracht":9765,"Ġgeidentificeerd":9766,"Ġstre":9767,"ĠDoppler":9768,"Ġgeacc":9769,"Ġsprieterig":9770,"echt":9771,"pathologisch":9772,"ongersch":9773,"Ġcorticale":9774,"teert":9775,"echoÃ¯sche":9776,"ĠoriÃ«ntatie":9777,"kleine":9778,"Ġbodem":9779,"ĠPathologie":9780,"Ġliet":9781,"Ġstip":9782,"Ġverstoorde":9783,"ascie":9784,"NM":9785,"ĠSupra":9786,"Ġcraniodorsaal":9787,"hyp":9788,"pijn":9789,"Ġgladbegrensde":9790,"ĠGroen":9791,"Ġdrukpijn":9792,"207":9793,"Supra":9794,"VER":9795,"zeem":9796,"Viveen":9797,"Ġklierverdeling":9798,"ĠToele":9799,"Ġelastische":9800,"ĠSecurmarker":9801,"ĠHogerop":9802,"ĠVI":9803,"Ġmoedervlek":9804,"RECHT":9805,"recept":9806,"gemarkeerd":9807,"Ġsecundaire":9808,"Ġgeevalueerd":9809,"verwijzing":9810,"Ġstagering":9811,"ĠRCC":9812,"ongerschans":9813,"Herhalen":9814,"categorie":9815,"fiel":9816,"1977":9817,"Hierna":9818,"ĠEnigszins":9819,"Ġmanubrium":9820,"Lumpectomie":9821,"Ġdonker":9822,"ĠKool":9823,"ĠTerugkijkend":9824,"ĠLateraalboven":9825,"aid":9826,"imum":9827,"Ġoverprojecterend":9828,"Ġvraag":9829,"Ġsteatotisch":9830,"gebleven":9831,"erent":9832,"ĠrechtsOnveranderd":9833,"ĠbeiderzijdsMammografie":9834,"Ġ53":9835,"ĠDrs":9836,"ĠMedebeoordeeld":9837,"Ġhogergelegen":9838,"Ġvoorafgaan":9839,"ĠEsserman":9840,"oot":9841,"gemeten":9842,"lakt":9843,"Ġstellate":9844,"Ġlucent":9845,"hole":9846,"ees":9847,"esophag":9848,"oleerde":9849,"verdenking":9850,"imide":9851,"Ġexcisiebiopsie":9852,"Ġbandvormige":9853,"initieve":9854,"ĠTAC":9855,"Ġword":9856,"Ġleverlaesies":9857,"Ġbijnier":9858,"Axillae":9859,"sdynamiek":9860,"iwj":9861,"Ġgeanalyseerd":9862,"Ġbovenstaand":9863,"Ġgepen":9864,"argete":9865,"adnex":9866,"Ġ46":9867,"Ġvastgestelde":9868,"Ġverklaard":9869,"schouder":9870,"ĠBaar":9871,"ĠHoorn":9872,"Ġcontaminatie":9873,"069":9874,"Ġsnijvlakken":9875,"Ġgenoeg":9876,"Ġverlopen":9877,"nieuwde":9878,"1940":9879,"ĠSeinstraRadioloogB":9880,"uits":9881,"EC":9882,"edeem":9883,"Ġkapseldoor":9884,"ĠBloed":9885,"Ġgepenetre":9886,"jongerschans":9887,"patiente":9888,"ĠMin":9889,"ĠTotaal":9890,"Ġhuidlaesie":9891,"Ev":9892,"omografie":9893,"ĠARGOS":9894,"ĠVor":9895,"Ġretropectorale":9896,"afw":9897,"Ġthoraxregio":9898,"CLIP":9899,"Ġvolstrekt":9900,"CLIPS":9901,"Ġhuis":9902,"rint":9903,"ontgen":9904,"113":9905,"Huidbiopt":9906,"Ġconusexcisie":9907,"uurt":9908,"Ġsparing":9909,"Ġsignific":9910,"idden":9911,"idiverende":9912,"imidex":9913,"orsale":9914,"Ġstructuurtjes":9915,"ĠVermeer":9916,"ĠStokkelNucleaire":9917,"Ġextrahepatische":9918,"Uitgangssituatie":9919,"Ġmastopatisch":9920,"Ġmicrocysteus":9921,"Ġbenader":9922,"Ġanterieure":9923,"reet":9924,"Ġnuchter":9925,"Overig":9926,"El":9927,"Ġangi":9928,"Ġ48":9929,"onderkwadrant":9930,"ĠUitsluiten":9931,"Vaat":9932,"Ġontwikkel":9933,"Omdat":9934,"Voelt":9935,"ĠmammaeMammacarcinoom":9936,"hoogd":9937,"Ġvermoedelijke":9938,"waarvan":9939,"Ġbereikbaar":9940,"geleid":9941,"Ġglandulair":9942,"Ġabdom":9943,"Ġgaf":9944,"Ġinitiele":9945,"Ġsommige":9946,"Ġafnemende":9947,"ĠVolledig":9948,"Ġgekregen":9949,"geplaatst":9950,"state":9951,"semin":9952,"Ġmantelveldbestraling":9953,"locatie":9954,"gv":9955,"pal":9956,"enGeboortedatum":9957,"1941":9958,"Ġforsere":9959,"Klierdensiteit":9960,"ĠHui":9961,"Pa":9962,"ĠGec":9963,"Hyp":9964,"Ġreiken":9965,"Ġuitgebreider":9966,"Ġnaaldbiopsie":9967,"tebraal":9968,"Ġkapseldoorbraak":9969,"Suggestie":9970,"Ġonbekende":9971,"ĠADC":9972,"Ġtumorhaard":9973,"167":9974,"Ġaanzienlijk":9975,"Overeenkomend":9976,"Ġ65":9977,"ĠDeventer":9978,"Ġ54":9979,"Ġid":9980,"Ġcosto":9981,"tended":9982,"ĠProminente":9983,"ĠHuidverdikking":9984,"Ġcent":9985,"vou":9986,"Ġanaloog":9987,"Ġhy":9988,"ĠVeen":9989,"bed":9990,"Ġrestante":9991,"Ġomring":9992,"Ġplooien":9993,"Ġpijpje":9994,"ĠVermeeren":9995,"Ġgeconst":9996,"diep":9997,"ĠVerhoogde":9998,"Ġechoreflectie":9999,"Ġangst":10000,"ĠAug":10001,"Ġdermat":10002,"minent":10003,"gewricht":10004,"Ġverminderd":10005,"Ġafgekapsel":10006,"ĠUitwas":10007,"Ġdikste":10008,"Zaans":10009,"Ġafiwj":10010,"ĠSNIndicatie":10011,"Ġlongparenchym":10012,"Ġdiepergelegen":10013,"Compositie":10014,"Ġschedelfront":10015,"optimaal":10016,"rup":10017,"omin":10018,"Ġlipomen":10019,"Ġintercostale":10020,"----------------":10021,"ĠBehoudens":10022,"LINKS":10023,"omy":10024,"Ġgedeform":10025,"Basaal":10026,"ĠPathologisch":10027,"laatste":10028,"Overigens":10029,"Komt":10030,"mn":10031,"ConclusieOngewijzigd":10032,"ĠMammografieT":10033,"grondaankleuring":10034,"Ġnecrotisch":10035,"aort":10036,"mmel":10037,"ĠRot":10038,"Ġepitheliale":10039,"Ġureteren":10040,"Ġ-----------------":10041,"Ġsuboptimale":10042,"Ġstral":10043,"Ġschildwachtklieren":10044,"zing":10045,"angen":10046,"zowel":10047,"Onscherpe":10048,"Doorgestuurd":10049,"ĠVerslagStatisch":10050,"fecte":10051,"Ġregel":10052,"Ġtea":10053,"rug":10054,"187":10055,"ĠIUD":10056,"traject":10057,"ĠGrillige":10058,"xSN":10059,"iseerde":10060,"ekker":10061,"Ġfractuur":10062,"Body":10063,"Cervix":10064,"Dikke":10065,"ĠlinksMammografie":10066,"senteert":10067,"Ġ096":10068,"Daarna":10069,"Ġvaatwandcalcificaties":10070,"ĠSegmenteel":10071,"Ġafgelijnde":10072,"ĠContralateraal":10073,"ĠVERGROTING":10074,"Ġbespreken":10075,"Ġbuurt":10076,"Ġvoelde":10077,"Ġrechterbovenkwab":10078,"uraal":10079,"sep":10080,"Ġpacemaker":10081,"zer":10082,"veel":10083,"Ġperifere":10084,"Ġgetro":10085,"Duidelijke":10086,"Ġspont":10087,"Ġparenchymverdi":10088,"Ġmenopauz":10089,"ciscus":10090,"Prominente":10091,"Ġsusceptibiliteitsartefacten":10092,"Ġgevraagd":10093,"aanvullende":10094,"ĠWas":10095,"everwijk":10096,"rastuzumab":10097,"volle":10098,"Ġaant":10099,"Ġtechnische":10100,"wijl":10101,"Volledig":10102,"rofie":10103,"vertebraal":10104,"nt":10105,"Ġavl":10106,"Ġgeziene":10107,"Irregulair":10108,"ja":10109,"Ġln":10110,"ĠLN":10111,"Ġtumorsoort":10112,"ĠsneldiagnostiekPalpabele":10113,"Ġonduidelijkheid":10114,"laatsing":10115,"Ġafiwjkingen":10116,"LBQ":10117,"Ġdetecte":10118,"Ġpreventief":10119,"Ġlongcarcinoom":10120,"Slechts":10121,"Ġdepositie":10122,"1986":10123,"Ġparotis":10124,"Ġlymfoedeem":10125,"ĠLK":10126,"ulte":10127,"ijna":10128,"MAMMAE":10129,"Ġkrijgt":10130,"VerslagFDG":10131,"Ġdia":10132,"Ġgeres":10133,"Postoperatief":10134,"ĠMammografieMriscMRISC":10135,"infiltr":10136,"ĠEind":10137,"Ġtroebele":10138,"Ġdistaal":10139,"Fibro":10140,"jom":10141,"nier":10142,"Ġcelrijk":10143,"releert":10144,"mateuze":10145,"Ġreeel":10146,"Ġ1986":10147,"grootte":10148,"kop":10149,"mus":10150,"Ġoste":10151,"isatie":10152,"ones":10153,"Ġbedo":10154,"apula":10155,"ĠlymfadenopathieConclusie":10156,"Ġposttherapie":10157,"ĠscreeningVerslag":10158,"KoopsTypist":10159,"Ġcamera":10160,"Ġlongnoduli":10161,"Ġtrombose":10162,"Ġvriescoupe":10163,"abele":10164,"ondan":10165,"oorts":10166,"upes":10167,"etrozol":10168,"ktisch":10169,"Lever":10170,"Ġdra":10171,"Ġuitscheiding":10172,"1982":10173,"Ġmaximum":10174,"Ġsyndroom":10175,"res":10176,"akker":10177,"20504":10178,"Ġsusceptibiliteitsartefact":10179,"Ġglobaal":10180,"Vraagstellingpreop":10181,"trent":10182,"emende":10183,"Ġbovengenoemde":10184,"grotings":10185,"Ġverd":10186,"ĠHar":10187,"Ġokselmetastase":10188,"rijne":10189,"Ġradicale":10190,"Ġtrip":10191,"Ġbetrouwbare":10192,"ĠCon":10193,"Ġhilaire":10194,"Ġstapel":10195,"Ġgewoon":10196,"raakbeen":10197,"RECHTS":10198,"%),":10199,"Ġmaior":10200,"ĠVerslagNa":10201,"Ġheuvel":10202,"dzalic":10203,"Ġ21408":10204,"ĠKrdzalic":10205,"Mediocaudaal":10206,"onnen":10207,"059":10208,"icyste":10209,"Ġclassific":10210,"Ple":10211,"Tussen":10212,"rechter":10213,"ĠRet":10214,"Ġribfra":10215,"Ġinvas":10216,"esponse":10217,"Ġmediodorsaal":10218,"Ġpresternaal":10219,"Ġgesteld":10220,"Nadien":10221,"Ġlook":10222,"roek":10223,"ĠMirena":10224,"ĠHanging":10225,"uitbreiding":10226,"ECTIE":10227,"Ġmacroscopische":10228,"oden":10229,"Ġaanvragen":10230,"amnestisch":10231,"Ġdomin":10232,"Ġsegmentexcisie":10233,"rath":10234,"idente":10235,"seminatie":10236,"Gering":10237,"olen":10238,"Ġ93":10239,"ĠGrotendeels":10240,"Ġmarges":10241,"Eens":10242,"Plaatsing":10243,"opcor":10244,"ĠDis":10245,"VraagstellingWLE":10246,"Gelobuleerde":10247,"opcorn":10248,"Ġdikw":10249,"Ġlobje":10250,"mie":10251,"Ġwant":10252,"ĠCaud":10253,"agnose":10254,"Ġmark":10255,"Ġcito":10256,"185":10257,"Ġgecompliceerd":10258,"Ġhemangiomen":10259,"Ġphyllodestumor":10260,"Ġgeis":10261,"esion":10262,"liniek":10263,"Ġresultaat":10264,"Ġgecomp":10265,"radiotherapie":10266,"Ġlinkerleverkwab":10267,"Ġgeleidelijke":10268,"Ġcompressieopnamen":10269,"JECTIE":10270,"Zijde":10271,"Â¿":10272,"Ġlidoca":10273,"zegd":10274,"omente":10275,"Ġtomogra":10276,"Achtergrondaankleuring":10277,"Familie":10278,"Ġdistale":10279,"Ġnorm":10280,"Ġfel":10281,"ĠMetastasen":10282,"Ġongerustheid":10283,"ĠUMCU":10284,"Ġernstige":10285,"gebruik":10286,"iltraat":10287,"Ġpapillomatose":10288,"ctu":10289,"Ġmacrokalk":10290,"ondanks":10291,"omenteel":10292,"Ġmes":10293,"Ġuitstral":10294,"Ġwilde":10295,"Groepje":10296,"Beoordeelbaarheid":10297,"ĠVerkrijgen":10298,"az":10299,"Ġvis":10300,"stek":10301,"neum":10302,"Ġvolumine":10303,"Ġtempi":10304,"MR":10305,"Ġomtrent":10306,"ductaal":10307,"rimaire":10308,"176":10309,"uccesvolle":10310,"sparend":10311,"gerekend":10312,"ĠBoer":10313,"Ġascites":10314,"aN":10315,"risk":10316,"Ġinitieel":10317,"ĠRussel":10318,"Ips":10319,"Rustig":10320,"slecht":10321,"ĠTriple":10322,"Ġaankleuringsdynamiek":10323,"Ġchemok":10324,"152":10325,"eira":10326,"ĠnanocolloÃ¯d":10327,"ĠDiaconessenhuis":10328,"ĠAdjuvan":10329,"Ġintralum":10330,"Ġ58":10331,"1994":10332,"Ġfrag":10333,"ĠGelre":10334,"chirurg":10335,"Ġplastiek":10336,"Ġpix":10337,"ateur":10338,"overeenkomstig":10339,"ieke":10340,"Ġcorreleert":10341,"Ġmassief":10342,"Ġoperateur":10343,"Hodgkin":10344,"Me":10345,"Para":10346,"gein":10347,"Ġmgl":10348,"ĠGev":10349,"ype":10350,"ĠdenGeboortedatum":10351,"Ġ3146":10352,"verandering":10353,"ĠCheungNucleair":10354,"Beschikbaar":10355,"Ġopperv":10356,"Ġsnijranden":10357,"Ġein":10358,"Ġblijven":10359,"Ġvlakbij":10360,"ĠVetnecrose":10361,"kvh":10362,"Ġoa":10363,"Ġknop":10364,"Ġterwijl":10365,"Ġparavertebraal":10366,"Ġ1984":10367,"Ġsecreet":10368,"ytologisch":10369,"Ġminuscuul":10370,"Bethesda":10371,"ĠSymmetrische":10372,"1987":10373,"Ġocculte":10374,"Ġsatelliethaardjes":10375,"Ġdriehoekige":10376,"iders":10377,"Ġfout":10378,"Ġaanvoelt":10379,"ditioneel":10380,"Ġconventioneel":10381,"Ġhypoechogene":10382,"Ġgedicteerd":10383,"Ġnagel":10384,"Ġ66":10385,"ĠAnalyse":10386,"Ġuitwassend":10387,"Uitgangsonderzoek":10388,"Ġventrocaudaal":10389,"hove":10390,"microkalk":10391,"Ġafnemend":10392,"Ġcoreb":10393,"Ġleek":10394,"ĠDes":10395,"ymp":10396,"Ġgeplakt":10397,"PNAM":10398,"hilus":10399,"keld":10400,"strijk":10401,"derland":10402,"Ġschaduwen":10403,"ĠRetrospectief":10404,"Ġgestaakt":10405,"Ġlopend":10406,"ĠMRM":10407,"Ġverdichtinkje":10408,"oederige":10409,"catie":10410,"Ġventrolateraal":10411,"ĠreÃ«le":10412,"Ġfascie":10413,"abel":10414,"Ġtumorvrije":10415,"Ġadenopathie":10416,"Ġmnd":10417,"Microkalk":10418,"uptake":10419,"Ġgeploo":10420,"ĠtherapieIndicatie":10421,"Ġaxiaal":10422,"Screenende":10423,"ĠDECLIPS":10424,"ĠClassificatie":10425,"ĠLoodkorrel":10426,"053":10427,"156":10428,"Ġimplan":10429,"uitsland":10430,"Ġcentr":10431,"rogressief":10432,"etering":10433,"153":10434,"orderende":10435,"pakk":10436,"Ġsupervisie":10437,"Ġsarcoom":10438,"114":10439,"ĠAllen":10440,"Ġbasale":10441,"Ġmastectomielitteken":10442,"Ġopmerkelijke":10443,"Ġpraktisch":10444,"ĠTumark":10445,"1988":10446,"Ġobjectiveerbare":10447,"dant":10448,"elast":10449,"Ġmat":10450,"ĠReinier":10451,"Ġkoorts":10452,"ĠOperatie":10453,"Ġpulmonale":10454,"cente":10455,"ĠBiopsie":10456,"ĠSoepel":10457,"cordant":10458,"kleining":10459,"pakket":10460,"Ġoesophag":10461,"ĠNP":10462,"Ġachtergebleven":10463,"BK":10464,"snelde":10465,"stoename":10466,"ĠSolide":10467,"Ġlateraalonder":10468,"Ġprobegeleide":10469,"ĠIntramammaire":10470,"ĠKoolen":10471,"Ġparenchymverdichtingen":10472,"Ġneu":10473,"VR":10474,"ulum":10475,"iraat":10476,"Ġendocervicale":10477,"Ġanti":10478,"hyper":10479,"ovo":10480,"derde":10481,"olst":10482,"Ġ202":10483,"Ġeenvou":10484,"ĠLymf":10485,"Ġangiosarcoom":10486,"Slotervaart":10487,"elepitheel":10488,"ĠVerkalk":10489,"175":10490,"Statische":10491,"Ġingescande":10492,"handen":10493,"Ġafwezigheid":10494,"ĠAlmere":10495,"oens":10496,"illen":10497,"Ġhypoecho":10498,"radicaliteit":10499,"rathor":10500,"Ġcylinder":10501,"Ġuitgenomen":10502,"gebeld":10503,"Ġlaaggradige":10504,"Ġass":10505,"Ġgesugger":10506,"AT":10507,"elk":10508,"Kwadrant":10509,"atjes":10510,"ĠSlaar":10511,"Vraagstellingin":10512,"Ġhyporeflectie":10513,"Ġaandachtspunten":10514,"Ipsilaterale":10515,"Ġnagelaten":10516,"Ġextended":10517,"outine":10518,"Ġechte":10519,"Ġtussentijds":10520,"Ġvolledigheid":10521,"Tweemaal":10522,"dur":10523,"gie":10524,"Ġluid":10525,"Ġplaveiselcelcarcinoom":10526,"Ġheup":10527,"Ġinvasiviteit":10528,"Ġmbv":10529,"ĠlinksGeen":10530,"ĠrechtsMammografie":10531,"Ġ098":10532,"Ġpresenteert":10533,"Ġwashout":10534,"Ġlukt":10535,"Ġgenndiceerd":10536,"ĠGegroepeerde":10537,"ental":10538,"Ġoppervlakte":10539,"iseren":10540,"Ġile":10541,"MAMMOGRAFIE":10542,"erentiatie":10543,"yl":10544,"Ġra":10545,"Ġonzekerheid":10546,"ĠPijnlijk":10547,"Ġdiepgelegen":10548,"ĠPreoperatieve":10549,"Ġdominante":10550,"Ġdoordat":10551,"Ġmeegerekend":10552,"intramammair":10553,"Ġorigine":10554,"Ġprikken":10555,"Ġclassificerende":10556,"thet":10557,"uitwas":10558,"gion":10559,"xeira":10560,"oeke":10561,"ĠTei":10562,"Ġvoorhanden":10563,"texdikte":10564,"ĠBruiningRadioloogA":10565,"eiderd":10566,"ĠFranciscus":10567,"sleutel":10568,"Ġhypermetabool":10569,"Contralaterale":10570,"ĠBloedglucose":10571,"ĠTeixeira":10572,"eiderdorp":10573,"Ġvoorts":10574,"Ġoksellymfklier":10575,"Ġlinkerbovenkwab":10576,"ILC":10577,"rief":10578,"reerd":10579,"sag":10580,"Ġzachte":10581,"Ġcomprim":10582,"Ġzoeken":10583,"Ġgedetecteerd":10584,"Ġinzage":10585,"Homogene":10586,"ĠHaarlem":10587,"ĠVerslagLokalisatie":10588,"Ġscans":10589,"Ġ21407":10590,"Overweeg":10591,"Ġgecomprim":10592,"daan":10593,"linker":10594,"klierdissectie":10595,"ĠOndanks":10596,"Ġgediagnosticeerde":10597,"Ġoudere":10598,"Ġdwars":10599,"Respons":10600,"ĠPM":10601,"deeltelijk":10602,"Ġ56":10603,"Ġgevallen":10604,"Ġgebl":10605,"OKD":10606,"Ġadnexextirpatie":10607,"Ġfemur":10608,"musc":10609,"Ġ........":10610,"RD":10611,"ĠWalde":10612,"Ġdarmen":10613,"ĠWaldeyer":10614,"nom":10615,"rt":10616,"storm":10617,"aalvormige":10618,"ĠInpasbaar":10619,"Ġhuidverkalkingen":10620,"orijke":10621,"Ġzaadjes":10622,"Ġomgevend":10623,"Ġgenormaliseerde":10624,"ĠAblatie":10625,"ĠMediocaudaal":10626,"Ġpatint":10627,"Ġ62":10628,"eppel":10629,"Ġaanvragend":10630,"ID":10631,"Ġsysteem":10632,"Ġ61":10633,"Ġcoupes":10634,"Medisch":10635,"Ġplaatselijk":10636,"Ġvull":10637,"detected":10638,"ĠDruk":10639,"heven":10640,"eur":10641,"Ġafgevallen":10642,"Ġ52":10643,"Ġbepaald":10644,"Ġscreenende":10645,"redelijk":10646,"ĠZonodig":10647,"ĠGelob":10648,"Ġoliecyst":10649,"Ġgroepeerde":10650,"ĠprocedureVerslag":10651,"ĠVogelNucleaire":10652,"Ġmilde":10653,"Ġaflijnbare":10654,"Ġallemaal":10655,"Ġgesignaleerde":10656,"sign":10657,"dib":10658,"Ġopgevuld":10659,"lijkbaar":10660,"Ġrestanten":10661,"ĠIntrapulmonaal":10662,"ĠBol":10663,"ĠZoals":10664,"Ġneur":10665,"Ġgrenzend":10666,"Ġplaveiselepitheel":10667,"Lastig":10668,"dendum":10669,"terdam":10670,"ĠMOK":10671,"Ġrim":10672,"ĠBesproken":10673,"ĠSpanje":10674,"Ġabdominale":10675,":(":10676,"hydromarker":10677,"ĠMutatie":10678,"ĠZij":10679,"aankleurend":10680,"CPB":10681,"obie":10682,"ĠCysten":10683,"Ġclustertjes":10684,"pN":10685,"anis":10686,"olid":10687,"uwing":10688,"Ġmeegenomen":10689,"illoom":10690,"Ġgeconstateerd":10691,"Ġtgv":10692,"ĠKalk":10693,"ĠNA":10694,"Ġmiddenkwab":10695,"Ġmultinodulair":10696,"Ġzones":10697,"Ġeczeem":10698,"kwaliteit":10699,"Ġalsvoren":10700,"gevoelig":10701,"Late":10702,"erGeboortedatum":10703,"eeuw":10704,"terne":10705,"ĠVersnelde":10706,"Ġkleuring":10707,"Ablatio":10708,"argetecho":10709,"die":10710,"Ġranden":10711,"Ġbiops":10712,"Ġhierover":10713,"Ġhyperecho":10714,"Ġdoorgebeld":10715,"eptabele":10716,"pleurale":10717,"chi":10718,"Ġct":10719,"acter":10720,"Ġmogelijkheid":10721,"mente":10722,"nieuwe":10723,"ĠBIOPT":10724,"1983":10725,"ĠRTX":10726,"Ġdikwandige":10727,"bul":10728,"Ġonze":10729,"ĠPte":10730,"ĠHeer":10731,"venbevinding":10732,"geveen":10733,"Tergooi":10734,"Ġ1985":10735,"Ġrecons":10736,"Ġcelmateriaal":10737,"oensdag":10738,"183":10739,"ĠIsala":10740,"Ġpixels":10741,"lei":10742,"Ġuitgevoerde":10743,"Beperkte":10744,"ĠBeiden":10745,"Ġdaarmee":10746,"Ġskeletmetastasen":10747,"ocaliteit":10748,"half":10749,"Ġsupraclav":10750,"ĠVoorafgaand":10751,"apeutische":10752,"-,":10753,"Tomografie":10754,"Vgl":10755,"Ġbaan":10756,"ĠmammacaIndicatie":10757,"ĠsneldiagnostiekVia":10758,"20506":10759,"zichtbaar":10760,"ĠLaterocraniaal":10761,"houdende":10762,"ijden":10763,"Ġbovenveld":10764,"oudt":10765,"Ġforma":10766,"utine":10767,"Ġhernieuwde":10768,"Ġbestraald":10769,"Ġstarten":10770,"multi":10771,"patroon":10772,"RAAG":10773,"oevalsbevinding":10774,"Ġvacuumbiopten":10775,"Ġvisualis":10776,"ariectomie":10777,"Ġnek":10778,"rose":10779,"Ġuitstralend":10780,"Verdikte":10781,"ĠSatelliet":10782,"ĠweefselAchtergrondaankleuring":10783,"1985":10784,"valueerd":10785,"Ġbreidt":10786,"Hierop":10787,"Ġ21406":10788,"Ġvitale":10789,"lymf":10790,"slagen":10791,"ike":10792,"Ġreceptor":10793,"Ġintraluminale":10794,"995":10795,"Ġabusievelijk":10796,"Ġborderline":10797,"ĠMediale":10798,"urale":10799,"ĠZonder":10800,"obulair":10801,"Ġgespannen":10802,"Primair":10803,"Ruim":10804,"Ġafgegrensde":10805,"lander":10806,"mammografisch":10807,"etime":10808,"ĠJuni":10809,"Uitleg":10810,"Postmenopauzaal":10811,"ĠLeegzuigen":10812,"ĠDiffusie":10813,"ĠRepresentatieve":10814,"Ġgeconcent":10815,"ĠgeÃ«valueerd":10816,"Ġbehorend":10817,"etab":10818,"Drainage":10819,"ĠHomogeen":10820,"hem":10821,"Ġhyperp":10822,"hele":10823,"olutie":10824,"ĠGraad":10825,"Ġresthematoom":10826,"entegen":10827,"Ġzwart":10828,"hoewel":10829,"ĠLine":10830,"Ġafwachten":10831,"Progressie":10832,"Ġbra":10833,"Ġuterusextirpatie":10834,"Ġluidt":10835,"IDE":10836,"Ġnanocolloid":10837,"Ġws":10838,"Verdi":10839,"Ġaxillaris":10840,"ĠVerzoek":10841,"Ġaddendum":10842,"ĠbdzIndicatie":10843,"Ġepidermis":10844,"ĠZeker":10845,"handeld":10846,"Ġevalueren":10847,"mammillair":10848,"gem":10849,"Ġstereot":10850,"Ġrestlaesie":10851,"Ġvermelden":10852,"ovale":10853,"eende":10854,"Ġ1987":10855,"ĠPremenopauzaal":10856,"rin":10857,"Ġgeaccentu":10858,"ilig":10859,"inele":10860,"ireren":10861,"ĠVerm":10862,"Ġconcordant":10863,"154":10864,"Ġbotscan":10865,"ĠRotterdam":10866,"Bol":10867,"oekema":10868,"ĠbioptVerslag":10869,"Ġmulticyste":10870,"Ġ1983":10871,"189":10872,"Ġdiepere":10873,"Ġalles":10874,"Ġfijnnodulaire":10875,"menging":10876,"Ġnecrosen":10877,"Ġgegevenst":10878,"Ġschijfvormige":10879,"Ġmammapol":10880,"Ab":10881,"IC":10882,"indien":10883,"Ġwoensdag":10884,"Ġscapula":10885,"etabulum":10886,"umer":10887,"Ġhalve":10888,"crani":10889,"Ġtumorrecidief":10890,"Ġprobleem":10891,"ĠNijme":10892,"Ġrontgen":10893,"ulder":10894,"Ġdifferent":10895,"ĠHoewel":10896,"Lichte":10897,"Leeg":10898,"iGeboortedatum":10899,"Ġpopcorn":10900,"Mammaca":10901,"biopteren":10902,"Ġkloeke":10903,"Ġgeoridnteerde":10904,"ntgen":10905,"ĠMCA":10906,"Ġexcisies":10907,"Ġcystewand":10908,"Ġokselregio":10909,"Ġplekken":10910,"ĠGaat":10911,"ĠPalp":10912,"wijkend":10913,"Ġbreed":10914,"Ġsatelliethaardje":10915,"Ġcer":10916,"cleroseerd":10917,"Oedeem":10918,"Ġkruis":10919,"ĠDynacad":10920,"ypermetab":10921,"uinaal":10922,"orr":10923,"Ġgroeit":10924,"ĠZus":10925,"Opmerking":10926,"Ġchirurgisch":10927,"flank":10928,"Ġmag":10929,"Ġligam":10930,"Ġdigitale":10931,"Ġlonghaarden":10932,"Lymfklieren":10933,"Ġlucentie":10934,"caal":10935,"Ġverzonden":10936,"Ġtepelzijde":10937,"ĠRel":10938,"Ġschotjes":10939,"ĠGelderse":10940,"chemotherapie":10941,"1979":10942,"ĠTechnetium":10943,"bruin":10944,"Ġvoort":10945,"Ġ131":10946,"Ġeenvoudig":10947,"Ġide":10948,"Ġopen":10949,"Verricht":10950,"opa":10951,"Ġfot":10952,"ĠmammografieVia":10953,"Ġdorsocraniaal":10954,"ĠsneldiagnostiekSecond":10955,"Ġresponsevaluatie":10956,"Ġepitheelcellen":10957,"Ġklinieken":10958,"ĠOvale":10959,"Ġspontaan":10960,"ogingen":10961,"Ġfibrotisch":10962,"ĠComplete":10963,"Heeft":10964,"erk":10965,"arte":10966,"olent":10967,"mmografische":10968,"Ġdoorkleurende":10969,"1989":10970,"ĠSuper":10971,"multicentrisch":10972,"Ġwezenlijk":10973,"Ġvragen":10974,"ĠSamen":10975,"fibroadenoom":10976,"Lichamelijk":10977,"Scan":10978,"inkGeboortedatum":10979,"ĠFoekema":10980,"KoopsTypiste":10981,"Ġgepalpeerd":10982,"Ġlife":10983,"ignaalintensiteit":10984,"focale":10985,"ĠApril":10986,"Ġaller":10987,"ctiviteit":10988,"fil":10989,"Ġ133":10990,"ĠSparend":10991,"Ġsteatotische":10992,"carc":10993,"satelliet":10994,"ĠBE":10995,"oÃ¯de":10996,"ĠMinder":10997,"Ġkonden":10998,"Ġleverde":10999,"lanco":11000,"Ġgezocht":11001,"ĠKlieren":11002,"second":11003,"Ġleasie":11004,"Focaliteit":11005,"Lymfadenopathie":11006,"Ġcarc":11007,"Ġcervicaal":11008,"Ġbeeldkwaliteit":11009,"Mari":11010,"boog":11011,"ĠLCC":11012,"Ġneop":11013,"Ġspaarzaam":11014,"ĠBaars":11015,"Ġaankleurings":11016,"ĠRich":11017,"Ġechogeleiding":11018,"cintigrafie":11019,"Ġbi":11020,"ards":11021,"179":11022,"ĠNijmegen":11023,"Ġaspireren":11024,"Ġstandaardprotocol":11025,"boc":11026,"Ġhuisartsen":11027,"Verhoogde":11028,"Echoarme":11029,"ĠRichting":11030,"Ġ093":11031,"ĠSchne":11032,"Ġcircumscript":11033,"litaxel":11034,"Ġwervelcor":11035,"ĠOwers":11036,"Ġstrikvormige":11037,"no":11038,"orrag":11039,"ĠEch":11040,"schien":11041,"Ġmaligniteiten":11042,"Ġzodat":11043,"ĠOverig":11044,"rig":11045,"plaatsen":11046,"Ġcath":11047,"oping":11048,"ĠMaas":11049,"Ġcraniomediale":11050,"Ġgrm":11051,"ĠBenadering":11052,"Ġlocally":11053,"theses":11054,"Ġweerstanden":11055,"ĠCutis":11056,"stabie":11057,"duide":11058,"respons":11059,"Ġsinus":11060,"Ġdermale":11061,"ragmente":11062,"Ġconsolid":11063,"Ġcelcarcinoom":11064,"unstige":11065,"ĠOM":11066,"Ġpatholoog":11067,"Ġgeorgan":11068,"Ġscore":11069,"Ġdikkere":11070,"ĠSeptember":11071,"AB":11072,"nd":11073,"vaardig":11074,"Ġaanmerking":11075,"lobulair":11076,"Ġschildkliercarcinoom":11077,"poort":11078,"ĠRadioloog":11079,"Ġ2Â½":11080,"uraties":11081,"ĠafwijkingenMammografie":11082,"Ġafgetekend":11083,"Ġ097":11084,"Ġpersisteren":11085,"vergelijkend":11086,"AxillaeIpsilaterale":11087,"Ġgecomprimeerd":11088,"Leegzuigen":11089,"pret":11090,"Ġlesion":11091,"ĠJON":11092,"Ġcompacte":11093,"Ġascendens":11094,"pathologische":11095,"ĠDuitsland":11096,"ĠVoorstel":11097,"aortaal":11098,"ml":11099,"Ġfol":11100,"ĠChem":11101,"AP":11102,"architectuurverstoring":11103,"Ġmelkgan":11104,"drukt":11105,"Ġging":11106,"ĠType":11107,"ĠKroon":11108,"ĠWanneer":11109,"Grillig":11110,"Ġpal":11111,"Ġmammografiedn":11112,"ĠVage":11113,"Ġhuidcalcificatie":11114,"ĠResectie":11115,"1990":11116,"ĠchemotherapieVG":11117,"Ġ21400":11118,"Segmentele":11119,"Ġdefinitieve":11120,"ĠSupervis":11121,"lina":11122,"ĠMicro":11123,"Ġprost":11124,"pervlakkige":11125,"tweede":11126,"fibrose":11127,"ĠBeverwijk":11128,"ĠLa":11129,"Ġconcre":11130,"Ġmonomorf":11131,"oerden":11132,"ĠDie":11133,"Ġtepelgebied":11134,"Ġonderling":11135,"ĠVVR":11136,"Ġverlopende":11137,"Ġblauwe":11138,"Ġmicronodulaire":11139,"hyperplasie":11140,"wat":11141,"Ġpneum":11142,"Ġlymfangitis":11143,"Ġmacroscopisch":11144,"ikliniek":11145,"verkalking":11146,"eiland":11147,"ĠContrastopname":11148,"itie":11149,"ĠInitieel":11150,"emie":11151,"Ġ130":11152,"Subtotaal":11153,"ĠUitgebreidheid":11154,"ĠBeperkte":11155,"Ġoptimale":11156,"Ġjr":11157,"Ġbehandelde":11158,"Ġprin":11159,"Ġvene":11160,"ĠSubcutaan":11161,"SIE":11162,"Ġverheven":11163,"patient":11164,"Ġtechniekverschil":11165,"Ġgeisoleerde":11166,"sis":11167,"Ġbul":11168,"Ġbevonden":11169,"Ġ127":11170,"ĠJanuari":11171,"Ġrestklier":11172,"CLC":11173,"kens":11174,"neek":11175,"Ġclustervorming":11176,"vaardigd":11177,"atten":11178,"Ġocht":11179,"oest":11180,"ConclusieEen":11181,"158":11182,"184":11183,"Ġpunctiforme":11184,"Ġheldere":11185,"ĠADH":11186,"Ġzinvol":11187,"Ġhyporeflectieve":11188,"ukje":11189,"ĠHistologische":11190,"uitstrijk":11191,"Ġcompressieopnames":11192,"loopt":11193,"ĠLobulair":11194,"ĠMaar":11195,"ssel":11196,"ĠPap":11197,"oller":11198,"Ġstop":11199,"ĠDecember":11200,"Ġstukjes":11201,"ĠDNA":11202,"geving":11203,"techn":11204,"Ġ(+":11205,"Ġgewricht":11206,"ĠInfra":11207,"ĠMediastinaal":11208,"signalen":11209,"Anamnestisch":11210,"herbeoordeling":11211,"1939":11212,"Postbiopsie":11213,"Ġspecialiste":11214,"Ġbotmetastase":11215,"ĠSchneiders":11216,"rels":11217,"Ġcav":11218,"236":11219,"ĠRadiotherapie":11220,"Ġeilandjes":11221,"indweefsel":11222,"Intramammair":11223,"ĠSnelle":11224,"ĠInvasieve":11225,"Ġpogingen":11226,"ĠDC":11227,"Ġstij":11228,"bepal":11229,"Ġnabijgelegen":11230,"evaluatie":11231,"Ġproblemen":11232,"Ġmicropap":11233,"ĠNeu":11234,"Ġhaakje":11235,"Scintigrafische":11236,"dens":11237,"ĠpunctieVia":11238,"Ġspecifieke":11239,"Ġborstwand":11240,"Ġpreop":11241,"Ġvaso":11242,"cipe":11243,"Ġstreper":11244,"Ġochtend":11245,"elan":11246,"lind":11247,"ectrum":11248,"ummatie":11249,"Ġther":11250,"ĠBr":11251,"verde":11252,"optimale":11253,"Ġwelk":11254,"minima":11255,"Ġadnexen":11256,"Bre":11257,"ijs":11258,"ĠBeg":11259,"Ġoncop":11260,"Ġvetlobje":11261,"zover":11262,"1995":11263,"Ġstruma":11264,"kleiner":11265,"Bevolkingsonderzoek":11266,"Jaarlijkse":11267,"umen":11268,"ĠMammografieIn":11269,"ĠZwartRadioloogI":11270,"ScreeningMammografie":11271,"Ġlopende":11272,"Ovale":11273,"Ġoriginele":11274,"Ġredle":11275,"Ġpolymorf":11276,"FA":11277,"stip":11278,"ĠMacro":11279,"Ġtoedien":11280,"INJECTIE":11281,"Ġstroma":11282,"BIOPT":11283,"vor":11284,"Ġsummatie":11285,"Ġlinkeronderkwab":11286,"Ġbewegings":11287,"ĠAlrijne":11288,"oederig":11289,"Ġulceratie":11290,"Ġdetecteerbaar":11291,"Response":11292,"ulit":11293,"ĠMx":11294,"Ġwellicht":11295,"ĠMulti":11296,"ablatio":11297,"eraard":11298,"maGeboortedatum":11299,"rop":11300,"Ġuitmond":11301,"Ġ095":11302,"ĠsnIndicatie":11303,"Loodkorrel":11304,"Ġmislu":11305,"ĠafiwjkingenVerslag":11306,"Ġneoplasie":11307,"Ġcell":11308,"Ġoplever":11309,"Ġdifferentiatie":11310,"ĠMulticentrisch":11311,"ciplina":11312,"Ġprincipe":11313,"Ġ128":11314,"Ġaspiraat":11315,"1991":11316,"iomorfe":11317,"Ġzijnde":11318,"Ġ138":11319,"Ġvrije":11320,"ĠBel":11321,"sson":11322,"Ġonzekere":11323,"Ġspoelvormige":11324,"Ġintracutaan":11325,"Bijkom":11326,"punt":11327,"bieden":11328,"ĠMammografieen":11329,"ĠVRAAG":11330,"Ġoverleden":11331,"Ġdato":11332,"Ġopgezocht":11333,"ELLING":11334,"Ġgedeformeerde":11335,"steking":11336,"ADC":11337,"Ġonjuist":11338,"ĠSm":11339,"STELLING":11340,"tiele":11341,"kunde":11342,"Neo":11343,"Ġmeen":11344,"isciplina":11345,"idisciplina":11346,"ĠPort":11347,"227":11348,"ĠMastopathisch":11349,"ĠVRAAGSTELLING":11350,"Ġisodens":11351,"Ġ59":11352,"lexe":11353,"Ġvo":11354,"Drs":11355,"ĠHematoom":11356,"velden":11357,"ĠTussentijds":11358,"ĠHuisarts":11359,"oeden":11360,"ĠLe":11361,"1993":11362,"ĠVerdikking":11363,"Ġretrosternale":11364,"Ġdraineren":11365,"Ġgeaccentueerde":11366,"Ġmetingen":11367,"Ġ2101":11368,"Ġontlast":11369,"Voorts":11370,"mans":11371,"Ġmillimetrische":11372,"Ġgescleroseerd":11373,"caudale":11374,"vetnecrose":11375,"ĠVaatcalcificaties":11376,"Ġmenopauzale":11377,"ditie":11378,"anguin":11379,"Ġhemorrag":11380,"Ġzu":11381,"Ġspre":11382,"traumat":11383,"Ġvaatstructuur":11384,"Ġverlaagde":11385,"ibel":11386,"Ġacetabulum":11387,"Meest":11388,"rine":11389,"Ġprocess":11390,"Ġgroepering":11391,"Ġlin":11392,"arina":11393,"eerstra":11394,"ĠmammografieStatus":11395,"Ġhuidkalk":11396,"Ġhuidsparende":11397,"Ġductulus":11398,"Ġsegmentaal":11399,"Ġseptaties":11400,"Ġvarid":11401,"ĠLastig":11402,"Ġafzonderlijk":11403,"Ġrommel":11404,"Ġaanzienlijke":11405,"ĠLittekenweefsel":11406,"gegeven":11407,"enter":11408,"Ġgroe":11409,"postradiatie":11410,"Cath":11411,"start":11412,"Ġmijn":11413,"oci":11414,"terend":11415,"aryn":11416,"lesie":11417,"roningen":11418,"Ġ135":11419,"Ġdifferentieren":11420,"mei":11421,"ĠDCISIndicatie":11422,"neemt":11423,"Behoudens":11424,"ĠÂ¿":11425,"Ġgroenig":11426,"Dientengevolge":11427,"ĠNSSA":11428,"Asp":11429,"Oppervlakkig":11430,"mann":11431,"Ġverge":11432,"ficieel":11433,"Ġpapillomatosis":11434,"infiltratie":11435,"elft":11436,"wijzen":11437,"Ġ85":11438,"ĠHiernaast":11439,"Ġbegonnen":11440,"Ġgebleken":11441,"anguinolent":11442,"iver":11443,"Ġklierkwabje":11444,"ĠGema":11445,"preteerd":11446,"ingvormige":11447,"Ġmassawerking":11448,"Ġsteken":11449,"Ġcereb":11450,"Slanke":11451,"lymfeklier":11452,"Ġverru":11453,"Ġtumark":11454,"Ġtumorbed":11455,"Ġbehoort":11456,"Ġ094":11457,"Ġwegbiopteren":11458,"Ġperiode":11459,"Ã¯njectie":11460,"Ġgedeeltelijke":11461,"itumoraal":11462,"BesnardTypist":11463,"Ġdubbele":11464,"Ġtransson":11465,"Ġtrippel":11466,"Ġstapelende":11467,"ĠOwersNucleaire":11468,"Ġwaarover":11469,"stant":11470,"Ġbindweefsel":11471,"oei":11472,"ĠMastectomie":11473,"structuren":11474,"DCD":11475,"Ġperiferie":11476,"Ġgeruststelling":11477,"ĠSimpele":11478,"ĠIk":11479,"Ġmultidisciplina":11480,"Ġtoeneemt":11481,"ĠSparende":11482,"ittend":11483,"Ġthoracale":11484,"NO":11485,"Ste":11486,"uun":11487,"vraag":11488,"Ġlag":11489,"Ġzat":11490,"ĠAankleurend":11491,"Ġvastleggen":11492,"Ġstugger":11493,"ĠEindhoven":11494,"kent":11495,"Ġwrat":11496,"Ġcava":11497,"behandeling":11498,"Ġhematomen":11499,"Ġdeelname":11500,"Ġ------------------":11501,"Ġafgelopen":11502,"Ġgeresec":11503,"filtre":11504,"Mart":11505,"Moeder":11506,"ODCD":11507,"uini":11508,"Ġwhole":11509,"ĠBQ":11510,"ĠbeiderzijdsX":11511,"Aankleurend":11512,"173":11513,"Multicentrisch":11514,"Ġ20403":11515,"Gegroepeerd":11516,"Ġblauw":11517,"Ġuitmondend":11518,"Ġ51":11519,"Ġhoogst":11520,"lassificeerd":11521,"ĠMastitis":11522,"ardson":11523,"Ġadv":11524,"Ġverl":11525,"Ġabcessen":11526,"Ġaanvullingen":11527,"ĠSNB":11528,"ĠTumorpositief":11529,"Echografische":11530,"espreking":11531,"aplasie":11532,"Ġinfiltraat":11533,"axol":11534,"mers":11535,"Ġcaudomediale":11536,"Ġbuitenfoto":11537,"ijken":11538,"urk":11539,"Ġerin":11540,"Ġinfiltrerende":11541,"Ġgedistrib":11542,"Ġmonit":11543,"Spotcompressie":11544,"Signaalintensiteit":11545,"ĠRade":11546,"Ġgedurende":11547,"Ġ21409":11548,"20403":11549,"Ann":11550,"Ġulcus":11551,"Ġdubbelzijdig":11552,"Ġoesophagus":11553,"Partiele":11554,"Ġbovenzijde":11555,"Ġ64":11556,"ĠHBC":11557,"Ġbew":11558,"Ġ67":11559,"ĠVergrotings":11560,"Ã©Ã©n":11561,"ĠRichardson":11562,"Ġhili":11563,"Ġ92":11564,"Ġcaudocentraal":11565,"Ġlokatie":11566,"Ġ1980":11567,"solide":11568,"ĠMei":11569,"Ġlinkerlong":11570,"ĠPersisterende":11571,"betro":11572,"ease":11573,"ĠGr":11574,"Ġbovenop":11575,"Ġ47":11576,"Ġdorsocaudaal":11577,"Ġgere":11578,"Ġspiculatie":11579,"Ġhaakvormige":11580,"::":11581,"Ġsh":11582,"Ġmammareconstructie":11583,"ĠPosterieur":11584,"Conclusies":11585,"Ġmarkertje":11586,"Ġrechteronderkwab":11587,"Ġsubcutus":11588,"Ġtwistmarkers":11589,"plateau":11590,"lindervormige":11591,"ĠgenmutatieIndicatie":11592,"emara":11593,"Viertal":11594,"Ġontwikkeld":11595,"Ġoliecystjes":11596,"ĠRademaker":11597,"Ġomliggend":11598,"gevoegd":11599,"Ablatie":11600,"Li":11601,"Naast":11602,"Ġgroene":11603,"gram":11604,"ĠReactieve":11605,"Ġ124":11606,"ĠOpnames":11607,"lope":11608,"188":11609,"177":11610,"Ġinkle":11611,"ĠLeiden":11612,"Ondanks":11613,"Ġ126":11614,"Ġaccessoir":11615,"birads":11616,"Ġopnemende":11617,"Ġfusie":11618,"Ġharder":11619,"Ġlumb":11620,"mf":11621,"Ġklierstations":11622,"ĠpunctieVerslag":11623,"ĠWarm":11624,"ĉĉĉĉ":11625,"Ġretroareolaire":11626,"Ġomvangstoename":11627,"Ġvastgelegd":11628,"Uitvo":11629,"RTIndicatie":11630,"Ġstrikmarker":11631,"panel":11632,"HBOC":11633,"Ġgeplooid":11634,"mmetastase":11635,"Ġbleken":11636,"ynaecomastie":11637,"fecteerde":11638,"mTc":11639,"onk":11640,"Ġverkleur":11641,"Ġtrastuzumab":11642,"Ġwarm":11643,"Ġonderquadrant":11644,"Ġoveral":11645,"Ġhuidafwijkingen":11646,"chus":11647,"Ġophel":11648,"Ġbovenbeen":11649,"thermie":11650,"Ġgeorganiseerd":11651,"chan":11652,"Ġslope":11653,"Ġeenzijdig":11654,"Ġ1982":11655,"Ġvrouw":11656,"Ġfraai":11657,"Ġbovendien":11658,"Ġhersen":11659,"Ġvermeende":11660,"Ġdisease":11661,"ĠEventuele":11662,"Tussentijds":11663,"rende":11664,"yclus":11665,"Ġpalpab":11666,"Ġgegaan":11667,"cinoom":11668,"ĠRt":11669,"Ġcompat":11670,"Ġheilig":11671,"espiegel":11672,"Ġ3134":11673,"Preoperatief":11674,"ĠBosman":11675,"Ġbloedig":11676,"Ġmarkeert":11677,"arynx":11678,"eide":11679,"gesproken":11680,"Ġafhankelijk":11681,"Ġfibre":11682,"ĠHelder":11683,"225":11684,"Ġsarc":11685,"ĠMidden":11686,"welke":11687,"164":11688,"werkt":11689,"Correlatie":11690,"samen":11691,"diff":11692,"Ġwenst":11693,"Ġdegeneratief":11694,"ĠKennelijk":11695,"Ġeromheen":11696,"Ġ137":11697,"Ġbedragen":11698,"Alkmaar":11699,"Ġgalact":11700,"Ġgranuloom":11701,"Meander":11702,"koepel":11703,"Ġgezegd":11704,"onne":11705,"onleesbaar":11706,"ĠreÃ¯njectie":11707,"Ġtargetecho":11708,"ĠKo":11709,"osespiegel":11710,"ĠVolledige":11711,"Ġradial":11712,"199":11713,"Ġ21404":11714,"lucosespiegel":11715,"Nevenbevinding":11716,"Gelobde":11717,"Ġ%/":11718,"ĠNSCLC":11719,"Ġdoorgeademde":11720,"ĠHal":11721,"Ġhuidmarkering":11722,"ĠRode":11723,"Ġovaria":11724,"Ġletrozol":11725,"Ġtumorhaarden":11726,"Intramammaire":11727,"ial":11728,"ĠTil":11729,"Ġwaarom":11730,"226":11731,"ĠNOODCD":11732,"Ġechobeeld":11733,"ĠRester":11734,"Ġimmunohistochem":11735,"GRM":11736,"gressie":11737,"Ġarimidex":11738,"Ġherkent":11739,"Risico":11740,"aGeboortedatum":11741,"vraagstelling":11742,"ord":11743,"Ġmammabiopt":11744,"ĠOktober":11745,"ulst":11746,"Ġbiopte":11747,"ĠmammaeNa":11748,"ooij":11749,"ĠUitloper":11750,"Ġnaaldje":11751,"Groep":11752,"Ġskeletale":11753,"Ġscintigrafie":11754,"roeg":11755,"engde":11756,"166":11757,"Ġoverloopklier":11758,"Ġechoreflecties":11759,"moeder":11760,"Ġvoorbereiding":11761,"Ġsubpleurale":11762,"!)":11763,"Diep":11764,"homogeen":11765,"kn":11766,"Ġaaneen":11767,"Ġpectoraalspier":11768,"ĠGezamenlijke":11769,"Ġmultidisciplinair":11770,"ĠAmputatie":11771,"ĠKnobbel":11772,"ĠAchterlaten":11773,"ĠGezamenlijk":11774,"**":11775,"WI":11776,"etra":11777,"Ġgast":11778,"Ġombouw":11779,"ĠrichtingenTer":11780,"ĠConclusieScintigrafische":11781,"Ġapicaal":11782,"ynamische":11783,"ĠRijnstate":11784,"Vraagstellinginspuiten":11785,"bulking":11786,"dem":11787,"Ġ89":11788,"Ġadditioneel":11789,"wan":11790,"rof":11791,"ĠNagenoeg":11792,"loos":11793,"GELE":11794,"Ġklassiek":11795,"kraakbeen":11796,"Ġlymfos":11797,"Ġvoorstel":11798,"Ġjug":11799,"Ġditzelfde":11800,"238":11801,"ĠBlijft":11802,"itaal":11803,"contral":11804,"Ronde":11805,"culair":11806,"Ġlymfeklierstations":11807,"ĠVeld":11808,"ĠMammareductie":11809,"Ġhyperintens":11810,"Sentinelnode":11811,"ulen":11812,"Ġterecht":11813,"Ġhuidbiopt":11814,"Ġspieren":11815,"ĠConclusieEen":11816,"ĠStatisch":11817,"Ġseromen":11818,"Retromamillaire":11819,"ĠDonswijkNucleaire":11820,"Ġplukjes":11821,"Snelle":11822,"Ġgoudmarker":11823,"Ġgeobserv":11824,"afragma":11825,"GS":11826,"bi":11827,"ipoom":11828,"ĠSpiraal":11829,"SSA":11830,"Ġporta":11831,"Ġbovenstaande":11832,"Ġerbij":11833,"passend":11834,"Ġdarmlis":11835,"Ġpalpatoire":11836,"ĠÃ©Ã©n":11837,"ĠVasculaire":11838,"Ġcaudolaterale":11839,"Ġimm":11840,"Ġgereviseerde":11841,"ardi":11842,"Ġgelaten":11843,"waarvoor":11844,"negatief":11845,"arde":11846,"ĠGroningen":11847,"icentrische":11848,"ĠRetromammair":11849,"dometri":11850,"Fors":11851,"SH":11852,"kende":11853,"Ġolig":11854,"onverdachte":11855,"Ġkopie":11856,"Ġglucosespiegel":11857,"ĠDynamiek":11858,"ĠHaga":11859,"ĠRX":11860,"Ġ134":11861,"Ġtoenemen":11862,"Ġverwacht":11863,"Ġgeinvolueerde":11864,"Intrapulmonaal":11865,"Lineair":11866,"Ġcavum":11867,"Ġspecifiek":11868,"SOPNAM":11869,"Ġtip":11870,"ĠReductie":11871,"Ġhyperplastische":11872,"Jeroen":11873,"Th":11874,"ba":11875,"ĠOude":11876,"ĠWal":11877,"Ġcorrelaat":11878,"Ġprocessus":11879,"Ġorg":11880,"Ġcla":11881,"ĠAnamnestisch":11882,"Ġstekende":11883,"Segmentectomie":11884,"TNM":11885,"ĠEerst":11886,"ĠIC":11887,"Ġ129":11888,"Ġrecidiverende":11889,"ĠIntens":11890,"Ġdiscus":11891,"Uiteindelijk":11892,"aara":11893,"vt":11894,"Ġboon":11895,"Ġakkoord":11896,"ĠBody":11897,"elect":11898,"ĠScreen":11899,"ĠMammografiePositieve":11900,"ĠGoedMamma":11901,"Ġresponsmeting":11902,"gendraagster":11903,"Antonius":11904,"PrevooTypist":11905,"Ġtalg":11906,"jan":11907,"Ġgeduide":11908,"landen":11909,"ĠTegen":11910,"Ġbobbeltje":11911,"Middels":11912,"ieze":11913,"Ġbuis":11914,"ĠBer":11915,"Ġgedrukt":11916,"Ġtussenliggende":11917,"geschat":11918,"jodiumbron":11919,"ĠMorbus":11920,"ĠBevolkingsonderzoek":11921,"otomie":11922,"Ġwaaromheen":11923,"Ġ115":11924,"165":11925,"Ġradioactief":11926,"VUMC":11927,"Ġhouden":11928,"Ġflu":11929,"ondentie":11930,"Ġkant":11931,"Ġaangeven":11932,"Ġlonglaesies":11933,"receptor":11934,"Dan":11935,"Normalisatie":11936,"Ġpac":11937,"minus":11938,"FUP":11939,"Ġ00006":11940,"Ġheelkunde":11941,"Ġwrsch":11942,"Ġlifetime":11943,"ĠLevermetastasen":11944,"Ġvisualiseerbaar":11945,"blique":11946,"234":11947,"ĠBronovo":11948,"ije":11949,"Ġhoek":11950,"Ġintrathor":11951,"Ġmedisch":11952,"NEU":11953,"alhier":11954,"ĠDuctectasie":11955,"ĠHorm":11956,"ĠImp":11957,"Aantal":11958,"ĠViertal":11959,"ĠBeperkt":11960,"Ġomringend":11961,"Ġstreperige":11962,"ulitis":11963,"cer":11964,"Ġfiss":11965,"key":11966,"1937":11967,"ĠPreoperatief":11968,"Ġdoorgroeiend":11969,"Ġverpleegkundige":11970,"aanvullend":11971,"Ġvergeten":11972,"twist":11973,"Initieel":11974,"Ġdienen":11975,"Ġrechterschildklierkwab":11976,"ĠtomosyntheseTer":11977,"ĠCTx":11978,"Ġparamedi":11979,"ĠsneldiagnostiekRevisie":11980,"20505":11981,"Intense":11982,"Ġblokvormige":11983,"Ġnadat":11984,"Ġcentra":11985,"ĠWarmerdam":11986,"Ġcompatibel":11987,"mk":11988,"ĠInderdaad":11989,"Ġlokalis":11990,"181":11991,"uravocht":11992,"ĠBloom":11993,"MO":11994,"Ġthe":11995,"Ġnogal":11996,"ĠHofpoort":11997,"destijds":11998,"Ġmetaal":11999,"eller":12000,"Ġobject":12001,"ĠPeritumoraal":12002,"Ġmammacarcin":12003,"Ġbezit":12004,"yf":12005,"indt":12006,"eterogene":12007,"onderzoeken":12008,"retromamillair":12009,"Ġiom":12010,"chond":12011,"Ġstreepvormig":12012,"Ġeffecten":12013,"Ġtumordeposities":12014,"filtreerd":12015,"Dhr":12016,"target":12017,"volg":12018,"ĠBegeleidend":12019,"ConclusieGeen":12020,"Ġstuwing":12021,"ĠafwijkingenX":12022,"ĠlymfeklierenOverig":12023,"Ġspleet":12024,"gerTypist":12025,"MammografieTer":12026,"Ġprecontrast":12027,"174":12028,"mandib":12029,"ĠbelastingIndicatie":12030,"Ġliponecro":12031,"khuizen":12032,"Ã¶ntgen":12033,"ĠNeg":12034,"Ġvlekkig":12035,"Ġcomed":12036,"umeni":12037,"Ġoppervlak":12038,"slechts":12039,"stereotactische":12040,"West":12041,"ck":12042,"ĠSeroom":12043,"191":12044,"ĠMammasparende":12045,"Ġglandula":12046,"entum":12047,"Ġ63":12048,"oft":12049,"Ġcorrelerend":12050,"lok":12051,"zwelling":12052,"Ġand":12053,"Ġtumoruitbreiding":12054,"Ġribkraakbeen":12055,"Ġplannen":12056,")Â·":12057,"Palp":12058,"bdz":12059,"xN":12060,"Ġbolle":12061,"inguini":12062,"teiland":12063,"ĠBakker":12064,"ĠAfwezig":12065,"Ġliever":12066,"Ġvallei":12067,"Doorverwezen":12068,"Ġproximaal":12069,"obb":12070,"358":12071,"Ġuitslagen":12072,"469":12073,"Ġulcererende":12074,"olling":12075,"Ġgemist":12076,"Ġhoofdzakelijk":12077,"Ġbeschrijft":12078,"!).":12079,"suspecte":12080,"ĠPL":12081,"rukken":12082,"ĠFebruari":12083,"Ġernaast":12084,"178":12085,"Ġvervloeid":12086,"Ġrech":12087,"ĠMen":12088,"ĠIr":12089,"Ġinterna":12090,"Ġareolaire":12091,"Ġmediaanlijn":12092,"favourable":12093,"Ġhuidexcisie":12094,"Ġlastige":12095,"Mammatumor":12096,"extremiteitKlinische":12097,"278":12098,"ĠtamoxifenIndicatie":12099,"ĠOntst":12100,"ĠElkhuizen":12101,"ĠHypo":12102,"ĠVermulst":12103,"fig":12104,"Ġstation":12105,"Ġinfer":12106,"Ġcholec":12107,"Ġlaagste":12108,"Ġovariumca":12109,"bo":12110,"seroom":12111,"stad":12112,"deeld":12113,"treem":12114,"Ġdergelijke":12115,"Ġconfiguraties":12116,"ĠHaaglanden":12117,"Ġmicroscopie":12118,"viteit":12119,"vies":12120,"deerd":12121,"ĠBetro":12122,"ĠPostop":12123,"ĠNieuwegein":12124,"Ġaort":12125,"Ġtoek":12126,"ĠDun":12127,"Ġvoorkomen":12128,"ĠNEU":12129,"Ġlipomateuze":12130,"Ġinfectieus":12131,"Ġtoekom":12132,"inmiddels":12133,"ita":12134,"Ġsugger":12135,"Ġaangeleverd":12136,"ĠTN":12137,"omplic":12138,"Ġ140":12139,"ĠStart":12140,"naaldbiopten":12141,"Ġmeenemen":12142,"Max":12143,"hanging":12144,"bergen":12145,"Mammae":12146,"ĠLangeRadioloogS":12147,"ĠECHOGELE":12148,"ĠPerifocaal":12149,"ĠArn":12150,"Naaldbiopsie":12151,"Ġneurinoom":12152,"Ġwervelcorpus":12153,"dui":12154,"Amstel":12155,"182":12156,"hyre":12157,"ĠProcedure":12158,"+.":12159,"Ġmerende":12160,"diagnose":12161,"korrels":12162,"Ġsternoc":12163,"Ġveneuze":12164,"umerus":12165,"ventraal":12166,"Ġbetroffen":12167,"wegens":12168,"Ġplaveiselepitheelcellen":12169,"Ġbiopsien":12170,"IL":12171,"Ġtaal":12172,"Verzoek":12173,"Ġoppervlakkiger":12174,"Ġplusminus":12175,"Segmentexcisie":12176,"Purmerend":12177,"Ġect":12178,"Ġherbeoordeelbaar":12179,"geleverde":12180,"Ġlosliggend":12181,"Marge":12182,"Dors":12183,"pte":12184,"alder":12185,"Ġak":12186,"Ġonvolledig":12187,"Ġvoorliggend":12188,"ĠcmIndicatie":12189,"weinig":12190,"ichel":12191,"ĠgegevensStatus":12192,"0900":12193,"ustrof":12194,"Ġwegge":12195,"breast":12196,"Ġhalsregio":12197,"procedureel":12198,"Ġhepatis":12199,"Ġcentrische":12200,"Ġbiopteur":12201,"rogeen":12202,"ĠMeppel":12203,"ĠDd":12204,"sequ":12205,"Ġechogeen":12206,"ĠVraag":12207,"Ġretrospectie":12208,"258":12209,"Ġdoorgemaakt":12210,"Ġgefragmente":12211,"ateerde":12212,"stemming":12213,"Ġanamnestisch":12214,"157":12215,"ĠMI":12216,"Ġdiafragma":12217,"ffic":12218,"anden":12219,"odensiteit":12220,"Ġlangdur":12221,"preparaat":12222,"456":12223,"Gelre":12224,"vat":12225,"Ġij":12226,"ĠTjongerschans":12227,"imus":12228,"own":12229,"192":12230,"Ġlevermetastase":12231,"Ġverdeelde":12232,"Ġcontinueren":12233,"Ġinklemming":12234,"Routine":12235,"vari":12236,"ĠMaart":12237,"ĠBern":12238,"ĠGha":12239,"Ġglaas":12240,"istologie":12241,"1992":12242,"lipse":12243,"Ġdateert":12244,"ĠVoorbereiding":12245,"ĠreconstructieIndicatie":12246,"Multi":12247,"Ġinguinaal":12248,"Ġbuikorganen":12249,"Ġmelanoo":12250,"Ġulcererend":12251,"Caudolateraal":12252,"ĠAdjuvant":12253,"Ġileum":12254,"Ġgeobserveerde":12255,"Ġtumorschaduw":12256,"foort":12257,"Ġvag":12258,"ĠFors":12259,"Ġverbetering":12260,"Ġcorebiopt":12261,"homogene":12262,"ora":12263,"Ġlaterocraniale":12264,"Ġgeloc":12265,"engelo":12266,"ĠDaarin":12267,"Ġgeclassificeerd":12268,"Ġgebeid":12269,"Ġ49":12270,"190":12271,"Snijvlak":12272,"Ġopheldering":12273,"Ġlym":12274,"Ġopvalt":12275,"ĠZH":12276,"artiÃ«le":12277,"235":12278,"Ġtrial":12279,"ry":12280,"Ġwaterland":12281,"ĠmammaMammografie":12282,"ĠmammacarcinoomIndicatie":12283,"Ġperitone":12284,"Ġpijnlijkheid":12285,"Geadviseerd":12286,"754":12287,"acob":12288,"ĠgbIndicatie":12289,"Ġervaren":12290,"Ġintracutane":12291,"Vettige":12292,"ĠGhazi":12293,"Flevo":12294,"Ġvorderende":12295,"Ġuitb":12296,"Ġinfo":12297,"193":12298,"Ġsindsdien":12299,"Ġinfiltratief":12300,"pleuraal":12301,"Ġmeegegeven":12302,"ĠVeranderingen":12303,"Ġflinke":12304,"Ġliponecrosis":12305,"oradi":12306,"ĠWeert":12307,"Ġ136":12308,"Ġloodkorrels":12309,"tweemaal":12310,"Ġseptae":12311,"-/":12312,"gs":12313,"Ġgetest":12314,"Ġonderhuid":12315,"ĠRisico":12316,"Ġschatting":12317,"092":12318,"komt":12319,"HER":12320,"metaplasie":12321,"Ġparac":12322,"ĠPAP":12323,"Ġontstaat":12324,"169":12325,"Ġdichtst":12326,"Ġresectievlakken":12327,"heeft":12328,"netje":12329,"Ġendometri":12330,"Ġintenser":12331,"Ġroze":12332,"ĠBovenIJ":12333,"Ġintrapulmonaal":12334,"FR":12335,"Ret":12336,"Ġav":12337,"Ġinform":12338,"Ġhaal":12339,"ĠDors":12340,"ĠMammografieZie":12341,"Ġgepre":12342,"Ġconsent":12343,"senteerd":12344,"Ġthoraxopnamen":12345,"Ġwijst":12346,"Ġ089":12347,"297":12348,"Ã¯nvolueerd":12349,"ekkige":12350,"Ġkapselvorming":12351,"Ġ00004":12352,"ĠherceptinIndicatie":12353,"Ġpuss":12354,"Ġrijtje":12355,"ĠDijklander":12356,"Ġlnn":12357,"elyst":12358,"ĠGroepje":12359,"Ġregulier":12360,"elystad":12361,"tevens":12362,"lific":12363,"Ġkop":12364,"urs":12365,"Ġmammaire":12366,"Ġrijk":12367,"Ġmediocaudale":12368,"ĠInge":12369,"ĠZwolle":12370,"ertensie":12371,"ransvers":12372,"laagd":12373,"LM":12374,"Ġve":12375,"Ġmomenteel":12376,"ille":12377,"Ġtoilet":12378,"zaaid":12379,"did":12380,"Ġonleesbaar":12381,"Ġuteri":12382,"Ġhoogste":12383,"Ġingel":12384,"455":12385,"NBC":12386,"Ġcumulatief":12387,"NAC":12388,"Ġ2200":12389,"Ġkg":12390,"verkleining":12391,"ĠSneek":12392,"Ġcentraalboven":12393,"Ġstereotax":12394,"Ġoval":12395,"Amphia":12396,"Ġmisschien":12397,"ruppel":12398,"etracht":12399,"Ġvanmiddag":12400,"Ġtrekkend":12401,"Ġwacht":12402,"Ġonderlaag":12403,"VraagstellingcT":12404,"Ġretrosternaal":12405,"kort":12406,"Ġlobectomie":12407,"Ġechoarmer":12408,"Ġhoofdhalsgebied":12409,"Ġschildklierkwab":12410,"Ġunfavorable":12411,"Tumormassa":12412,"ĠAdditionele":12413,"Mediocraniaal":12414,"Ġrechterbovenkwadrant":12415,"dia":12416,"Micro":12417,"Ġmalen":12418,"ĠCH":12419,"198":12420,"Ġdorsomediaal":12421,"Ġcontrolefoto":12422,"Ġprotocollair":12423,"777":12424,"olstoel":12425,"Ġlinkszijdig":12426,"ĠTD":12427,"ruikt":12428,"Ġaangeduid":12429,"Ġvermelde":12430,"Afstand":12431,"Ġhyperthermie":12432,"iepectomie":12433,"Ġrommelig":12434,"ratie":12435,"Ġboll":12436,"ctale":12437,"ĠTH":12438,"ĠSWK":12439,"Ġgelegd":12440,"Ġpremenopauzaal":12441,"artefacten":12442,"ĠTenslotte":12443,"ubbel":12444,"ĠInfiltr":12445,"Ġstralen":12446,"Ġobjectiver":12447,"2200":12448,"Twist":12449,"fout":12450,"ĠKu":12451,"Ġtumoraal":12452,"ĠDaarop":12453,"ventionele":12454,"itumorale":12455,"apsulair":12456,"Technetium":12457,"Medische":12458,"ĠHuizing":12459,"bepaling":12460,"Ġmonitoring":12461,"Ġinformed":12462,"raumeni":12463,"Ġcl":12464,"ĠVast":12465,"Ġ132":12466,"Ġsegmenten":12467,"271":12468,"Ġetc":12469,"Amstelveen":12470,"Ġdrog":12471,"Ġuitzonder":12472,"Ġhyperv":12473,"ĠBeeldvorming":12474,"alling":12475,"arakteristieken":12476,"Ġsnijrand":12477,"ooit":12478,"cheaal":12479,"Ġran":12480,"odorsale":12481,"Ġtijdstip":12482,"standig":12483,"GT":12484,"pijnlijke":12485,"Ġ:-":12486,"ĠBlanco":12487,"okter":12488,"Ġrecidieftumor":12489,"Ġvolgde":12490,"367":12491,"Cervixuitstrijk":12492,"Ġgereseceerd":12493,"vonne":12494,"verspreid":12495,"other":12496,"rijver":12497,"ĠBruiningRadioloogS":12498,"Ġlipo":12499,"Ġ3147":12500,"Prepectoraal":12501,"Ġsteatosis":12502,"Ġpalpatoir":12503,"Evidente":12504,"elanoom":12505,"Ġclaustrof":12506,"Ġgepresenteerd":12507,")).":12508,"atose":12509,"ĠMijns":12510,"ĠBuiten":12511,"Ġgene":12512,"mbolie":12513,"meld":12514,"Ġprofiel":12515,"ĠFEC":12516,"AMC":12517,"ĠVanaf":12518,"Ġsternaal":12519,"Complete":12520,"Ġformaline":12521,"fa":12522,"stellen":12523,"vanwege":12524,"122":12525,"ĠGerichte":12526,"electase":12527,"Ġbeetje":12528,"omet":12529,"Ġgoeddeels":12530,"457":12531,"clerose":12532,"ytaire":12533,"333":12534,"ĠTezamen":12535,"Ġgranulomateuze":12536,"ĠCraniomediaal":12537,"Ġschilf":12538,"ute":12539,"Ġbiopsieplaats":12540,"ĠMarkers":12541,"Ġban":12542,"Ġlinkerthoraxwand":12543,"ĠRBK":12544,"Ġpostradiotherapie":12545,"Ġanaloge":12546,"ĠTeertstraRadioloogC":12547,"Ġtomografisch":12548,"Ġoksellymfklieren":12549,"ĠBehandeling":12550,"Ġseros":12551,"Ġmiddenboven":12552,"Ġbijmenging":12553,"imamil":12554,"advies":12555,"Ġachterste":12556,"Ġmetaplastisch":12557,"Ġimpressie":12558,"369":12559,"AD":12560,"mate":12561,"ĠVooraf":12562,"Ġtepelhofrand":12563,"ĠGeslaagde":12564,"quis":12565,"sAdditionele":12566,"ĠreÃ«":12567,"Ġdruppel":12568,"Inlichtingen":12569,"ĠAIOS":12570,"Vraagstellingnu":12571,"Ġoperaties":12572,"Ġ088":12573,"Ġloodmarkeringen":12574,"247":12575,"287":12576,"iliconen":12577,"482":12578,"Achterlaten":12579,"ĠMeijer":12580,"ethoudende":12581,"Ġgecalc":12582,"Ġdoorloopt":12583,"447":12584,"IG":12585,"MX":12586,"ioom":12587,"zw":12588,"ĠBleek":12589,"Ġ91":12590,"Ġschuil":12591,"Ġgrootcellig":12592,"lopende":12593,"ĠVroeg":12594,"zone":12595,"ĠBELL":12596,"ativiteit":12597,"oblique":12598,"Ġsignificante":12599,"Ġchemokuren":12600,"ĠBELLIN":12601,"IK":12602,"Mon":12603,"Ġlevercysten":12604,"Ġkarakteriseren":12605,"Ġbenaderen":12606,"Ġzuigen":12607,"Ġscreendetected":12608,"ĠcmBekende":12609,"arts":12610,"eber":12611,"ĠBezoek":12612,"Ġmacroverkalkingen":12613,"ĠkurenVerslag":12614,"Ġ3133":12615,"Ġboteiland":12616,"Ġafgekapseld":12617,"Ġboonvormige":12618,"ser":12619,"ĠReconstructie":12620,"ĠJansd":12621,"mmunic":12622,"ĠKw":12623,"Ġ1981":12624,"celarm":12625,"bec":12626,"ĠRos":12627,"Ġsubmandib":12628,"Ġsamenwerking":12629,"Ġdaaromheen":12630,"Ġaccessoire":12631,"Ġaansluitende":12632,"ĠRetour":12633,"Ġimmuun":12634,"600":12635,"fre":12636,"aler":12637,"Ġwig":12638,"ĠPrimair":12639,"Ġpostther":12640,"ĠJaarlijks":12641,"standige":12642,"Ġgewijzigde":12643,"Ġeiwitrijk":12644,"Tepelvocht":12645,"Wegens":12646,"focaal":12647,"derig":12648,"Ġdokter":12649,"ĠOP":12650,"Mammabiopten":12651,"Ġlaagje":12652,"256":12653,"Car":12654,"par":12655,"so":12656,"Ġ1Â½":12657,"Ġnvt":12658,"ĠLeiderdorp":12659,"ĠmammaeTer":12660,"1938":12661,"evental":12662,"ĠREINJECTIE":12663,"Ġcontroleren":12664,"PameijerTypiste":12665,"Ġopgevangen":12666,"Ġheuveltje":12667,"cv":12668,"mc":12669,"seud":12670,"ĠZijn":12671,"ĠJansdal":12672,"!.":12673,"Sep":12674,"dent":12675,"haald":12676,"Ġeenderde":12677,"ĠHP":12678,"aanwijzingen":12679,"tocollair":12680,"Ġmidlijn":12681,"Ġstereotactie":12682,"stabiel":12683,"chondrale":12684,"imamillair":12685,"Ġdebulking":12686,"ĠSpotcompressie":12687,"ĠCentrale":12688,"Ġdoorzaaid":12689,"ĠValle":12690,"dureerd":12691,"Ġthym":12692,"ĠNovember":12693,"Ġbrachi":12694,"Ġcomedonecrose":12695,"ĠVallei":12696,"Ġventromediaal":12697,"Ġent":12698,"ĠDus":12699,"Ġpunctietraject":12700,"Onzeker":12701,"iming":12702,"Ġgegroeide":12703,"866":12704,"Ġvastere":12705,"%/":12706,"Ductectasie":12707,"Dystrofe":12708,"Nodulaire":12709,"Yvonne":12710,"Ġvoller":12711,"oriteit":12712,"arinaal":12713,"Ġrevis":12714,"Ġbezoek":12715,"Ġzn":12716,"Ġfemara":12717,"Ġ3Â½":12718,"VraagstellingMet":12719,"ikkel":12720,"Ġverslaggeving":12721,"ĠCTIndicatie":12722,"mini":12723,"ĠBeek":12724,"Ġbeschikbare":12725,"breking":12726,"Ġ3138":12727,"Ġinitidle":12728,"ĠRadicaal":12729,"ĠBeoordeelbaar":12730,"Ġaansluiting":12731,"sleutelbeelden":12732,"Uitvoering":12733,"reerde":12734,"Ġeditie":12735,"ĠCarcinoom":12736,"ĠVie":12737,"Ġ68":12738,"Ġvervolgd":12739,"ĠRelatief":12740,"AR":12741,"ied":12742,"Ġ120":12743,"Ġuni":12744,"Ġbloedverlies":12745,"FTER":12746,"ogram":12747,"ĠGendraagster":12748,"pelle":12749,"abij":12750,"233":12751,"Lucas":12752,"ĠPartiele":12753,"ĠVocht":12754,"Ġvermoeden":12755,"876":12756,"Ġanterolateraal":12757,"Ġsystemisch":12758,"TC":12759,"Ġtraag":12760,"ĠFijne":12761,"Enkel":12762,"Ġsuperficieel":12763,"Pleuravocht":12764,"Plan":12765,"Vorm":12766,"ĠEven":12767,"ĠAtyp":12768,"ĠKok":12769,"ĠpunctiePalpabele":12770,"Ġhieronder":12771,"Ġretroclaviculair":12772,"ĠbijzonderhedenConclusie":12773,"Ġextremiteit":12774,"Ġpleit":12775,"vlekkige":12776,"Ġ3143":12777,"Ġresteren":12778,"Ġplooiing":12779,"ĠGeringBekende":12780,"Ġperfus":12781,"Ġlidocaine":12782,"Ġtre":12783,"Ġmeteen":12784,"110":12785,"Ġconsequ":12786,"Ġingele":12787,"355":12788,"ĠAspecifieke":12789,"Ġlaterocaudale":12790,"Ġonderlinge":12791,"Ġallereerst":12792,"Ġcaudoventraal":12793,"ated":12794,"Ġpneumon":12795,"ĠVooral":12796,"365":12797,"Ġossaal":12798,"Ġproliferaties":12799,"VT":12800,"toe":12801,"Ġaltern":12802,"ikking":12803,"Ġgraden":12804,"conclusieve":12805,"Ġonwaarschijnlijk":12806,"Ġdorsocentraal":12807,"bloeding":12808,"Ġsupero":12809,"Gen":12810,"Gec":12811,"dcis":12812,"later":12813,"Ġvervangen":12814,"Ġafloop":12815,"Ġvergelijkende":12816,"eldrop":12817,"ĠechoVerslag":12818,"abool":12819,"Ġ186":12820,"ĠZwartRadioloogS":12821,"lopige":12822,"kkenheid":12823,"geluk":12824,"ĠPostbiopsie":12825,"384":12826,"20401":12827,"Retroareolair":12828,"Prepectorale":12829,"Ġdrukgevoelig":12830,"Ġvroegere":12831,"ĠYaz":12832,"ĠDifferentiaaldiagnostisch":12833,"ĠYazdi":12834,"Ġcoe":12835,"okt":12836,"schaduwen":12837,"Ġlonge":12838,"ĠAbces":12839,"Ġmislukt":12840,"ĠPLUS":12841,"zou":12842,"Ġker":12843,"Ġbovenkant":12844,"Ġrolstoel":12845,"armere":12846,"rust":12847,"activ":12848,"245":12849,"Ġimplant":12850,"chanter":12851,"oradiatie":12852,"Ġmi":12853,"ificeerde":12854,"ĠLig":12855,"ĠStervormige":12856,"Ġmammabiopten":12857,"ĠPFT":12858,"radiaire":12859,"Ġhypoechoische":12860,"ĠGesp":12861,"mammapoli":12862,"ĠCath":12863,"ĠKorte":12864,"Ġaanwijzen":12865,"998":12866,"ĠAfgenomen":12867,"366":12868,"Ġangioinvasie":12869,"Ġgedistribueerd":12870,"rolateraal":12871,"Ġmorgen":12872,"Ġgesep":12873,"Ġtiming":12874,"Ġabdominaal":12875,"Ġabalt":12876,"oudmarker":12877,"Ġsubstractie":12878,"Ġvastz":12879,"755":12880,"20402":12881,"PBIIndicatie":12882,"Hematoom":12883,"ĠAntoniushove":12884,"Ġdeposities":12885,"ĠBrink":12886,"ĠGemarkeerd":12887,"betreft":12888,"ĠDatum":12889,"ĠAFTER":12890,"ĠSindsdien":12891,"Ġgynaecoloog":12892,"Ġribfracturen":12893,"lymfklier":12894,"iswaar":12895,"ĠZuiver":12896,"gelob":12897,"pectoralis":12898,"357":12899,"issimus":12900,"Ġuitvoering":12901,"Ġdefect":12902,"jaar":12903,"Ġmammair":12904,"ĠPrimaire":12905,"180":12906,"Ġgepenetreerd":12907,"ĠAugustus":12908,"ĠTilburg":12909,"ĠGy":12910,"ĠZover":12911,"Ġclassificeren":12912,"Suboptimaal":12913,"Ġmeegekomen":12914,"Ġintracysteuze":12915,"Ġtalgklier":12916,"Ġuitzondering":12917,"ĠKra":12918,"555":12919,"Hoger":12920,"Ġdeukje":12921,"ĠTotal":12922,"ĠCoop":12923,"Ġrechterthoraxwand":12924,"Ġ21403":12925,"ĠSchrijver":12926,"quisitie":12927,"angr":12928,"iculair":12929,"abeth":12930,"Ġbelangr":12931,"453":12932,"388":12933,"otact":12934,"Ġcap":12935,"Ġkennis":12936,"Ġslagschaduwen":12937,"556":12938,"aandam":12939,"Ġlongembolie":12940,"orad":12941,"leb":12942,"wijkende":12943,"022":12944,"Ġeindig":12945,"Ġbiopsienaald":12946,"Ġdrogbeeld":12947,".;":12948,"ĠThorax":12949,"Reactieve":12950,"976":12951,"Ġvulling":12952,"Ġmulticysteuze":12953,"Ġconcrementen":12954,"kst":12955,"Ġrondovale":12956,"getoonde":12957,"Ġcorrespondentie":12958,"Fijn":12959,"Pijnlijk":12960,"dr":12961,"ingGeboortedatum":12962,"Ġtav":12963,"Ġzevental":12964,"andnormale":12965,"ĠMammografieEerste":12966,"cyclus":12967,"Afwijkend":12968,"Ġ21401":12969,"Ġtuboo":12970,"TeertstraTypiste":12971,"Ġoridn":12972,"ĠAxillae":12973,"Ġwezenlijke":12974,"ĠEndeNucleair":12975,"Ġbulging":12976,"Ġvond":12977,"Ġeenmalige":12978,"wegend":12979,"Ġstansbiopten":12980,"Ġgelocaliseerd":12981,"wissel":12982,"Ġhumerus":12983,"Ġkie":12984,"ĠBra":12985,"ariumcarcinoom":12986,"Ġvariant":12987,"Rijn":12988,"Ġdoc":12989,"228":12990,"Ġingezonden":12991,"Ġmogen":12992,"ctaal":12993,"ĠLumpectomie":12994,"041":12995,"Ġborstsparende":12996,"Ġbestral":12997,"gevoerd":12998,"231":12999,"294":13000,"Ġroutine":13001,"Ġmoeizame":13002,"Ġcylind":13003,"Ġarmen":13004,"ĠRFA":13005,"Ġposttraumat":13006,"ips":13007,"doch":13008,"Ġbronnetje":13009,"helft":13010,"Ġcontrolaterale":13011,"ĠAbusievelijk":13012,"ĠVerkalkingen":13013,"Dense":13014,"Vaag":13015,"variectomie":13016,"repen":13017,"Ġplastische":13018,"oogd":13019,"Ġlymfev":13020,"ocy":13021,"Ġechoische":13022,"ruijn":13023,"Ġanast":13024,"ĠVerslagEchogeleide":13025,"dval":13026,".->":13027,"20300":13028,"hyperintense":13029,"variatie":13030,"Ġabaltio":13031,"temin":13032,"Ġ69":13033,"224":13034,"ĠVorige":13035,"Ġcylindercel":13036,"hi":13037,"mark":13038,"Ġviel":13039,"Ġlike":13040,"Ġovereenstemming":13041,"assen":13042,"Ġultra":13043,"Ġverruca":13044,"TR":13045,"VEN":13046,"asp":13047,"Ġorganen":13048,"011":13049,"Ġdaarop":13050,"cuum":13051,"885":13052,"Ġarteria":13053,"ipelle":13054,"ystectomie":13055,"ĠPast":13056,"943":13057,"ĠBIRAD":13058,"PRES":13059,"Ġuitstrekkend":13060,"gankelijk":13061,"Ġcollecties":13062,"OMPRES":13063,"Ġcylindrische":13064,"Resectie":13065,"darm":13066,"even":13067,"Ġdesc":13068,"Ġzh":13069,"spiraalvormige":13070,"Ġanus":13071,"arenchyma":13072,"oidose":13073,"Ġsatellietjes":13074,"Ġlocale":13075,"Ġipsilateraal":13076,"familiair":13077,"Ġwittig":13078,"Ġthorac":13079,"Ġopmerkelijk":13080,"OMPRESSIE":13081,"Hui":13082,"unifocaal":13083,"ĠSiv":13084,"ĠLaf":13085,"ĠVerhoogd":13086,"Ġrechterprothese":13087,
[...]
